{
  "version": "1.0",
  "truncation": null,
  "padding": null,
  "added_tokens": [
    {
      "id": 0,
      "content": "[PAD]",
      "single_word": false,
      "lstrip": false,
      "rstrip": false,
      "normalized": false,
      "special": true
    },
    {
      "id": 1,
      "content": "[UNK]",
      "single_word": false,
      "lstrip": false,
      "rstrip": false,
      "normalized": false,
      "special": true
    },
    {
      "id": 2,
      "content": "[CLS]",
      "single_word": false,
      "lstrip": false,
      "rstrip": false,
      "normalized": false,
      "special": true
    },
    {
      "id": 3,
      "content": "[SEP]",
      "single_word": false,
      "lstrip": false,
      "rstrip": false,
      "normalized": false,
      "special": true
    },
    {
      "id": 4,
      "content": "[MASK]",
      "single_word": false,
      "lstrip": false,
      "rstrip": false,
      "normalized": false,
      "special": true
    },
    {
      "id": 13031,
      "content": "<|endoftext|>",
      "single_word": false,
      "lstrip": false,
      "rstrip": false,
      "normalized": false,
      "special": true
    }
  ],
  "normalizer": null,
  "pre_tokenizer": {
    "type": "ByteLevel",
    "add_prefix_space": false,
    "trim_offsets": true,
    "use_regex": true
  },
  "post_processor": null,
  "decoder": {
    "type": "ByteLevel",
    "add_prefix_space": true,
    "trim_offsets": true,
    "use_regex": true
  },
  "model": {
    "type": "BPE",
    "dropout": null,
    "unk_token": null,
    "continuing_subword_prefix": null,
    "end_of_word_suffix": null,
    "fuse_unk": false,
    "byte_fallback": false,
    "ignore_merges": false,
    "vocab": {
      "[PAD]": 0,
      "[UNK]": 1,
      "[CLS]": 2,
      "[SEP]": 3,
      "[MASK]": 4,
      "\"": 5,
      ",": 6,
      "-": 7,
      ".": 8,
      "0": 9,
      "1": 10,
      "2": 11,
      "3": 12,
      "4": 13,
      "5": 14,
      "6": 15,
      "7": 16,
      "8": 17,
      "9": 18,
      ":": 19,
      "B": 20,
      "F": 21,
      "I": 22,
      "M": 23,
      "P": 24,
      "R": 25,
      "S": 26,
      "U": 27,
      "V": 28,
      "a": 29,
      "b": 30,
      "c": 31,
      "d": 32,
      "e": 33,
      "g": 34,
      "h": 35,
      "i": 36,
      "k": 37,
      "l": 38,
      "m": 39,
      "n": 40,
      "o": 41,
      "r": 42,
      "s": 43,
      "t": 44,
      "u": 45,
      "w": 46,
      "y": 47,
      "z": 48,
      "¡": 49,
      "¢": 50,
      "£": 51,
      "¤": 52,
      "¥": 53,
      "¦": 54,
      "§": 55,
      "¨": 56,
      "©": 57,
      "ª": 58,
      "«": 59,
      "¬": 60,
      "®": 61,
      "¯": 62,
      "°": 63,
      "±": 64,
      "²": 65,
      "³": 66,
      "´": 67,
      "µ": 68,
      "¶": 69,
      "·": 70,
      "¸": 71,
      "¹": 72,
      "º": 73,
      "»": 74,
      "½": 75,
      "¾": 76,
      "¿": 77,
      "Â": 78,
      "Ø": 79,
      "Ù": 80,
      "Ú": 81,
      "Û": 82,
      "â": 83,
      "ï": 84,
      "Ċ": 85,
      "Ġ": 86,
      "Ģ": 87,
      "ģ": 88,
      "Ĥ": 89,
      "ĥ": 90,
      "Ħ": 91,
      "ħ": 92,
      "Ĩ": 93,
      "ĩ": 94,
      "Ī": 95,
      "Ĭ": 96,
      "Į": 97,
      "į": 98,
      "İ": 99,
      "ı": 100,
      "Ĳ": 101,
      "ĳ": 102,
      "Ĵ": 103,
      "Ķ": 104,
      "ĸ": 105,
      "ĺ": 106,
      "Ļ": 107,
      "Ľ": 108,
      "ľ": 109,
      "Ŀ": 110,
      "Ł": 111,
      "ł": 112,
      "Ń": 113,
      "Ø§": 114,
      "ÙĬ": 115,
      "ĠØ": 116,
      "ÙĨ": 117,
      "ÙĪ": 118,
      "ĠÙ": 119,
      "ĠÚ": 120,
      "Ø±": 121,
      "Ú¾": 122,
      "Ø§Ø": 123,
      "ÙĦ": 124,
      "Ø§ÙĨ": 125,
      "ĠØ¬": 126,
      "ĠØ³": 127,
      "ĠÙħ": 128,
      "Ùħ": 129,
      "Ø§Ú¾": 130,
      "ÙĬÙĨ": 131,
      "Ûģ": 132,
      "ĠÚª": 133,
      "Ø³": 134,
      "Ø¯": 135,
      "Ùĩ": 136,
      "Úª": 137,
      "ĠØ¢": 138,
      "ĠÙ¾": 139,
      "..": 140,
      "Øª": 141,
      "ĠØª": 142,
      "Ø§Ø¦": 143,
      "ĠØ§": 144,
      "ĠÙĪ": 145,
      "Ú»": 146,
      "Ø¬": 147,
      "ÙĬÙĪ": 148,
      "ĠÚ©": 149,
      "Ø¨": 150,
      "ĠØ¨": 151,
      "ĠÙĨ": 152,
      "Ø§Ø±": 153,
      "ĠØ¬ÙĬ": 154,
      "ĠÚ¾": 155,
      "Ø¦": 156,
      "Ú¾ÙĨ": 157,
      "Ù½": 158,
      "Ø§Ú¾Ø§Ú¾": 159,
      "ÛĮ": 160,
      "Ø§Ø¦ÙĬÙĨ": 161,
      "ØĮ": 162,
      "âĢ": 163,
      "ĠÙ¿": 164,
      "ĠÙĦ": 165,
      "Ø±ÙĬ": 166,
      "ÚĻ": 167,
      "Ú¾ÙĬ": 168,
      "ÙĪÙĨ": 169,
      "Ø§ÙĦ": 170,
      "Ú©": 171,
      "ĠØ§Ø": 172,
      "Ùģ": 173,
      "âĢ¦": 174,
      "Ù¾": 175,
      "ĠÚ©ÙĬ": 176,
      "ÙĤ": 177,
      "Úı": 178,
      "ĠØ±": 179,
      "ĠØ¬ÙĪ": 180,
      "ĠØ¢Ú¾ÙĬ": 181,
      "ĠØªÛģ": 182,
      "Ø§Ú»": 183,
      "ÚĮ": 184,
      "ĠØ§ÙĨ": 185,
      "Ø¬ÙĬ": 186,
      "Ú¯": 187,
      "ĠÚĨ": 188,
      "ÙĬØ": 189,
      "ÙĨÚ¾ÙĨ": 190,
      "Ùİ": 191,
      "ĠÚı": 192,
      "ĠÚ¯": 193,
      "ĠÙ»": 194,
      "Ø¦ÙĬ": 195,
      "ÚĨ": 196,
      "ÙĬØ§": 197,
      "ÙĨØ¯": 198,
      "ÙĪØ±": 199,
      "Ø¹": 200,
      "ĠØ³Ø§Ø¦ÙĬÙĨ": 201,
      "ĠÙĩ": 202,
      "ĠØ®": 203,
      "ÛĴ": 204,
      "ØŁ": 205,
      "ĠØ¯": 206,
      "Ú³": 207,
      "ĠØ´": 208,
      "ĠØªÙĬ": 209,
      "ĠÙĨÛģ": 210,
      "...": 211,
      "ÙĩÙĬ": 212,
      "ÙĬÙĪÙĨ": 213,
      "Ø´": 214,
      "ĠØ§ÙĪ": 215,
      "ĠØ§Ú¾": 216,
      "Ø§Ø¨": 217,
      "ĠÚĩ": 218,
      "ĠØ¨Ûģ": 219,
      "ÙĲ": 220,
      "ĠØ§Ø³": 221,
      "Ù¿": 222,
      "ĠÙħØ§ÙĨ": 223,
      "ÙĬÙĨØ¯": 224,
      "Ø§Ø¦ÙĬ": 225,
      "ÙĦÙĬ": 226,
      "ÚĬ": 227,
      "ÙĬØ±": 228,
      "Ø§Ú¾Ø§Ú¾Ø§Ú¾Ø§Ú¾": 229,
      "ØŃ": 230,
      "Ø§Ùħ": 231,
      "ÙĨÚĮ": 232,
      "Ø²": 233,
      "ĠÙ½": 234,
      "ĠÙĤ": 235,
      "Ú¾Ø§ÙĨ": 236,
      "ĠØ³Ø§ÙĨ": 237,
      "ĠÚĢ": 238,
      "ÙĬØ§Ø±": 239,
      "ĠÚ³": 240,
      "Ø§Ø¯": 241,
      "¦ÙĬ": 242,
      "ĠØ¦ÙĬ": 243,
      "ĠÙ¾Ø±": 244,
      "ÙĬØ¡": 245,
      "ÙĩÙĨ": 246,
      "ĠØ¹": 247,
      "Ø±Ø¨": 248,
      "ĠÙģ": 249,
      "Ùº": 250,
      "ÙĪÙĦ": 251,
      "Ø§Ø³": 252,
      "ĠØ¬Ø§": 253,
      "Ø§Ø¡": 254,
      "ĠØ³ÙĨÚĮ": 255,
      "ĠØµ": 256,
      "Ø¬ÙĪ": 257,
      "Ø§Øª": 258,
      "ĠÙ¿ÙĬ": 259,
      "ÚĻÙĬ": 260,
      "ĠØ§ÙĪÚ¾Ø§ÙĨ": 261,
      "02": 262,
      "Ùı": 263,
      "ĠÚªØ±": 264,
      "ØªÙĬ": 265,
      "Ø§Ú»ÙĬ": 266,
      "ĠÚªØ±ÙĬ": 267,
      "ÙĦØ§": 268,
      "Úº": 269,
      "ÚĢ": 270,
      "ÚĦ": 271,
      "ÚªÙĦ": 272,
      "ĠÚ©Ø§ÙĨ": 273,
      "ĠØ§Ø³Ø§ÙĨ": 274,
      "Øµ": 275,
      "Úĥ": 276,
      "ĠÚ³Ø§ÙĦ": 277,
      "ÙĦÙĪ": 278,
      "Ø§Ú¾ÙĬ": 279,
      "Ø§Ø±ÙĬ": 280,
      "Ø§Ú¾Ø§Ú¾Ø§": 281,
      "ĠØ¢Ú¾ÙĨ": 282,
      "ĠØŃ": 283,
      "ÚªÙĬ": 284,
      "Ø³Ø§Ø¦ÙĬÙĨ": 285,
      "Ø¯Ø§": 286,
      "Ø±ÙĪ": 287,
      "202": 288,
      "Ġ,": 289,
      "ĠÙ¾ÙĪ": 290,
      "ÙĨÚ¾ÙĨØ¬ÙĬ": 291,
      "2021": 292,
      "ĠÛģ": 293,
      "Ú¾Ø§Ú¾Ø§Ú¾Ø§Ú¾Ø§Ú¾": 294,
      "Ø·": 295,
      "Ø³Øª": 296,
      "Ø¡": 297,
      "Ø¸": 298,
      "ĠØ¢ÙĩÙĬ": 299,
      "ĠØ§Ú¾ÙĪ": 300,
      "ĠÙ¿ÙĪ": 301,
      "ĠÙĦÚ©": 302,
      "ĠÙĬØ§": 303,
      "Ø§Ø¨Ø§": 304,
      "ĠØ³Ùħ": 305,
      "Ú¾ÙĪ": 306,
      "ÙĬØ³": 307,
      "ÙĩØ§": 308,
      "ÚªÙĪ": 309,
      "ĠÙĪÚı": 310,
      "Ø§ÙĪ": 311,
      "Ø§ÙĤ": 312,
      "¸ı": 313,
      "ï¸ı": 314,
      "Ø¦ÙĪ": 315,
      "ÙĬØ§Ø±Ø§": 316,
      "ĠÙĨØ§Ú¾ÙĬ": 317,
      "Ù½Ø±": 318,
      "ĠÚªÙħ": 319,
      "ÙĩÙĪ": 320,
      "ÙĬÚª": 321,
      "Ø®": 322,
      "Úĩ": 323,
      "ĠÚĩØ§": 324,
      "ÙĬØ¯": 325,
      "ÙĦÚªÙĦ": 326,
      "ĠØ³ÙĪ": 327,
      "ĠÚªÙĪ": 328,
      "ÙĩÛģ": 329,
      "ĠÙħÙĪÙĨ": 330,
      "ĠÚ¾Úª": 331,
      "ĠÚªÙĬ": 332,
      "ÚĻÙĪ": 333,
      "06": 334,
      "ÛĮÚº": 335,
      "Ø¨Ø±": 336,
      "ĠÙħØ§Ú»": 337,
      "Ġ1": 338,
      "Ú¾Ø§": 339,
      "Ø§ÙĨÙĬ": 340,
      "ĠÙĦØ§Ø¡": 341,
      "ĠØ§Ø¦ÙĬÙĨ": 342,
      "Ú¾Ø§Ú¾Ø§Ú¾Ø§Ú¾Ø§Ú¾Ø§Ú¾Ø§Ú¾Ø§": 343,
      "ĠÚĬ": 344,
      "Ø³ÙĬ": 345,
      "ĠÙ¿ÙĬÙĨØ¯": 346,
      "ĠØ§ÙĬ": 347,
      "Ú©ÙĬ": 348,
      "ÚıÚ¾ÙĨ": 349,
      "Ø¯ÙĪ": 350,
      "ĠØ³Ø±": 351,
      "Ú¾Ø±": 352,
      "Ø§Ø²": 353,
      "ĠØ²": 354,
      "ĠÙħÙĪ": 355,
      "Ø§Ú¾Ø§": 356,
      "Ú»ÙĬ": 357,
      "ĠÚĨÙĪ": 358,
      "ÚĨÙĬ": 359,
      "Ġï¸ı": 360,
      "ĠØ§ÙĦ": 361,
      "ÙĨÚ¯": 362,
      "Úį": 363,
      "ĠÙĦÚ³": 364,
      "Ø¦ÙĨ": 365,
      "ÙĨØ¯ÙĪ": 366,
      "ÙħØ§ÙĨ": 367,
      "ĠÙħØ¹": 368,
      "ĠÚªÙĨÚ¾ÙĨ": 369,
      "ĠÙĤØ±Ø¨": 370,
      "Ø¯ÙĬ": 371,
      "ĠÙ¾Ø§Ú»": 372,
      "ĠØ§Ù¿": 373,
      "Ù½ÙĬ": 374,
      "ĠÙ½ÙĪ": 375,
      "ĠÙ¾ÙĬ": 376,
      "ĠØ³ÙħØ¬": 377,
      "Ø§Úª": 378,
      "ĠØ·": 379,
      "ÙĩØ§ÙĨ": 380,
      "ĠÚ¾ÙĬ": 381,
      "ĠÚ¯Ùĩ": 382,
      "Ø§Ùģ": 383,
      "ÙĨÙĬ": 384,
      "ĠÚªÙĬÙĪ": 385,
      "ĠÙĪÚĥ": 386,
      "ĠÙº": 387,
      "ĠÙ»ÙĪÙĦ": 388,
      "Ø§Ø¬": 389,
      "ĠÙĪØ§Ø±": 390,
      "ĠÙ¿Ø§": 391,
      "ÙĢ": 392,
      "ĠØ¢Ú¾": 393,
      "ĠØ¨Ø§Ø¨Ø§": 394,
      "ĠØ§Ú¾Ø§": 395,
      "ĠÙħÙĦ": 396,
      "ĠÚ¾ÙĪÙĨ": 397,
      "âĢĿ": 398,
      "Ù¾ÙĬØ§Ø±Ø§": 399,
      "ĠØ³ÙĨÚĮÙĬ": 400,
      "ĠØ³Ú¯": 401,
      "Ø³ÙĪ": 402,
      "Ø±ÙĬÙĨ": 403,
      "ĠØ³ÚĢ": 404,
      "ĠÙ¾ÙĨÚ¾ÙĨØ¬ÙĬ": 405,
      "Ø¶": 406,
      "Ø§Ú³": 407,
      "ĠÚıÙĬ": 408,
      "ĠÚĩÙĪ": 409,
      "ĠØ¬ÙĨ": 410,
      "ÛĶ": 411,
      "ÙĨØ§": 412,
      "Ø³Ùħ": 413,
      "ĠÙ»ÚĮ": 414,
      "Ø°": 415,
      "ĠÚĮ": 416,
      "ÙĬØ´": 417,
      "ĠÙ¾ÙĬÙĪ": 418,
      "ĠÙĪÙĬÙĨØ¯": 419,
      "Ù¿ÙĬ": 420,
      "ĠÙĨØ§": 421,
      "ĠØº": 422,
      "ĠÙĪÙĬ": 423,
      "ĠÚ³Ø§ÙĦÚ¾": 424,
      "01": 425,
      "ĠÚ¾ÙĨ": 426,
      "âĢľ": 427,
      "ĠÚ³Ø§ÙĦÙĩÛģ": 428,
      "ĠÙ¾ÙĪØ¡": 429,
      "ĠØ¬ÙĨÚ¾ÙĨ": 430,
      "ĠÙĪØ§Ø±ÙĬ": 431,
      "Ø¨ÙĪ": 432,
      "Ø¨ÙĦÚªÙĦ": 433,
      "ĠÙĦÙģ": 434,
      "ÙĢÙĢ": 435,
      "ĠâĢĿ": 436,
      "ÙĬÙħ": 437,
      "Ø§ØŃ": 438,
      "ĠØ§Ú³": 439,
      "ĠÙĪÙĬÙĪ": 440,
      "ĠÙĪØ±ÙĬ": 441,
      "ĠÙħÚ¾": 442,
      "ĠÚªØ±Ú»": 443,
      "ĠÚĩÚı": 444,
      "ĠÚĨÙĪÚ»": 445,
      "Ù¹": 446,
      "ĠØ³ÙĬ": 447,
      "ĠÚ©ÙĪ": 448,
      "ĠØ¬ÙĬÚª": 449,
      "Ø±Ùģ": 450,
      "ĠÙħÙĨ": 451,
      "ĠÙħÙĨÚ¾ÙĨ": 452,
      "ĠØªÙĪ": 453,
      "Ø¬Ø§": 454,
      "ÙĬØ²": 455,
      "ĠØ§ÙĪÙĩØ§ÙĨ": 456,
      "ĠÚªØ§": 457,
      "ĠÙħØ§Ú»Ú¾ÙĪ": 458,
      "ĠÙĦÙģØ¸": 459,
      "Ú¾Ú»": 460,
      "Ø§Ø¶": 461,
      "ĠØ¯ÙĪ": 462,
      "ĠÙħØŃ": 463,
      "Ø¯Ø±": 464,
      "ĠÚ¾ÙĪ": 465,
      "ĠÙ¿ÙĬÙĪ": 466,
      "ĠÚĨÙĬÙĪ": 467,
      "ØµÙĪ": 468,
      "Ø§ÙĤÙĬ": 469,
      "ĠÙ½ÙĪØ¦ÙĬ": 470,
      "Ø§ÚĦ": 471,
      "ĠÙĨØ§ÙĦ": 472,
      "ĠØ¬ÙĬÚªÙĪ": 473,
      "ĠØ§Ø¯": 474,
      "ĠØ±ÙĪ": 475,
      "ØªÙĪ": 476,
      "ĠØ§Ø¨": 477,
      "ĠÙħØ³": 478,
      "ÙħÙĬÙĨ": 479,
      "Ø³ÙĨÚĮ": 480,
      "ÚªØ±": 481,
      "Ù»": 482,
      "ÙħØ±": 483,
      "ÙĬÙĦ": 484,
      "ÙĬØª": 485,
      "ĠÚªØ¬": 486,
      "ĠÙĪÙ½": 487,
      "ĠÚ©ÛĮ": 488,
      "ĠÚ¾Ø§Ú»ÙĬ": 489,
      "ĠÚªÙĨØ¯": 490,
      "ĠØ¨ÙĦÚªÙĦ": 491,
      "ĠØ°": 492,
      "ĠØ¬ÙĪÙĨ": 493,
      "Ø§Ø¦Ú»": 494,
      "Ú¾Ø§Ú¾Ø§": 495,
      "ĠÙ¾ÚĻ": 496,
      "ĠØ¨Ø§ÙĤÙĬ": 497,
      "ÚĻØ§": 498,
      "ĠØ§Øµ": 499,
      "ÙĤØª": 500,
      "ÚıÙĩÙĨ": 501,
      "ĠØ§Ú¾ÙĬ": 502,
      "05": 503,
      "ĠØ³Ø¯Ø§": 504,
      "ĠÚªÙĨ": 505,
      "ØªØ±": 506,
      "ĠØªÙĩ": 507,
      "ĠÙĦÙĪ": 508,
      "ĠØ±Ú©": 509,
      "ĠÙħÙĨÚ¾ÙĨØ¬ÙĬ": 510,
      "ĠØ§ÚĨÙĬ": 511,
      "ĠØ®Ø¨Ø±": 512,
      "ĠÚĦ": 513,
      "ĠÚ©ÛĴ": 514,
      "ĠØ¨Ø³": 515,
      "ÚıÙĬ": 516,
      "Ú¯Ø±": 517,
      "ĠØ´ÙĦ": 518,
      "Ø±Ø¨Ø§ÙĨÙĬ": 519,
      "ÙĩØ§ÙĩØ§": 520,
      "ĠÙ¾ÙĬØ§Ø±Ø§": 521,
      "ĠØ§ÚĦ": 522,
      "ĠÙĪÙº": 523,
      "ĠØ¨ÙĬ": 524,
      "ÙģØ§": 525,
      "ĠØ®ÙĪ": 526,
      "ĠÛģÛĴ": 527,
      "ĠÚ¾Ø¬ÙĬ": 528,
      "ĠØ§Øª": 529,
      "Ø§Ø³Ø§ÙĨ": 530,
      "Ø§ØªÙĬ": 531,
      "ĠÚ¦": 532,
      "ÙĦØ§Ùħ": 533,
      "ĠØ¢ÙĩÙĨ": 534,
      "Ù¾ÙĪ": 535,
      "ÙĨÚį": 536,
      "Ú¾Ø§Ú¾Ø§Ú¾Ø§": 537,
      "Ø§Ø´": 538,
      "ÚªØ±ÙĬ": 539,
      "....": 540,
      "Ù¾Ø±": 541,
      "ĠÙĨØ§ÙĩÙĬ": 542,
      "ĠØ¯ÙĪØ³Øª": 543,
      "Ø¢": 544,
      "Øº": 545,
      "Ø§ÚĻÙĬ": 546,
      "ĠØ¶": 547,
      "ĠØ³ÚĨ": 548,
      "Ø§Ø¦ÙĪ": 549,
      "ĠÙĨÙĪ": 550,
      "Ú¾ÛĮ": 551,
      "ĠÚªÚ¾": 552,
      "ØªØ§": 553,
      "Ø¬ÙĨ": 554,
      "ĠÙĪØ§": 555,
      "ĠÙĪÚıÙĪ": 556,
      "ÚĩØ§": 557,
      "ĠÙĪÚĥÙĬ": 558,
      "Ø«": 559,
      "ÙĪÙħ": 560,
      "ÙĦÙĩ": 561,
      "ĠØ§ÙĩÙĪ": 562,
      "ĠÙĪØ§Ú¾": 563,
      "Ø¨ÙĬ": 564,
      "ĠÙ¿ÙĬÙĨØ¯ÙĪ": 565,
      "ĠÙħÙĬ": 566,
      "ĠÚªØ¦ÙĬ": 567,
      "ĠÙĨÙĩ": 568,
      "Ø¦Ú»": 569,
      "Ù½ÙĪ": 570,
      "ĠØ¢Ú¾ÙĬØ§ÙĨ": 571,
      "Ø³Ø§ÙĨ": 572,
      "ĠØªØµÙĪ": 573,
      "ĠÚ©Ø±": 574,
      "ĠÚ¾Ø±": 575,
      "ĠÙ¿Ø¦ÙĬ": 576,
      "ÙĤØ±Ø¨": 577,
      "Ø§Ø³ÙĬ": 578,
      "Ġ0": 579,
      "ÙĬØ§ÙĦ": 580,
      "ÙĦÚ©": 581,
      "ĠØ³Ú©": 582,
      "ĠØ§ØµÙĦ": 583,
      "ĠÙĪÙĤØª": 584,
      "ÛĮÙĨ": 585,
      "ĠØ§Ø®": 586,
      "ĠÛģÙĪ": 587,
      "ĠÙĪÚıÙĬ": 588,
      "Ø±ÙĪØ±": 589,
      "ĠÙħØ§": 590,
      "ĠØªÙĨ": 591,
      "ĠÚıÙĬÙĨ": 592,
      "ĠØ®ÙĬØ§ÙĦ": 593,
      "Ø§ØŃØ¨": 594,
      "ĠÙĬØ§Ø±": 595,
      "ĠÙħÛĮÚº": 596,
      "ĠÙ¾Ø¦ÙĬ": 597,
      "ĠØ§ÙĬÙĨØ¯": 598,
      "Ø¨Ø§Ø¨Ø§": 599,
      "ĠÙĨÙĨÚį": 600,
      "Ø¦ÙĬÙĨ": 601,
      "Ø¹ÙĬ": 602,
      "ĠØµÙģØ§": 603,
      "ĠØµØ§ØŃØ¨": 604,
      "ĠÙ½ÙĪØ¦ÙĬÙ½": 605,
      "ÙĨÚĬ": 606,
      "Ø±Øª": 607,
      "ĠÙ¾ÙĬØ§": 608,
      "ĠØ§ÚĨ": 609,
      "ĠØ¬ÙĬØ¦ÙĨ": 610,
      "ÙĪØ±Ø§": 611,
      "ĠÚªÙħØ§ÙĦ": 612,
      "Ø§ÙĬÙĪ": 613,
      "ÙĨÛģ": 614,
      "Ø§Ø±ÙĪ": 615,
      "ĠØ¬ÙĬÚªÙĬ": 616,
      "Ø¦Ø±": 617,
      "Ø§ÙĦÙĬ": 618,
      "ÙĨØ¯ÙĬ": 619,
      "ÙĪØ±ÙĪ": 620,
      "ĠØ¬ÙĬÚªØ§": 621,
      "ĠÛĮ": 622,
      "ĠÙ¾ÙĦ": 623,
      "ĠÚ©Ø§": 624,
      "ĠÚ¾ÙĦ": 625,
      "ÛĮÚ©": 626,
      "ÙĨØ¯Ø§": 627,
      "Ø´ÙĨ": 628,
      "ĠÚ¯ÙĩØ±": 629,
      "ÙĦØ·": 630,
      "ĠØ¬ÚıÚ¾ÙĨ": 631,
      "ÙħÙĦ": 632,
      "ĠÚªÙĦ": 633,
      "ĠØ¢Ùĩ": 634,
      "ĠØ¢ÙħÙĬÙĨ": 635,
      "ĠØªÙĪÙĨ": 636,
      "Ø¦Ø§": 637,
      "ĠÙĩÚª": 638,
      "ĠØ¯ÙĦ": 639,
      "ĠÙģÙĦ": 640,
      "ĠÙħÙĪÙĨÚ©ÙĬ": 641,
      "Ø§ÚªÙ½Ø±": 642,
      "ĠØ§Ø¨Ø§": 643,
      "ÙĬØ§ÙĨ": 644,
      "ÙĬÙ½": 645,
      "ØªÙĨ": 646,
      "ØªÙĪÙĨ": 647,
      "ĠØ§Úĥ": 648,
      "ĠÚ¾Ø¦ÙĬ": 649,
      "ĠÚĨÙĪÙĨ": 650,
      "ØŁØŁ": 651,
      "ĠØ¶Ø±ÙĪØ±": 652,
      "ĠØªØµÙĪÙĬØ±": 653,
      "Ø±Ø¯": 654,
      "ĠØ³Úı": 655,
      "ĠØ³ÛĴ": 656,
      "Ø³Ù½": 657,
      "Ø§Ø¦ÙĨ": 658,
      "ĠÙĪÚĮ": 659,
      "ĠØ¬ÙĬØ§ÙĨ": 660,
      "ĠÚıÙĬÙĨØ¯": 661,
      "ĠÚıØ³ÙĪ": 662,
      "ĠÙ»ÙĬ": 663,
      "ĠÙĩÙĬ": 664,
      "ĠØ³Ø§ÙĨØ¦Ú»": 665,
      "Ø§Ø¯ÙĬ": 666,
      "ĠØ§ØªÙĬ": 667,
      "ĠÙĬ": 668,
      "ĠØ³Ø¨": 669,
      "ĠØ³Ø§ÙĦ": 670,
      "ĠØ³Ø§Ú³": 671,
      "ÙħÙĬ": 672,
      "ĠÙĨØ¸": 673,
      "ĠÚ¾Ø§": 674,
      "ÙĤÙĬ": 675,
      "ĠØ±Ú¾ÙĪ": 676,
      "ĠÚ¯Ú¾Ø±": 677,
      "ĠØ§Ø³Ù¾": 678,
      "ĠØµØŃ": 679,
      "ĠÙ¿ÙĬÙĨØ¯ÙĬ": 680,
      "ĠÙĨØ§ÙĦÙĪ": 681,
      "ÙħØ§": 682,
      "ÙħÙĨ": 683,
      "ÙħØ§ÙĦ": 684,
      "ÚªÙĨ": 685,
      "ÚªØ§Ø±": 686,
      "ĠÚ©Ú»ÙĬ": 687,
      "Ø¨Ø§Ø±": 688,
      "ĠØ®ÙĬØ±": 689,
      "ĠØ®Ø§Ø¯": 690,
      "ĠÙĤØ³Ùħ": 691,
      "ÙºÙĪ": 692,
      "ĠÙĪÚıØ§": 693,
      "ĠÙħØ¹ÙĨØ§": 694,
      "ĠÙ»ÙĪÙĦÙĬØ¡": 695,
      "ÙĢÙĢÙĢÙĢ": 696,
      "ĠÙħØ³Ø¦": 697,
      "ĠØ®Ø§Ø¯Ùħ": 698,
      "ĠØ³ÙĨØ¯": 699,
      "ĠÙ¾ÙĬØ§Ø±": 700,
      "ØªØ§Ø¨": 701,
      "ĠØ¨ØŃ": 702,
      "ĠÚ¾Ø¬ÙĪ": 703,
      "ĠÚ¾Ø¦ÙĪ": 704,
      "Ù¾ÙĬ": 705,
      "ĠØ±ÙĬ": 706,
      "ĠØ±Ú©ÙĬ": 707,
      "ĠÙ»ÙĬÙĪ": 708,
      "ÙĨØ¯ÚĻ": 709,
      "Ø§ÙĪÚ¾Ø§ÙĨ": 710,
      "ĠØ¢Ú¾ÙĬÙĪ": 711,
      "ĠÚ¾ÙĪÙĨØ¯ÙĪ": 712,
      "ÙĬØ´ÙĨ": 713,
      "Ø±ÙĨ": 714,
      "ĠÚªÙĬØ±": 715,
      "ĠÙĪØ§ÙĤ": 716,
      "Ú»ÙĪ": 717,
      "ĠÚ©Ûģ": 718,
      "ĠÙĨÙĬ": 719,
      "ÚıÙĪ": 720,
      "ĠØ±Ú¾": 721,
      "ĠÚ¯Úı": 722,
      "ĠØ¯Ø±": 723,
      "ĠÙĤÙĪÙħ": 724,
      "Ú¾Ø§Ú¾Ø§Ú¾Ø§Ú¾Ø§Ú¾Ø§": 725,
      "Ø§ÙģÙĬ": 726,
      "ĠØºÙĦØ·": 727,
      "ĠÙħÙĨÚ¾ÙĨØ¬Ø§": 728,
      "ĠÙĬÙĪ": 729,
      "ÙĨÙĪ": 730,
      "ÙĨÙĬØ§": 731,
      "Ø§Ø¹": 732,
      "ÙĦÙĨ": 733,
      "ĠØ³Ú¾Ú»": 734,
      "ĠÙħÙ¿": 735,
      "ĠÚªÙĨØ¯ÙĪ": 736,
      "ØªÙĦ": 737,
      "Ø§Ø¦ÙĪÙĨ": 738,
      "ĠØ§Ú©": 739,
      "ĠÙĪÚĻ": 740,
      "ĠÚ¾ØªÙĬ": 741,
      "Ø±ÙĬØ§": 742,
      "ÙĤÙĪ": 743,
      "ĠØ§ÙĨÚ¾ÙĨ": 744,
      "Ú¯Ø±ÙĬ": 745,
      "ĠÚıØ³": 746,
      "ĠÙ½Ø±ÙĬÙĨ": 747,
      "ĠØ§Ù¿ÙĪ": 748,
      "ĠÙħÚ¾Ø±Ø¨Ø§ÙĨÙĬ": 749,
      "ĠÚıÙĬÙĨÚ¾ÙĨ": 750,
      "22": 751,
      "ÙĪØ±ÙĬ": 752,
      "Ø±Ø§": 753,
      "ĠÙħØ²": 754,
      "Ø§Ú¾ÙĪ": 755,
      "ĠÚªØ§Ø±": 756,
      "Ø³Ø±": 757,
      "ĠÙ¾ÙĨ": 758,
      "ĠØ§ÙĪØ±": 759,
      "ĠÙĨÙģ": 760,
      "ÛĮØ§": 761,
      "ĠØ§ÙĨØ¯Ø±": 762,
      "ÙĨÚ¾ÙĨØ¬ÙĪ": 763,
      "ĠÚ¯Ø§Ø±": 764,
      "ĠÙ»Ø§Ø±": 765,
      "ĠØ§Ø³Øª": 766,
      "ÙĦØ§Ùģ": 767,
      "ĠØ§ÙĦÙĦÙĩ": 768,
      "ĠØ§Ø³Ù¾ÙĬØ³": 769,
      "ĠÙ½Ø±ÙĬÙĨÚĬ": 770,
      "Ø±Ø§Ø¨": 771,
      "ĠÙħØ®": 772,
      "ÙħØª": 773,
      "ĠÚªÙ¿ÙĬ": 774,
      "ĠØªØ±": 775,
      "ĠÙĨÙħ": 776,
      "ĠÙ½ÙĬ": 777,
      "Ø¬ÙĪØ¯": 778,
      "ÚĦÙĬ": 779,
      "ĠØ³ÙĪÚĨ": 780,
      "ĠØ³Ø±Ú¾Ø§": 781,
      "ĠÙĪÙĬÙĨØ¯ÙĪ": 782,
      "ĠÙ¾ÙĦÙĬØ²": 783,
      "07": 784,
      "Ø§ÚĻ": 785,
      "Ú¾ÙĪÙĨ": 786,
      "ĠØ¬Ú¾": 787,
      "ĠØ¬Ùħ": 788,
      "ĠØªØ§Ø¦ÙĬÙĨ": 789,
      "ĠØ¨Ùĩ": 790,
      "ĠØ§ÙĨØª": 791,
      "ÙĦÙĬÙĦ": 792,
      "ĠØµØ±Ùģ": 793,
      "ĠÙĪØ§Ø±ÙĪ": 794,
      "ĠÚ¾ÙĪÙĨØ¯ÙĬ": 795,
      "ĠÚıÙĬÚ»": 796,
      "Ø§Ù¾": 797,
      "ĠÙħØª": 798,
      "ÙħÙĪ": 799,
      "Ø¯Ø§Ø±": 800,
      "ĠÙ¾Ø§Ø±": 801,
      "ĠÙ¾Ú¾Ø±": 802,
      "ĠÙĪÙĬØ§": 803,
      "ĠÙĦÙĬ": 804,
      "ĠØ±Ú¾ÙĬ": 805,
      "Ú¯ÙĬ": 806,
      "ĠÙ»ÙĪ": 807,
      "ĠÚĢÙĦØ§": 808,
      "ÙºØ§": 809,
      "ÛĶÛĶ": 810,
      "ĠÙħÙĨÚ¾ÙĨØ¬ÙĪ": 811,
      "ĠÚªØ¬Ú¾": 812,
      "ĠÚªØ¬ÙĩÛģ": 813,
      "Úĳ": 814,
      "ĠØ³ÙĦØ§Ùħ": 815,
      "ĠÙħØ±": 816,
      "ĠÚªØªØ§Ø¨": 817,
      "ĠÙ¾Ù½": 818,
      "ĠØ§ÙĩØ§": 819,
      "Ø¨Øª": 820,
      "ĠØ§ÙĨÙĩÙĨ": 821,
      "ĠÚıÙĬÙĪ": 822,
      "ĠÙ»ÙĬÙĨ": 823,
      "Ø§ØªØ§": 824,
      "ĠØ³ÙħØ§Ø¬": 825,
      "ĠÚĬØ§ÚªÙ½Ø±": 826,
      "ĠÛĮÛģ": 827,
      "ĠØ§ÚĥØ§": 828,
      "Ø§Ú©": 829,
      "Ú¾Úª": 830,
      "ĠØ³ÙĨ": 831,
      "ĠÙħÙ¿ÙĬ": 832,
      "ÙħÚ¾": 833,
      "ĠØ¢Ø²": 834,
      "ĠØ§Úª": 835,
      "ĠÙĨØ§Ú¾": 836,
      "Ø§Ø±Ú»": 837,
      "ĠÚ¾Ù¿": 838,
      "Ø¹ÙĪ": 839,
      "ĠÙĩÙĪÙĨ": 840,
      "Ú³ÙĬ": 841,
      "Ø§Ø¯Ø§": 842,
      "ĠÚªØ±ÙĬÙĪ": 843,
      "ĠØ·ÙĪØ±": 844,
      "ÙĪØ§Ú¾": 845,
      "Ú¾Ø§Ú¾Ø§Ú¾": 846,
      "ĠÙħØ·": 847,
      "Ø³ÙĨ": 848,
      "ĠÙĪØ±": 849,
      "ĠÙĪÚ»": 850,
      "Ø¬Ú¾": 851,
      "Ø¨Ø³": 852,
      "ĠØ¨Ø§": 853,
      "Ø¦ÙĪÙĨ": 854,
      "ĠØ§ØŃ": 855,
      "ÚıØ§": 856,
      "Ú¯ÙĪ": 857,
      "ĠÚ¯ÙĪ": 858,
      "ÙĪØ±Øª": 859,
      "ĠÙĩØ¦ÙĪ": 860,
      "ĠØ¯ÙĨÙĬØ§": 861,
      "ĠÚ³ÙĪ": 862,
      "ĠÙģØ±": 863,
      "ĠØ³ÙħØ¬Ùĩ": 864,
      "ĠÙĪØ§Ø±Ø§": 865,
      "ĠÙĪØ§Ø±ÙĨ": 866,
      "ĠØ¢Ú¾ÙĬÙĨ": 867,
      "ĠÙĪÙĬÙĨØ¯ÙĬ": 868,
      "Ú¯Ø±ÙĬØ²": 869,
      "ĠØĮ": 870,
      "ĠØ¬Ø§Ùħ": 871,
      "ĠÙħØ§Ø±": 872,
      "ĠÚªÙĪÙĨ": 873,
      "ÚªØ§": 874,
      "ĠÙ¾Ú¾": 875,
      "ĠÙ¾ÙĬØ±": 876,
      "ĠØ§Ù¾": 877,
      "ĠÚ¾Ø¦Ø§": 878,
      "Ù¾ÙĪØ±": 879,
      "ĠØ§ÙĨØ³Ø§ÙĨ": 880,
      "ĠØ®Ø¯Ø§": 881,
      "ĠØ´Ø§": 882,
      "ØŃØ§ÙĦ": 883,
      "ĠÙ¾Ø±ÙĪ": 884,
      "ĠØ§ÙĬÙħ": 885,
      "ĠØ³Ú¯ÙĩÙĬ": 886,
      "ĠØ³ÚĢÙĨÙĬ": 887,
      "ĠÚĩÚıÙĬÙĪ": 888,
      "ĠÙ½ÙĪØ¦ÙĬÙ½Ø±": 889,
      "ÚĪ": 890,
      "ĠØ¬Ùĩ": 891,
      "ĠÙħØ´": 892,
      "ÙħÙĪÙĨ": 893,
      "ĠÚªÚį": 894,
      "ĠØ§Ø±": 895,
      "ĠÙĨÙ¿": 896,
      "ĠØ§Ø¬": 897,
      "ÙĬØŃ": 898,
      "ĠÚıØ³ÙĬ": 899,
      "ĠÙĩØ§": 900,
      "ĠÙĩÙĨ": 901,
      "ĠØ´Ø§Ú¾": 902,
      "ĠÙĨÛģÛĮÚº": 903,
      "ÚĬÙĬØ§": 904,
      "Ø§ÙĪÚªÙĬ": 905,
      "ĠÚªÙĬØ¦ÙĨ": 906,
      "ĠÚĬÙĬ": 907,
      "ĠÙ¿ÙĬÙĨØ¯Ø§": 908,
      "ĠØ§Ù¿Ø¦ÙĬ": 909,
      "ĠØ¢Ú¾ÙĬÙĪÙĨ": 910,
      "ĠÚĮØ±": 911,
      "ÙħÚ¾Ø±Ø¨Ø§ÙĨÙĬ": 912,
      "26": 913,
      "Ø§ÚĩØ§": 914,
      "ĠØ³ÙĬÚª": 915,
      "ÙħØ§Ùħ": 916,
      "ĠØ¢Ø¦ÙĬ": 917,
      "ĠØ§Ùħ": 918,
      "Ø¨ÙĦ": 919,
      "ĠØ¨Ø¯": 920,
      "ĠØ¨Ú¾ÛĮ": 921,
      "Ø§Ø±Ø§": 922,
      "Ø§Ø¦ÙĬÙĨØ¯ÙĪ": 923,
      "ĠÙ¿ÙĬÙĨ": 924,
      "ĠØ±Ø³": 925,
      "ĠØ±Ùĩ": 926,
      "ĠØ§ÙĨÚ¯Ø±ÙĬØ²": 927,
      "ĠÚ¯ÙĦ": 928,
      "ÚĨÙĪ": 929,
      "ĠØ®Ø±Ø§Ø¨": 930,
      "ĠÚĢÙĬ": 931,
      "ĠÛģÛĮ": 932,
      "ĠÙħØ§Ú»ÙĩÙĪ": 933,
      "Ġ13": 934,
      "ĠØ³Ú¯Ùĩ": 935,
      "ĠØ§Ø¯Ø§": 936,
      "ĠÙĬØ§Ø¯": 937,
      "ĠØ³Ú¾Ú»Ø§": 938,
      "ĠÙĨÙģØ³ÙĬ": 939,
      "ĠØ¸": 940,
      "ÙĪØ§Ø²": 941,
      "ĠÙ¹": 942,
      "Ø±ÛĮ": 943,
      "Ø§Øµ": 944,
      "ĠØ³Ø§Ùħ": 945,
      "ĠÙ¾Úĩ": 946,
      "ĠØªÚıÚ¾ÙĨ": 947,
      "ĠÙĪÛģ": 948,
      "Ø¨Ø§Ø¯": 949,
      "Ø§ÙĦÙĪ": 950,
      "ĠØ§Ø¹": 951,
      "ÙģÙĬ": 952,
      "ÚĮÙĪ": 953,
      "Ú¯ÙĦ": 954,
      "ĠÚĨØ¦ÙĬ": 955,
      "ĠÚıØ¦ÙĬ": 956,
      "ĠÙ»ÙĨ": 957,
      "Ø´ÙĬ": 958,
      "ĠØ¹ÙĦÙĬ": 959,
      "ÙºÙĬ": 960,
      "Ø§Ø³Øª": 961,
      "ĠØ³ÙĪØ§ÙĦ": 962,
      "Ġ11": 963,
      "Ġ14": 964,
      "ĠØ§ÙĦØ§Ø¦ÙĬ": 965,
      "ĠÙĦÚ³ÙĬ": 966,
      "Ø³ÙĨÚĮÙĬ": 967,
      "ĠÙĪÙºÙĬ": 968,
      "Ù¾ÙĪØ¡": 969,
      "ĠØ§Ø³ØªØ¹": 970,
      "Ú¾Ø§Ú¾Ø§Ú¾Ø§Ú¾Ø§": 971,
      "ĠÚ³ÙĪÙº": 972,
      "ÙĬØ¨": 973,
      "ĠØ«": 974,
      "Ú¾ÙĦ": 975,
      "ÙħØ¹": 976,
      "ĠÚªÚıÚ¾ÙĨ": 977,
      "ÙĩØ¦ÙĪ": 978,
      "ĠÙ¾Ø§Úª": 979,
      "ØªØ±ÙĪ": 980,
      "ĠØ¨Ø¬": 981,
      "Ù¾ÙĦ": 982,
      "ÚĮØ§": 983,
      "ĠÚıØ§": 984,
      "ÚĨØ§": 985,
      "ĠÙĩÙĦ": 986,
      "ĠØ¯ÙĪØ±": 987,
      "ĠÚĢÙĦÙĬ": 988,
      "ÙĩÙĨØ¬ÙĬ": 989,
      "ĠØŃØ³": 990,
      "ĠÚªÙĨØ¯Ø§": 991,
      "ØºÙĬØ±": 992,
      "ĠØ³Ú©ÙĬØ§": 993,
      "ĠØ§Ø®Øª": 994,
      "ĠÙĨØ¸Ø±": 995,
      "ĠÙĪØ§ÙĤØ¹ÙĬ": 996,
      "ĠØ§Ø³ØªØ¹ÙħØ§ÙĦ": 997,
      "18": 998,
      "ĠØ³Ú¾": 999,
      "ĠÙħØ§ØªØ§": 1000,
      "Ø§Ú¾ÙĬÙĪ": 1001,
      "ĠÚªØ¬ÙĬ": 1002,
      "ØªÛĴ": 1003,
      "ĠØªØ§ÙĨ": 1004,
      "ĠÙĪØ³": 1005,
      "ĠÙĪØ¦ÙĬ": 1006,
      "ĠØ¨ÙĦ": 1007,
      "ĠÙĨÚª": 1008,
      "ĠÙĨÛĴ": 1009,
      "Ø¦ÛĮ": 1010,
      "ĠÙ¿ÙĪØ±ÙĪ": 1011,
      "Ø±ÙĬØ¡": 1012,
      "ÙĤÙĬØ¯": 1013,
      "ĠØ¬ÙĪØ§Ø¨": 1014,
      "ĠÙ»Ûģ": 1015,
      "ĠÚĢØ±": 1016,
      "ĠÛģÛĮÚº": 1017,
      "Ø³ØªØ§ÙĨ": 1018,
      "Ġ15": 1019,
      "ĠÙºÙĬÚª": 1020,
      "ĠØ¬ÙĬÚªÚıÚ¾ÙĨ": 1021,
      "ĠØªÙĨÙĤÙĬØ¯": 1022,
      "ĠÙĪÚĮÙĬÚª": 1023,
      "ĠØ³Ø§Ú³ÙĬ": 1024,
      "ĠØ±ÙĬØ§Ø¶": 1025,
      "30": 1026,
      "Ġ06": 1027,
      "Ú¾ÙĬÙĨ": 1028,
      "ÙĦÙĦ": 1029,
      "Ø§ÙĨØ¯": 1030,
      "ĠØ¬ÙĦ": 1031,
      "ĠØ¬ØªÙĬ": 1032,
      "ĠØ³Ø¯": 1033,
      "ĠØ³Ø§Ø¦ÙĨ": 1034,
      "ĠØ³ÚĦÙĬ": 1035,
      "ÚªÙħ": 1036,
      "ĠÙ¾Úª": 1037,
      "ĠÙ¾ÙĪÙĨ": 1038,
      "ØªÙħ": 1039,
      "ĠØªØ¨": 1040,
      "ĠØªØ¹": 1041,
      "ĠØªÙħØ§Ùħ": 1042,
      "Ø§Ø¦ÙĬØ¡": 1043,
      "ĠØ§ÙĩÙĬ": 1044,
      "Ø¬Ùĩ": 1045,
      "ĠØ¨Ø§Ø¨": 1046,
      "ĠÚ¾Ú»": 1047,
      "ÚĻÙĨ": 1048,
      "ÙģØª": 1049,
      "ĠØ±Ø§Øª": 1050,
      "ÙĬØ®": 1051,
      "ÙĬØ¹": 1052,
      "ĠÚ¯Ø±": 1053,
      "ĠØ´Ø±": 1054,
      "ĠØ´Ø§Ø¹": 1055,
      "ÙĬÙĨØ¯Ø§": 1056,
      "Ø±ÙĪØ¹": 1057,
      "ĠÚ¯ÙĩÙ½": 1058,
      "ĠÙħÙ¿Ø§ÙĨ": 1059,
      "ĠØ¢Ø²Ø§Ø¯": 1060,
      "ĠÙĨØ§Ú¾ÙĨ": 1061,
      "Ġ\"": 1062,
      "Ø§Ûģ": 1063,
      "Ø§ÙĨÙĬÙĪÙĨ": 1064,
      "ĠØ³Ø§": 1065,
      "ĠØ³Ú¾ÙĬ": 1066,
      "ĠÙħÙĬÙĨ": 1067,
      "ĠÙħØ¬": 1068,
      "ĠÙħÙĦÙĬ": 1069,
      "Ø§Ú¾Ø±": 1070,
      "ÙĬÙĨÚĬ": 1071,
      "ĠÚªØ§Ùħ": 1072,
      "ĠØ¢Ø®": 1073,
      "ĠØ¢ÙĪØ§Ø²": 1074,
      "ĠÙ¾Ø±ÙĬ": 1075,
      "ĠÙ¾Ø§Ú»ÙĬ": 1076,
      "ĠÙ¾ÙĨÚ¾ÙĨØ¬ÙĪ": 1077,
      "ĠØªØ§Ø±": 1078,
      "ĠÚ©Ø³": 1079,
      "ÛĮØ³": 1080,
      "Ø§ÙĦÙħ": 1081,
      "ÙĤØ±": 1082,
      "ÚĮÙĬ": 1083,
      "Ø¬ÙĬÚª": 1084,
      "ÙĬØµ": 1085,
      "ĠÙĩØ§Ú»ÙĬ": 1086,
      "ĠØ´Ø±ÙĪØ¹": 1087,
      "Ø´ÙĪ": 1088,
      "ĠÙ½Ø§Ø¦ÙĬ": 1089,
      "ĠØ¹ÙĦ": 1090,
      "ĠÙģÙĬØµ": 1091,
      "ÙĪÙĦØ§": 1092,
      "Ø§Ø³ÙĬÙĨ": 1093,
      "ĠÙ¾ÙĪØ±ÙĬ": 1094,
      "ĠÙ¿ÙĪØ±ÙĬ": 1095,
      "ĠÙĨØ§Ú¾ÙĬØ§ÙĨ": 1096,
      "ĠØ²ÙĨØ¯": 1097,
      "ĠÙħÙĪÙĤ": 1098,
      "ĠÙħÙĪØ¬ÙĪØ¯": 1099,
      "ĠÙĦÚ³ÙĪ": 1100,
      "Ø³ÙĪØ³": 1101,
      "ĠÚĦÚ»": 1102,
      "ĠØ¯Ø±Ø³Øª": 1103,
      "ĠÙĨÙģØ³ÙĬØ§ØªÙĬ": 1104,
      "ĠØ§Ø®ØªÙĦØ§Ùģ": 1105,
      "ĠØ³Ø¯Ø§Ø¦ÙĬÙĨ": 1106,
      "ÙĨØª": 1107,
      "ÙĨÛĮ": 1108,
      "ÙĪÙĬ": 1109,
      "Ú¾Ø§Ø¦ÙĪ": 1110,
      "ĠÙħØ§ÙĦ": 1111,
      "ÙħØ§Ø±": 1112,
      "Ø³ØªÙĬ": 1113,
      "Ø¯Ø³Øª": 1114,
      "ÙĩÚª": 1115,
      "ĠØ¢Ùģ": 1116,
      "ĠØªÚ¾": 1117,
      "Ø¨ÙĨ": 1118,
      "ĠØ¨ÙĨØ¯": 1119,
      "ĠØ¬ÙĬÙĦÙĪ": 1120,
      "ĠÚ¾ÙĬØ¡": 1121,
      "Ù½ÙĨ": 1122,
      "Ø§Ú»ÙĪ": 1123,
      "ĠÚĨØ¦": 1124,
      "ÙĨÚ¾ÙĨØ¬Ø§": 1125,
      "ĠÚıÚ©": 1126,
      "ĠÚ¯Ø°": 1127,
      "Ø¹Ø¯": 1128,
      "ĠÙĩØ±": 1129,
      "ĠØ¯ÙĦÙĬÙĦ": 1130,
      "ĠØ´Ø§Ùħ": 1131,
      "ĠÚ³Ø§ÙĦÙĩ": 1132,
      "ĠÙ¾ÙĪØ³Ù½": 1133,
      "ĠÙĦÚ©ÙĬÙĪ": 1134,
      "Ø¨Ø±Ø¯Ø³Øª": 1135,
      "ĠÙĨØ§ÙĦÙĬ": 1136,
      "ĠÚªÚ¾ÚĻÙĪ": 1137,
      "Ġ09": 1138,
      "ĠØ§ÙĬÙĨØ¯ÙĪ": 1139,
      "ĠØ¢ÙĩÙĬÙĪÙĨ": 1140,
      "ĠÚıÙĬÙĨØ¯ÙĪ": 1141,
      "ĠÙĨÙħØ¨Ø±": 1142,
      "ĠØ³ÙĦØ§ÙħØª": 1143,
      "Ú±": 1144,
      "Ø§Ùĩ": 1145,
      "ÙĬÙ½Ø±": 1146,
      "ÙĨØ¬": 1147,
      "Ú¾Ø§Ú»ÙĬ": 1148,
      "Ø§Ø·": 1149,
      "Ø§Øº": 1150,
      "ÙĦØ¨": 1151,
      "ĠØ¬Ø§ÙĨ": 1152,
      "ĠÙħÚĻ": 1153,
      "Ø¯ÙĤÙĪ": 1154,
      "ĠØ¢ÙĬÙĪ": 1155,
      "ĠÙ¾Ø§Ø³ÙĬ": 1156,
      "ĠØ§Ùģ": 1157,
      "Ø¬Ø§ÙĨÙĬ": 1158,
      "Ø¨ØŃ": 1159,
      "ĠØ¨Ú¾": 1160,
      "Ø§Ø±ÙĬÙĨ": 1161,
      "Ù½ÙĦ": 1162,
      "ÛĮÙĪ": 1163,
      "ĠÙ¿ÙĪØ±Ø§": 1164,
      "ĠÙĦØ§": 1165,
      "ÙĪÙĨÚ¾ÙĨ": 1166,
      "Ø§ÙĦÙĦÙĩ": 1167,
      "ĠØ§Ø´": 1168,
      "ĠØ±Ûģ": 1169,
      "ĠØ±Ú¾ÙĨ": 1170,
      "ĠÚĨÙĬ": 1171,
      "ĠÚ¯Ú¾": 1172,
      "ĠÙĩØ¬ÙĬ": 1173,
      "Ú³ÙĪ": 1174,
      "Ø´ÙĦ": 1175,
      "Ø§Ø¯ÙĪ": 1176,
      "ĠØ¹ÙħÙĦ": 1177,
      "ĠØ³ÙĨÚĮÙĬÙĨ": 1178,
      "ĠÙ¿ÙĬÚ»": 1179,
      "ĠÙĦÚ³ÙĨØ¯ÙĪ": 1180,
      "ĠÚ¾ÙĪÙĨØ¯Ø§": 1181,
      "ĠÚĩÙĪÚªØ±ÙĬ": 1182,
      "ĠÙ¾ÚĻÚ¾": 1183,
      "ĠÙ¾ÚĻÚ¾ÙĬ": 1184,
      "Ġ08": 1185,
      "ĠØ¨ØŃØ±ÙĬØ§": 1186,
      "ĠÙ¾Ú¾Ø±ÙĬÙĪÙĨ": 1187,
      "ĠØ³ÙĬÚªÚĻÙĪ": 1188,
      "ĠÚĢÙĬÚ»": 1189,
      ".âĢ¦": 1190,
      "03": 1191,
      "Û°": 1192,
      "Ġ.": 1193,
      "ĠÛ": 1194,
      "Ø§ÙĬ": 1195,
      "Ø±Úª": 1196,
      "Ú¾ØªÙĬ": 1197,
      "Ø§Ø®": 1198,
      "Ø§ÙĨÙĪ": 1199,
      "Ø§ÙĨØ³": 1200,
      "Ø§ÙĨÚ¾ÙĨ": 1201,
      "ĠØ¬Ø¯": 1202,
      "ĠÙħØ±ÙĬ": 1203,
      "ĠÙħØ°": 1204,
      "ÚªÙĪÙĨ": 1205,
      "ĠÙ¾ÙĬØ´": 1206,
      "ØªÛģ": 1207,
      "ĠÙĪØ§ÙĨ": 1208,
      "ĠÚ©ÙĦ": 1209,
      "ĠØ¨ÙĬÙħ": 1210,
      "ĠÚ¾ÙĦÙĬ": 1211,
      "ĠÚ¾Ø¬ÙĨ": 1212,
      "Ø±ÙĬÙģ": 1213,
      "Ù¾Ø§Ú»": 1214,
      "ĠÚĨÚĻ": 1215,
      "ĠÚĨØ§Ø±Ú»": 1216,
      "ĠÚıÙĪ": 1217,
      "ÚĨÙĨ": 1218,
      "ĠÙĩÙĬØ¡": 1219,
      "ĠØ¯Ø¹": 1220,
      "ÙĦÙĬÙ½": 1221,
      "ĠÙĤØ¨": 1222,
      "ĠÚĢÙĪ": 1223,
      "ĠÚĢÙ½": 1224,
      "ĠÚĢÙĦÙĪ": 1225,
      "ĠØ¹Ø§Ùħ": 1226,
      "ĠÚªØ±Ø§": 1227,
      "ĠØŃØ§ÙĦ": 1228,
      "Ú¾Ø§Ú¾Ø§Ú¾Ø§Ú¾Ø§Ú¾Ø§Ú¾Ø§": 1229,
      "ĠÚªÙĬØ§ÙĨ": 1230,
      "ĠÙħÙĪÚªÙĦ": 1231,
      "ĠØ·Ø±Ùģ": 1232,
      "ĠÚ¯ÙĩÚ»ÙĪ": 1233,
      "ĠÙĪÙĬÙĨØ¯Ø§": 1234,
      "ĠØ³ÙĬØ§Ø³ÙĬ": 1235,
      "Ú¾Ú»ÙĪ": 1236,
      "ĠÚªÙĨÙĩÙĨ": 1237,
      "ĠØ®ÙĪØ´": 1238,
      "ĠØ¯ÙĪØ³ØªÙĨ": 1239,
      "ĠÚªÚ¾ÚĻÙĬ": 1240,
      "ÙĢÙĢÙĢÙĢÙĢÙĢÙĢÙĢ": 1241,
      "ĠØ§Ø³Ù¾ÙĬØ³Ø²": 1242,
      "ĠÙ½Ø§Ø¦ÙĬÙħ": 1243,
      "Ø§Ù½": 1244,
      "ÙĨÚª": 1245,
      "ĠÚĪ": 1246,
      "ÙĦÛĴ": 1247,
      "ĠØ¬ÚıÙĩÙĨ": 1248,
      "ĠØ³Úĥ": 1249,
      "ĠÙħÙ½": 1250,
      "ĠÙħÛĮ": 1251,
      "ĠÙħÙĤ": 1252,
      "Ø³Ø³": 1253,
      "ĠØ¢Ù¾": 1254,
      "ØªØ±ÙĬÙĨ": 1255,
      "ĠØ§ÙħØ±": 1256,
      "ĠÙĪØ§ÙĦ": 1257,
      "Ø¨Ûģ": 1258,
      "ĠØ¨ÙĨ": 1259,
      "ĠÙĨØ±": 1260,
      "ÛĮØ¯": 1261,
      "Ø§Ø¦ÙĬÙĨØ¯ÙĬ": 1262,
      "ÙģØ±": 1263,
      "ĠØ§ÙĨØ³": 1264,
      "ĠÚĨØ¦ÙĪ": 1265,
      "ĠÚıÙĨÙĪ": 1266,
      "ĠÙ»Ø±ÙĪ": 1267,
      "ÚĨÚ¾": 1268,
      "ĠÙĩØ¬ÙĨ": 1269,
      "ÙĬØ±ÙĪ": 1270,
      "ĠÙ½ÙĬÚª": 1271,
      "ĠÙ½Ø§Ø¦ÙĪÙĨ": 1272,
      "ÙĬØ§Ø±ÙĬ": 1273,
      "ĠÙģÙĤ": 1274,
      "ĠÙģØ·": 1275,
      "ĠØŃÙĤ": 1276,
      "Ø·ÙĬ": 1277,
      "ÚĩÙĪ": 1278,
      "ĠØ§Ù¿Ø³": 1279,
      "ĠØ³ÙħØ¬Ú¾": 1280,
      "ĠØ³ÙħØ¬ÙĩÙĪ": 1281,
      "ĠÙ»ÚĮÙĬ": 1282,
      "ĠÚ¾ÙĨÙĨ": 1283,
      "ĠÙħÚ¾Ø±Ø¨": 1284,
      "ĠÚĩÚıÙĬ": 1285,
      "Ø§Ø¶Ø±": 1286,
      "ÙħØ±Ø§Ú¾": 1287,
      "ĠÚ©ÛĮØ§": 1288,
      "ĠÚªÙĨØ¯ÙĬ": 1289,
      "ĠØ¢ÙĩÙĬÙĪ": 1290,
      "ĠÙħØ³Ø¦ÙĦÙĪ": 1291,
      "ĠÙ»ÙĪÙĦÙĬ": 1292,
      "ĠØ´Ø§ÙĬØ¯": 1293,
      "00": 1294,
      "51": 1295,
      "ĠĠ": 1296,
      "Ġ..": 1297,
      "ÙĨÛĴ": 1298,
      "ÙĪÚıÙĬ": 1299,
      "ÙĦØ³": 1300,
      "ĠØ¬Ú³": 1301,
      "ĠÙħÙĬØ³": 1302,
      "ÙħÙĨÚ¾ÙĨØ¬ÙĬ": 1303,
      "ÚªØ§ÙĨ": 1304,
      "ÚªÙĦÙĬ": 1305,
      "ĠÙ¾Ø³": 1306,
      "ĠÙ¾Ú¾Ø§": 1307,
      "ØªØ§ÙĨ": 1308,
      "ĠØªÚıÙĩÙĨ": 1309,
      "Ø§Ø¦ÙĦ": 1310,
      "ĠØ§ÙĬØ³": 1311,
      "ĠÙĪÚ³ÙĬ": 1312,
      "ĠÙĪØºÙĬØ±": 1313,
      "Ú»Ø§": 1314,
      "ĠØ¨ÚĨ": 1315,
      "ĠØ¨Ø¹Ø¯": 1316,
      "ĠÙ¿ÙĬØ§": 1317,
      "ĠÙ¿ÙĬÙĪÙĨ": 1318,
      "ĠÙĦÛĮÚ©": 1319,
      "ĠÙĦÙĨÚª": 1320,
      "ÚĻÙĬÙĪÙĨ": 1321,
      "ĠÚ©ÙĬØ³": 1322,
      "ÙĤÙĦ": 1323,
      "Ø§Ú»Ø§": 1324,
      "Ø¬ÙĬØ¨": 1325,
      "Ùİ.": 1326,
      "ĠÙĩÙĪ": 1327,
      "ĠØ®Ø§ÙĨ": 1328,
      "ĠØ®ÙĦØ§Ùģ": 1329,
      "ĠØ´ÙĬ": 1330,
      "ĠØ´Ø¹": 1331,
      "Ø´Ø´": 1332,
      "ĠØ§Ø³Úª": 1333,
      "ØŃÙħ": 1334,
      "ĠÚĢØ§Ø¡": 1335,
      "ĠÚĢÙĨÚ¯": 1336,
      "ĠÙ¿ÙĬÙĦ": 1337,
      "Ø¸ÙĬÙħ": 1338,
      "ĠÙĦÚ©ÙĬÙĦ": 1339,
      "ĠÚªÙĪØ´Ø´": 1340,
      "ĠÙħØ§Ú»Ú¾ÙĨ": 1341,
      "Ġï¸ıï¸ı": 1342,
      "ĠÙ½ÙĪÙĬÙ½Ø±": 1343,
      "ĠØ·Ø¨": 1344,
      "ĠØ³Ú¯Ú¾": 1345,
      "ĠØ³Ú¯Ú¾ÙĬ": 1346,
      "ĠÚıÙĬÚ©": 1347,
      "ĠØ¬ÙĨÙħ": 1348,
      "Ø±ÙģØª": 1349,
      "ĠØªÙĪÚ©ÙĬ": 1350,
      "ĠÙħØŃØ¨ÙĪ": 1351,
      "ĠØ§Ø¯ÙĬ": 1352,
      "Ù»ÙĬ": 1353,
      "ĠØ°ÚªØ±": 1354,
      "ÙĩØ§ÙĩØ§ÙĩØ§ÙĩØ§": 1355,
      "Ù¾ÙĪØ±ÙĬ": 1356,
      "ĠÙħÙĬÚĬÙĬØ§": 1357,
      "Ġ07": 1358,
      "ĠØ§ÚĨÚ»": 1359,
      "ĠØµØŃÙĬØŃ": 1360,
      "ĠÙħØ®Ø§ÙĦ": 1361,
      "ĠØªØ±Ø¬": 1362,
      "ĠÚ¯ÙĪÚ¯ÙĦ": 1363,
      "ĠÙĨÙ¿ÙĪ": 1364,
      "ĠÙħÚ¾Ø±Ø¨Ø§ÙĨÙĬÙĪÙĨ": 1365,
      "45": 1366,
      "58": 1367,
      "Ġ2": 1368,
      "Ø§ÙĩÙĬ": 1369,
      "Ø±Ø¶": 1370,
      "ÙĦÙħ": 1371,
      "ÙĦÛģ": 1372,
      "ÙĦÙĤ": 1373,
      "Ø§ÙĨØ§": 1374,
      "ĠØ¬Ø³": 1375,
      "ĠØ¬Ø°": 1376,
      "ĠØ³ÙĪØ±": 1377,
      "ĠØ³Ø¦ÙĪ": 1378,
      "ĠÙħØ§Ø¦": 1379,
      "ĠÙħØ§Ùħ": 1380,
      "ĠÙħØ§Ø¡": 1381,
      "ĠÙħÚĥ": 1382,
      "ĠÙħØ¨Ø§Ø±": 1383,
      "ÙħØ§Ø´": 1384,
      "ĠÚªØ§ÙĪ": 1385,
      "ĠÚªØ§ÙģÙĬ": 1386,
      "Ø³ÙĬÙĨ": 1387,
      "ÙĩÙĪÙĨ": 1388,
      "ĠØ¢Ø³": 1389,
      "ĠØ¢Ø¦": 1390,
      "ĠØ¢Ø¨Ø§Ø¯": 1391,
      "ĠÙ¾ÛĮ": 1392,
      "ĠÙ¾ÙĪØ±": 1393,
      "ĠØ§Ùĩ": 1394,
      "Ø¬ÚıÚ¾ÙĨ": 1395,
      "ĠÚ©ÙĨ": 1396,
      "ĠØ¨ÙĦØ§": 1397,
      "Ø±ÙĬÚª": 1398,
      "ÙģÙĤ": 1399,
      "Ù¾ÙĬÙĪ": 1400,
      "ĠØ±ÙĩÙĪ": 1401,
      "ÚĮØ§Ø±": 1402,
      "Ø¬ÙĬØ¦ÙĨ": 1403,
      "ĠÚĨØ±": 1404,
      "ĠÙĩØ¦ÙĬ": 1405,
      "ĠØ¯Ùħ": 1406,
      "Ø´Ø§Ú¾": 1407,
      "ÚĬÙĬ": 1408,
      "ÚĬØ§ÚªÙ½Ø±": 1409,
      "ÙĬØ±Ø§": 1410,
      "ĠÙ½Ø±": 1411,
      "ĠÙ½Úª": 1412,
      "ĠØ¹Ø²": 1413,
      "ĠÙģØ§Ø±": 1414,
      "ĠØ³ÙĨÚĮÙĬØ¡": 1415,
      "Ø·ÙĨ": 1416,
      "ĠØ¢ÙĩÙĬØ§ÙĨ": 1417,
      "ĠØ³ÙħØ¬ÙĩÙĬ": 1418,
      "ĠÙĪÚĥÙĨ": 1419,
      "ĠÙ»ÚĮØ§": 1420,
      "ĠÙ»ÚĮÙĪ": 1421,
      "ĠÙ»ÚĮØ§ÙĬÙĪ": 1422,
      "ĠÙħÚ¾ÙĦ": 1423,
      "ĠØ³ÙĬØ§Ø³Øª": 1424,
      "ĠØ§Ø®Ø¨Ø§Ø±": 1425,
      "ĠØªÙĨØ¸ÙĬÙħ": 1426,
      "ĠØ§ÙĬÙĨØ¯ÙĬ": 1427,
      "ĠÙĨÙĨÚįÚĻÙĪ": 1428,
      "ĠØ§ÚĨÙĪ": 1429,
      "ĠÙģÙĦØ³": 1430,
      "ĠØ³ÚıØ¬ÙĬ": 1431,
      "ĠØ³ÙĨØ¯Ø³": 1432,
      "ĠØ±Ú¾ÙĬÙĨ": 1433,
      "ĠØ±Ú¾ÙĬÙĪ": 1434,
      "ØªÙĦÙģ": 1435,
      "ĠØ§ÚªØ«": 1436,
      "ĠØ§ÙĨÚ¯Ø±ÙĬØ²ÙĬØ¡": 1437,
      "ĠØ¨Ø¬Ø§Ø¡": 1438,
      "ĠÚıØ§Úį": 1439,
      "ĠØ³Ú¾Ú»ÙĬ": 1440,
      "ĠØ¨Ø§Ø¨Øª": 1441,
      "ĠØªØ§Ø±ÙĬØ®": 1442,
      "ÙĤØ±Ø§Ø·": 1443,
      "ĠÙģÙĬØµÙĦÙĪ": 1444,
      "ĠØ´Ø§ÙħÙĦ": 1445,
      "ĠÚĢÙĪÚ³": 1446,
      "ĠÙģÙĤÙĬØ±": 1447,
      "ĠÙħÙĬØ³Ø¬": 1448,
      "31": 1449,
      "ĻÙĬ": 1450,
      "ĠÚĻÙĬ": 1451,
      "Ø±Ø§Ø¦ÙĬ": 1452,
      "ĠØ¬Ø§ÙĨÙĬ": 1453,
      "ĠØ³Ø§Ø¦ÙĬ": 1454,
      "ĠØ³ÚĦ": 1455,
      "ĠØ³ÚĨÙĬ": 1456,
      "ĠÙħØ§Ø¦ÙĬ": 1457,
      "ĠÙħØ³Øª": 1458,
      "ÙħÙ¾": 1459,
      "ĠÚªØ¨ÙĪ": 1460,
      "ÙĩØ±": 1461,
      "ĠÙ¾Ø¦": 1462,
      "ĠÙ¾ÙĬØ³": 1463,
      "ØªØŃ": 1464,
      "ĠØªÙĤ": 1465,
      "ĠØªØŃ": 1466,
      "Ø§Ø¦Ùħ": 1467,
      "Ø§Ø¦ÛĮ": 1468,
      "ĠØ§Úĩ": 1469,
      "ĠØ§ÛĮÚ©": 1470,
      "ĠÙĪÚ»ÙĬ": 1471,
      "Ø¬Ø§Ø¬": 1472,
      "Ø¬ÚıÙĩÙĨ": 1473,
      "ÙĬÙĪØ²": 1474,
      "ĠÚ©Ú»": 1475,
      "ĠÚ©Ø§Ø±": 1476,
      "ĠØ¨Ú»": 1477,
      "ĠØ¨Ø®": 1478,
      "Ø§Ø±ÙĨ": 1479,
      "ĠÚ¾Ø¬": 1480,
      "Ù½Ø³": 1481,
      "Ù½ÙĬÙĪ": 1482,
      "ĠÙĦØº": 1483,
      "Ø§ÙĦÙĩÛģ": 1484,
      "Ú©ÙĪ": 1485,
      "ĠØ§ÙĨÚªØ±ÙĬ": 1486,
      "Ú¯Ø§": 1487,
      "ÙĨØ¯Ø±": 1488,
      "ĠØ´ÙĪ": 1489,
      "ĠØ´ÙĬÙĨ": 1490,
      "ĠØ´ÙĬØ¡": 1491,
      "Ø´ÙĤ": 1492,
      "ĠØ§Ú¾ÙĬÙĪ": 1493,
      "ĠÙħØ§ÙĨÙĬ": 1494,
      "Ø§Ø¦ÙĬØ³": 1495,
      "ÚĬÙĪ": 1496,
      "Ø§ÙħÙĬ": 1497,
      "ĠØ¹Ø¬ÙĬØ¨": 1498,
      "ÙĦÙĪÙħ": 1499,
      "ĠØŃÚªÙĪ": 1500,
      "ÚªÙĬÙ½": 1501,
      "ÚªÙĪÚĻÙĬ": 1502,
      "Ø§ÙĪÙĩØ§ÙĨ": 1503,
      "Ġ18": 1504,
      "ĠØ§ÙĬØªØ±ÙĪ": 1505,
      "Ø§Ø²ÙĬ": 1506,
      "ĠØ²ÙĪØ±ÙĬ": 1507,
      "ĠØ§Ù¿Ùħ": 1508,
      "ĠÙĪÚĥÙĪ": 1509,
      "ĠØºÙĬØ±": 1510,
      "Ù¹Ø±": 1511,
      "ĠÙħØŃØ¨Øª": 1512,
      "ĠÙħØŃØ³ÙĪØ³": 1513,
      "ØªØ±Ø§": 1514,
      "ØªØ±Ø§Ø¶": 1515,
      "ĠØ±Ú©ÙĪ": 1516,
      "ĠØ®ÙĪØ¯": 1517,
      "ĠÙĪØ§ÚĮØ§": 1518,
      "Ù½ÙĪØ¦ÙĬ": 1519,
      "ĠØ§Ø®ÙĦØ§": 1520,
      "ĠØ¶Ø±ÙĪØ±Øª": 1521,
      "ĠØ³Ø§Ú³ÙĬÙĪ": 1522,
      "ĠÚ¯Ú¾Ø±Ø¬ÙĬ": 1523,
      "ĠÙ¾ÙĬØ§Ø±ÙĬ": 1524,
      "ÙĬØ´ÙĨÙĦ": 1525,
      "ĠÙħØ®ØªÙĦÙģ": 1526,
      "ĠØ§ÙĨØªÚ¾Ø§": 1527,
      "ĠÙĩÙĪÙĨØ¯ÙĪ": 1528,
      "Ø§ØµÙĦ": 1529,
      "ĠØ³Ø§ÙħÚ¾ÙĪÙĨ": 1530,
      "ĠØ§Ø¹ØªØ±Ø§Ø¶": 1531,
      "ĠØ³Ø§Ø¦ÙĨØ³": 1532,
      "ĠØ¬Ø¯ÙĬØ¯": 1533,
      "ĠØ§ÙĨØ³Ø§ÙĨÙĬ": 1534,
      "ĠÙģØ·Ø±Øª": 1535,
      "ĠØ´ÙĬØ¦Ø±": 1536,
      "ĠÙħØ®Ø§ÙĦÙģ": 1537,
      "08": 1538,
      "37": 1539,
      "52": 1540,
      "Ø§Úº": 1541,
      "Ø§Úĥ": 1542,
      "Ø§ÙĩÙĪ": 1543,
      "ÙĪÚº": 1544,
      "Ø±Ø§Ø±": 1545,
      "Ú¾Ø§Ø¦ÙĬ": 1546,
      "ĠØ¬Ø§Ø¡": 1547,
      "ĠØ¬ÙĨÚ¯": 1548,
      "ĠØ³Øª": 1549,
      "ĠØ³ÙĬØ¯": 1550,
      "ĠØ³ÙĪÙĨÚ¾ÙĨ": 1551,
      "ĠÙħÙĬØ±": 1552,
      "ĠÙħÙĪÙĦ": 1553,
      "ĠÙħØ«": 1554,
      "ÙħØŃ": 1555,
      "ĠÚªØ§ÙĨ": 1556,
      "ĠÚªÙĬÙĨ": 1557,
      "ĠÚªØ¬ÙĪ": 1558,
      "Ø³Ø§": 1559,
      "Ø³Ú¾ÙĬ": 1560,
      "Ø¯ÙĨ": 1561,
      "ÚªÚĻ": 1562,
      "ĠØ¢ÙĨ": 1563,
      "ĠØ¢ÚĮØ§Ø±": 1564,
      "ĠÙ¾Ûģ": 1565,
      "ĠÙ¾ÙĪØ±ÙĪ": 1566,
      "ØªÛĮ": 1567,
      "ØªØ¬Ø§Ø¬": 1568,
      "Ø§Ø¦Ø±": 1569,
      "ĠØ§ÙĬÙĨ": 1570,
      "ĠØ§ÚĻÙĬ": 1571,
      "ĠØ§ÚªÙĬ": 1572,
      "ĠØ§ÙĬÚª": 1573,
      "ĠØ¨Ø±": 1574,
      "ĠÙĨÚªØ±ÙĬ": 1575,
      "ĠÚ¾ÙĬÙĪ": 1576,
      "Ù½Ø§": 1577,
      "Ù½ÙĬÙĨ": 1578,
      "ÛĮÙĦ": 1579,
      "ÛĮÙħ": 1580,
      "ĠÙĦÛĮ": 1581,
      "ĠÙĦØ¹": 1582,
      "Ú©Ø±": 1583,
      "Ù¾Ø³": 1584,
      "Ù¾Ø§Ø±": 1585,
      "ĠÚ©ÙĬØ±": 1586,
      "ĠØ±Øª": 1587,
      "ĠØ±Ø¨": 1588,
      "ĠØ±Ø´": 1589,
      "ĠØ±Ø§Ø¬": 1590,
      "Ú¯Ùĩ": 1591,
      "ĠÚĨØ§ÙĨ": 1592,
      "ĠÚıÙĨÙĬ": 1593,
      "ĠÚ¯Ø§": 1594,
      "ĠÙ»Ø§Ú¾Ø±": 1595,
      "ÙĪØ±ÙĨ": 1596,
      "Ø¹ÙĬØ¯": 1597,
      "ĠØ´ÙĬÙĪÙĨ": 1598,
      "Ø´Ø§": 1599,
      "Ø´Ùħ": 1600,
      "ĠØ§Ú¾ÚĻÙĬ": 1601,
      "ÙĬÙĨØ¯ÙĬ": 1602,
      "ÙĬÙĨØ¯ÙĪ": 1603,
      "ÙĦÙĬÚª": 1604,
      "ØŃÙĤ": 1605,
      "Ø§ÙħÙĪ": 1606,
      "ĠØ¹Ø¨": 1607,
      "ĠØ¹ÙĬØ¯": 1608,
      "ĠØ¹Ø´ÙĤ": 1609,
      "ĠØµÙĪ": 1610,
      "ĠØµÙĪØ±Øª": 1611,
      "ĠØµØ¯ÙĤÙĪ": 1612,
      "ĠÚªØ±ÙĬÙĨ": 1613,
      "ĠÚªØ±Ø§Ø¦ÙĬ": 1614,
      "ÙĦØ§ÙĬÙĪ": 1615,
      "ĠØŃØµÙĪ": 1616,
      "ĠØŃØ§Ø¶Ø±": 1617,
      "ĠØ³ÙĪØ§Ø¡": 1618,
      "ĠØ³ÙĪØ´ÙĦ": 1619,
      "Ġ12": 1620,
      "ĠØ§ÙĬØ§Ø²": 1621,
      "ĠØ§ÙĬÚıÙĪ": 1622,
      "ĠØ²Ø¨Ø±Ø¯Ø³Øª": 1623,
      "ĠÙħÙĪÚªÙĦÙĬ": 1624,
      "ĠÙºØ§Ú¾ÙĬ": 1625,
      "ĠÙħÙĦÚª": 1626,
      "ĠÙħÙĦÙĬÙĪ": 1627,
      "ÙĬØ´Úª": 1628,
      "ĠØ§Ú³ØªÙĬ": 1629,
      "ÙĬØ²ÙĬ": 1630,
      "ĠÚ¾ÙĪØ¦ÙĬÙĨ": 1631,
      "ĠÙĨØ§ÙĦØ§": 1632,
      "ØªÙĪÚ¾Ø§ÙĨ": 1633,
      "ĠØ°Ú¾ÙĨ": 1634,
      "ĠØ°Ø±ÙĬ": 1635,
      "ĠØ±Ú©ÙĨØ¯ÚĻ": 1636,
      "ĠÚĦØ§Ú»": 1637,
      "ĠØ¨ÙĬØ§ÙĨ": 1638,
      "ĠÙĨÙĨÚįÚĻÙĬ": 1639,
      "ĠÚªÙĦÚ¾": 1640,
      "ĠÚĨÙĪÙĨØ¯Ø§": 1641,
      "ØŁØŁØŁ": 1642,
      "ĠØµØŃØ§ÙģÙĬ": 1643,
      "ĠÙħØ³Ø¦ÙĦÙĨ": 1644,
      "ĠØ¨ØŃØ«": 1645,
      "ĠØ§Ú©ÙĬÙĨ": 1646,
      "ĠÙ¾ÙĨÙĩÙĨØ¬ÙĬ": 1647,
      "ĠÙ¾Ø§Ø±Ø§ÙĨ": 1648,
      "ĠÙĦÙĬÚ©": 1649,
      "ĠÙħØ·ÙĦØ¨": 1650,
      "ĠØ§ØŃØªØ¬Ø§Ø¬": 1651,
      "ĠÙ¾Ø±ÙĪÚ¯Ø±": 1652,
      "ĠÙħÙĪÙĤÙģ": 1653,
      "ĠÙĤØ¨ÙĪÙĦ": 1654,
      "ĠÚªØ§ÙĪÚĻ": 1655,
      "ĠØ¹Ø²Øª": 1656,
      "ĠÙĪØ§ÚĮØ§ÙĬÙĪÙĨ": 1657,
      "40": 1658,
      "41": 1659,
      "48": 1660,
      "Ġ6": 1661,
      "ĠâĢ¦": 1662,
      "ĠÙĬØ¹": 1663,
      "Ø§Ø§ÙĦÙĦÙĩ": 1664,
      "Ú¾ÙĪØ±": 1665,
      "Ø§ÙĨÛĮ": 1666,
      "ĠØ¬Ú¾ÙĬ": 1667,
      "ĠØ³Ø§Ø±": 1668,
      "ĠÙħÚª": 1669,
      "ĠÙħØ§Ø³": 1670,
      "ĠÙħØµ": 1671,
      "ĠÙħØ¸": 1672,
      "ĠÙħÚ¾Ø§": 1673,
      "ĠÙħØ¶": 1674,
      "ĠÙħØ±Ø¯": 1675,
      "ĠÙħÙºØ§": 1676,
      "ÙħÙĨÚ¾ÙĨØ¬Ø§": 1677,
      "ĠÚªÙ½": 1678,
      "ĠÚªÙĬØ§": 1679,
      "ĠÚªÙĬÙĪÙĨ": 1680,
      "Ø¯Ø§Ø²": 1681,
      "ÚªØ³": 1682,
      "ÚªØ¬Ú¾": 1683,
      "ĠÙ¾Ø§": 1684,
      "ĠØªØµ": 1685,
      "ĠØªÙĨÚ¾ÙĨØ¬ÙĬ": 1686,
      "ĠØªØ±ÙĬÙĨ": 1687,
      "Ø§Ø¦ÙĤ": 1688,
      "Ø§Ø¦Ø´": 1689,
      "Ø§Ø¦ÙĦÙĬ": 1690,
      "ĠØ§ÚĮ": 1691,
      "ĠÙĪØ·ÙĨ": 1692,
      "Ø¬ÙĬÙĨ": 1693,
      "Ø¬ÛĮ": 1694,
      "Ø¬ÙĨÚ¾ÙĨ": 1695,
      "Ø¬ÙĩÙĬ": 1696,
      "ĠÚ©Ø§Ø¦ÙĬ": 1697,
      "ĠØ¨Ø§Øª": 1698,
      "ĠØ¨ÙĦÙĪ": 1699,
      "ĠØ¨Ú»ÙĬ": 1700,
      "ĠØ¨Ø³Ùħ": 1701,
      "ĠÙĨØµ": 1702,
      "ĠÙĨØ¦ÙĪÙĨ": 1703,
      "ĠÚ¾Ùħ": 1704,
      "ĠÚ¾Ø§Ú¾Ø§Ú¾Ø§Ú¾Ø§Ú¾": 1705,
      "ĠÚ¾Ø²": 1706,
      "ĠÚ¾ÙħØ±Ø§Ú¾": 1707,
      "Ø¦ÛĴ": 1708,
      "Ù½ÙĨÚ¯": 1709,
      "ÛĮÛģ": 1710,
      "ĠÙĦØ§Ú³": 1711,
      "ĠÙĦØ·ÙĬ": 1712,
      "ÚĻÙĬÙĪ": 1713,
      "Ú©ÙĦ": 1714,
      "ÙģÙĪ": 1715,
      "ÚĮÙĨ": 1716,
      "ĠÚ¯Ø±ÙĪ": 1717,
      "ĠÙ»Ø¦ÙĬ": 1718,
      "ĠÙĩØ¬ÙĪ": 1719,
      "ĠØ®Ø§Øµ": 1720,
      "ĠØ®ØªÙħ": 1721,
      "ĠØ´ÚªÙĦ": 1722,
      "ÙĩÙĬÙĦ": 1723,
      "Ø´Øª": 1724,
      "Ø´ÙħÙĨ": 1725,
      "ÙĦÙĬÙħ": 1726,
      "Ø²ÙĪØ±": 1727,
      "ĠÙĤØ¯Ø±": 1728,
      "ÙĩÙĨÚ¯": 1729,
      "ĠØ¹ÙħØ±": 1730,
      "ĠØ¹Ø±Ø¶": 1731,
      "ĠÙģÙĬ": 1732,
      "ĠÙģÙ½": 1733,
      "ĠÙģØ§ÙĦÙĪ": 1734,
      "Ø§ØªÙĦ": 1735,
      "ØµØŃ": 1736,
      "ĠØŃÙĤÙĬ": 1737,
      "Ø³ØªØ§Ø¦ÙĬÙĨ": 1738,
      "ĠÙĦÚ©ÙĬ": 1739,
      "ĠÙĦÚ©Ú»": 1740,
      "ÙĬØ³Ù½": 1741,
      "ĠÚªÙĬÙħ": 1742,
      "Ú¾Ø§ÙĬÙĪ": 1743,
      "ĠØ§ÙĬÙ¾": 1744,
      "ĠØ³Ø±ÙĩØ§": 1745,
      "Ø§Ø²Øª": 1746,
      "ĠØ§ÙĦÚ³": 1747,
      "ĠÙ¾ÙĬÙ¾": 1748,
      "ĠÙ¾ÙĬØ¯Ø§": 1749,
      "Ø§ÙģØª": 1750,
      "ĠÙºØ§ÙĩÙĬ": 1751,
      "Ø§Ø¬ÙĬ": 1752,
      "ĠÙħÙĦÙĨØ¯ÙĪ": 1753,
      "ĠÚ¾ÙĪÙĨØ¯": 1754,
      "Ø¶ÙĪ": 1755,
      "Ø§Ú³ÙĬ": 1756,
      "ĠÚĮÙĪ": 1757,
      "Ø§ÚĦÙĬ": 1758,
      "ØªÙĪÚ©ÙĬ": 1759,
      "ĠØ°Ø§Øª": 1760,
      "ĠÙĦÙĪÚĬ": 1761,
      "ĠØ±Ú©ÙĬÙĪ": 1762,
      "ĠÙĨÙĨÚįÙĬ": 1763,
      "ĠÚ¯ÙĩØ±Ø¬ÙĬ": 1764,
      "ĠØ§ÚĥØ§ÙĨ": 1765,
      "ĠØ³Ø§ÙĦÙĨ": 1766,
      "ĠØ³ÙĨØ¯Ú¾": 1767,
      "ĠÙĪØ§ÙĤØ¹": 1768,
      "ĠÙħØ²Ø§ÙĤ": 1769,
      "ĠÚ¯Ø§Ø±ÙĬÙĪÙĨ": 1770,
      "ĠÙ»Ø§Ø±ÙĨ": 1771,
      "ĠØ¬Ú¾ÚĻÙĪ": 1772,
      "ĠØ³ÙħØ§Ø¬ÙĬ": 1773,
      "ĠÚªÙĪÙĨÛģ": 1774,
      "ĠÙ¾Ø±ÙĪÙģ": 1775,
      "ĠÚªÚįÙĬ": 1776,
      "ĠØ§Ø±Ø¯ÙĪ": 1777,
      "ĠÙĨÙ¿Ø§": 1778,
      "ĠÙĩØ§ÙĩØ§ÙĩØ§": 1779,
      "ÙħØ¹ÙĨØ§": 1780,
      "ĠØ²ÙĨØ¯Ú¯ÙĬ": 1781,
      "ĠÚ¯Ú¾Ù½": 1782,
      "ĠÚĢÙ½Ø§Ø¦ÙĬ": 1783,
      "ĠÚªØ±Ø§ÚĨÙĬ": 1784,
      "ĠÙħØŃØ¨ÙĪØ¨": 1785,
      "ĠØ¬Ø°Ø¨": 1786,
      "ĠØ¯ÙħØ§Øº": 1787,
      "ĠØ§ÚªØ«Ø±": 1788,
      "ĠØ³ÚĦÙĪ": 1789,
      "ĠÙĦØ¹ÙĨØª": 1790,
      "ĠÙ¾Ø±ÙĪÚ¯Ø±Ø§Ùħ": 1791,
      "ĠÙĬØ¹ÙĨÙĬ": 1792,
      "42": 1793,
      "46": 1794,
      "49": 1795,
      "ĠÙĬÙĪÙĨ": 1796,
      "Ø§ÙĬØª": 1797,
      "ÙĬØ§Ø¯": 1798,
      "ÙĨØ§ÙĦ": 1799,
      "ÙĨØ§Ø¦ÙĬØ³": 1800,
      "ÙĪØ§ÙĦ": 1801,
      "ÙĪÚıØ§": 1802,
      "ĠÚį": 1803,
      "Ø±Ø±": 1804,
      "Ø±Ø¢": 1805,
      "ÙĦØ§ØŃ": 1806,
      "Ø§ÙĨÙĨ": 1807,
      "ĠØ¬Ø¯Ø§": 1808,
      "ĠØ¬ÙĩÙĨÚ¯": 1809,
      "ĠØ³ÙĬÙĨ": 1810,
      "ĠØ³ÙºÙĪ": 1811,
      "ĠØ³Ø§Ø¯ÙĪ": 1812,
      "ĠØ³ÙĤØ±Ø§Ø·": 1813,
      "ĠÙħÙĩ": 1814,
      "ĠÙħÚ¾Ø§ÙĨ": 1815,
      "ĠÙħÙĬÙħ": 1816,
      "ĠÙħÙĦÙĬÙĦ": 1817,
      "ÙħØ³": 1818,
      "ĠÚªÙ¿": 1819,
      "ĠÚªØ¨ÙĬ": 1820,
      "ĠÚªØ§Ø±ÙĪ": 1821,
      "ĠÚªÚĨÚ¾": 1822,
      "Ø³ÚĢ": 1823,
      "Ø³Ø¦ÙĪ": 1824,
      "Ø³ÚĨÙĬ": 1825,
      "Ø¯Ùħ": 1826,
      "Ø¯ÙĬÙĨ": 1827,
      "Ø¯Ø¯": 1828,
      "Ø¯ÛĮ": 1829,
      "Ø¯ÚĻ": 1830,
      "ĠØ¢Ø±": 1831,
      "ĠÙ¾ÙĪØ±Ø§": 1832,
      "ĠØªØ¬": 1833,
      "ĠØªÚ©": 1834,
      "Ø§Ø¦Ù¾": 1835,
      "Ø§Ø¦ÙĬØ²": 1836,
      "Ø§Ø¦ÛĮÙĨ": 1837,
      "ĠØ§ÙĪÙĨ": 1838,
      "ĠØ§ÙħØ§ÙĨ": 1839,
      "ĠØ§Ú¯Ø±": 1840,
      "ĠÙĪÙĦ": 1841,
      "ĠÙĪÙģ": 1842,
      "ĠÙĪØ¬ÙĪØ¯": 1843,
      "Ø¬Ø§ÙĨ": 1844,
      "ÙĬÙĪØ±": 1845,
      "Ø¨Ú¾": 1846,
      "Ø¨Ø§ÙĨ": 1847,
      "Ø¨Ø³Ùħ": 1848,
      "ĠØ¨Ø§Ú¾": 1849,
      "ĠØ¨Ø§Ø±ÙĬ": 1850,
      "ĠÙĨÙĤ": 1851,
      "ĠÙĨØ§Ùħ": 1852,
      "ĠÙĨØ§Ø²": 1853,
      "Ø§Ø±ÙĬÙĪ": 1854,
      "ÛĮØ±": 1855,
      "Ø§Ø¦ÙĬÙĨØ¯Ø§": 1856,
      "Ø±ÙĬÚĬ": 1857,
      "ÙĪÙĨÙĬ": 1858,
      "Ø§ÙĦÙĨ": 1859,
      "Ù¾ÙĨÚ¾ÙĨØ¬ÙĬ": 1860,
      "ÙĤÛĮ": 1861,
      "ĠØ±ØŃÙħ": 1862,
      "ĠØ§ÙĨØ¯Ø§Ø²": 1863,
      "ĠÚıÙĨ": 1864,
      "ĠÚıÙºÙĪ": 1865,
      "ĠÚ¯ÙĨ": 1866,
      "ĠÚ¯Ùħ": 1867,
      "ĠÚ¯ÙĩÙĪ": 1868,
      "ĠÙ»Ø¬": 1869,
      "ÚĨØ±": 1870,
      "ÙĪØ±ØªÙĨ": 1871,
      "ĠÙĩÙ¿": 1872,
      "ĠÙĩØªÙĬ": 1873,
      "ĠÙĩØ¦Ø§": 1874,
      "ĠØ¯Ø§ÙĨ": 1875,
      "ĠØ¯ÛĮÚ©": 1876,
      "ĠØ´Ø¯": 1877,
      "ĠØ´Ø§Ø¯ÙĬ": 1878,
      "ĠØ´Ø±ÙĬÙģ": 1879,
      "ĠØ§ÙĪØ§Ø¦ÙĦÙĬ": 1880,
      "ĠØ§Ú¾ÚĻØ§": 1881,
      "Ø§Ø¨ÙĬ": 1882,
      "ĠØ§Ø³Ùħ": 1883,
      "ĠØ§Ø³Ù½": 1884,
      "Ø§Ø¦ÙĬÚª": 1885,
      "ÙĦÙĬØ³": 1886,
      "ÚĬØ±": 1887,
      "ÚĬÙĦ": 1888,
      "ĠÚĢÚ³": 1889,
      "ĠØ¹ÙĪØ±Øª": 1890,
      "ĠÙģØ±Ø¯": 1891,
      "ĠÙģØªØŃ": 1892,
      "ÙºÙĦ": 1893,
      "ĠÚªØ±Ø§ÙĬÙĪ": 1894,
      "ĠÚªØ±ÙĬØ§ÙĨ": 1895,
      "ĠÙ¾ÙĪÙĬØ§ÙĨ": 1896,
      "ĠÙ¾ÙĪÙĦÙĬØ³": 1897,
      "ĠÛģÙħ": 1898,
      "Ø®ÙĪ": 1899,
      "Ø®Ø±": 1900,
      "ĠÚªÙĪÚĻ": 1901,
      "ĠÙħØ§Ú»ÙĩÙĨ": 1902,
      "Ġ17": 1903,
      "ĠØ³Ø±ÚªØ§Ø±": 1904,
      "ĠØ²Ø±Ø¯": 1905,
      "ĠÚĨÙĪÙĬ": 1906,
      "ĠØ§ÙĦÙĦÛģ": 1907,
      "ĠÙħØ¹ÙĬØ§Ø±": 1908,
      "ĠÙ¾ÙĬØ¦": 1909,
      "ĠØ³ÙħØ¬Ú¾ÙĬ": 1910,
      "ĠØ³ÙħØ¬ÙĩØ§ÙĨ": 1911,
      "Ù¹ÛĮ": 1912,
      "ĠÙĦÙģØ¸ÙĨ": 1913,
      "ĠØ±ÙĪØŃ": 1914,
      "ĠØ±ÙĪØ§ÙĬØª": 1915,
      "ÙħÙĬÙĨÙ½": 1916,
      "ÚªØ±Ø§": 1917,
      "ÙħØ±Ø§": 1918,
      "ĠØ®ÙĪØ¨": 1919,
      "ĠÚ¦Ø§": 1920,
      "Ø§Ø´ÙĤ": 1921,
      "ĠÙĨÙĪØ¬ÙĪ": 1922,
      "ĠÚªÚ¾ÚĻØ§": 1923,
      "ĠØªØµÙĪÙģ": 1924,
      "ĠÛģÙĪÚº": 1925,
      "ÙĨÚĬÙĬ": 1926,
      "ĠÙģÙĦØŃØ§ÙĦ": 1927,
      "ĠÚĨÙĪÙĨØ¯ÙĪ": 1928,
      "ĠÚıÙĬÙĨØ¯ÙĬ": 1929,
      "ĠØ³Ø¨Ø¨": 1930,
      "ĠØ³ÙĨØ¯ÙĨ": 1931,
      "ĠØ§Ú©ÙĬÙĪÙĨ": 1932,
      "ĠÙħØ²ÙĪ": 1933,
      "ĠØ§Ø³ØªØ§Ø¯": 1934,
      "ĠØ¬ÙħÙĦÙĪ": 1935,
      "ĠØ±Ú¾ÙĬØ§": 1936,
      "ĠÙħØ§Ø±ÚªÙĬÙ½": 1937,
      "ĠØ®Ø¯Ø§ÙĬØ§": 1938,
      "ĠØ§Ø¬Ø§Ø²Øª": 1939,
      "ĠØ§ÙĨÚ¯Ø±ÙĬØ²ÙĬ": 1940,
      "ĠÙ¾Ø§ÚªØ³ØªØ§ÙĨ": 1941,
      "ĠØ´Ø§Ø¹Ø±ÙĬ": 1942,
      "ĠØ¢Ø®Ø±": 1943,
      "ĠØ¢Ø®Ø±ÙĬ": 1944,
      "ĠÚ©Ø³ÛĮ": 1945,
      "ĠØªÚ¾ÛĴ": 1946,
      "ĠØ§Ø´ÙĪ": 1947,
      "ĠÙ¾ÚĻÚ¾ÙĬÙĪ": 1948,
      "ĠÙĪØ§ÙĨÚ¯Ø±": 1949,
      "ĠØ¯Ø¹Ø§": 1950,
      "ĠØ³ÚĥØ§Ú»": 1951,
      "ĠÙĪØºÙĬØ±Ûģ": 1952,
      "ĠÙĦÛĮÚ©ÙĨ": 1953,
      "ĠÚıÙĬÚ©Ø§Ø±ÙĬ": 1954,
      "ĠØªØ±Ø¬ÙħÙĪ": 1955,
      "ÙħØ§Ø´Ø§Ø§ÙĦÙĦÙĩ": 1956,
      "ĠÙ»ÚĮØ§ÙĬØ§ÙĨ": 1957,
      "ĠÙĦØ·ÙĬÙģ": 1958,
      "ĠØ²Ø±Ø¯Ø§Ø±ÙĬ": 1959,
      "11": 1960,
      "19": 1961,
      "20": 1962,
      "27": 1963,
      "28": 1964,
      "36": 1965,
      "47": 1966,
      "56": 1967,
      "99": 1968,
      "Ù¸": 1969,
      "ÙĶ": 1970,
      "Ġ...": 1971,
      "Ø§ÙĪÙĦ": 1972,
      "Ø§ÚĨÙĪ": 1973,
      "ÙĬÙº": 1974,
      "ĠØŁ": 1975,
      "ÙĪØ³": 1976,
      "ÙĪØ§Ú»": 1977,
      "ÙĪÚıÙĪ": 1978,
      "Ø±Ø§ÙĨ": 1979,
      "Ø±ØŃ": 1980,
      "Ø±Ø§Ø¬": 1981,
      "Ú¾ÙĦØ§": 1982,
      "Ú¾Ø¦ÙĪ": 1983,
      "Ú¾ÛĮÚº": 1984,
      "Ø§Ø¤": 1985,
      "ÙĦÙĬØ¡": 1986,
      "Ø§ÙĨÚ¯": 1987,
      "Ø§ÙĨÙĩÙĨ": 1988,
      "ĠØ¬Ø±": 1989,
      "ĠØ¬Ø¨": 1990,
      "ĠØ¬ÛĮ": 1991,
      "ĠØ¬ÛĮØ³": 1992,
      "ĠØ³ÙĬÙĪ": 1993,
      "ĠØ³Ø§Øª": 1994,
      "ĠØ³Ø±ÙĪ": 1995,
      "ĠØ³Ø®": 1996,
      "ĠØ³Ø¹ÙĬØ¯": 1997,
      "ĠÙħÙ½ÙĬ": 1998,
      "ĠÙħÙģØª": 1999,
      "ÙħØ¯": 2000,
      "ÙħØ§Ú»": 2001,
      "ÙĬÙĨÙĬ": 2002,
      "ÙĬÙĨÚ¯": 2003,
      "ÛģØ±": 2004,
      "ĠÚªÙĩ": 2005,
      "ĠÚªÙĦØ§": 2006,
      "Ø³Ø¯Ø§": 2007,
      "Ø³ÙĦØ§Ùħ": 2008,
      "Ø¯ÙĦ": 2009,
      "ÙĩÙĦ": 2010,
      "ÙĩØ¨": 2011,
      "ÙĩØ§Ø¦ÙĬ": 2012,
      "ÚªÚ»": 2013,
      "ĠÙ¾Øª": 2014,
      "ĠÙ¾Ø§ÙĦ": 2015,
      "ĠÙ¾Ø§Ù¾": 2016,
      "ØªØ±ÙĬ": 2017,
      "ĠØªØ®": 2018,
      "ĠØ§ÙĤÙĪ": 2019,
      "ĠÙĪÚĨ": 2020,
      "ĠÙĪØ§Øª": 2021,
      "Ú»ÙĨ": 2022,
      "ĠÚ©Ù¾ÙĬ": 2023,
      "Ø¨Ø§": 2024,
      "Ø¨ÙĪØ±": 2025,
      "Ø¨Ø§Ø¨": 2026,
      "Ø¨ÙĬØ´Úª": 2027,
      "ĠØ¨Úª": 2028,
      "ĠØ¨Ø§Ø¯": 2029,
      "ĠØ¨Ú¾Ø±": 2030,
      "ĠØ¨ÙĨØ§": 2031,
      "ĠÙĨØ¨ÙĬ": 2032,
      "Ø§Ø±Øª": 2033,
      "Ø¦ÙĦ": 2034,
      "Ù½ÙĬØ¡": 2035,
      "ĠÙĦÚ¾": 2036,
      "ĠÙĦÚ¾Ú»ÙĪ": 2037,
      "ÙĪÙĨÛģ": 2038,
      "Ú©Ø³": 2039,
      "Ú©Ø§Ø±": 2040,
      "Ù¾Ø§": 2041,
      "Ù¾ÙĨ": 2042,
      "ÙĤØ§": 2043,
      "ÙĤÙĬÙĨ": 2044,
      "ĠØ±Ø§Ú³": 2045,
      "ĠØ±ÚªØ§Ø±": 2046,
      "ĠØ±Ú³ÙĪ": 2047,
      "Ø§Ú»ÙĬÙĨ": 2048,
      "ĠØ§ÙĨØ¨": 2049,
      "ĠÚĨÚ¾": 2050,
      "ĠÚĨÙĪØ±": 2051,
      "ĠÚĨØ§Ûģ": 2052,
      "ĠÚıÚ»": 2053,
      "ĠÚ¯ÙĬÙ½": 2054,
      "ĠÚ¯ÙĨØ¬": 2055,
      "ĠÚ¯Ú¾Ú»ÙĪ": 2056,
      "ĠÚ¯Ø±ÙģØª": 2057,
      "ĠÙ»ÙĬØ§": 2058,
      "ĠØ³Ø§Ø¦ÙĬÙĨØ¡": 2059,
      "ĠØ¯Ø´ÙħÙĨ": 2060,
      "ĠØ´ÚªØ§Ø±": 2061,
      "Ø´Ø±": 2062,
      "ĠØ§Ú¾ÚĻÙĪ": 2063,
      "ĠÚĩÚ¾": 2064,
      "ÙĲØĮ": 2065,
      "ÚĬÙĬÙĪ": 2066,
      "ÚĬÙĬÙħ": 2067,
      "Ø²ÙĦ": 2068,
      "ĠÙĤÙĦ": 2069,
      "ĠÚĢÙ½ÙĪ": 2070,
      "ÙĬØ§Ø±ÙĪ": 2071,
      "ĠÚ³ÙĪÙĦ": 2072,
      "ĠÚ³Ø§ÚĻ": 2073,
      "ĠÙ¾Ø±Ø³Øª": 2074,
      "ÙĩÙĨØ¬Ø§": 2075,
      "ĠØ¹Ø±Ø¨": 2076,
      "ĠØ¹Ø§Ø´ÙĤ": 2077,
      "ĠÙģØ¶": 2078,
      "Ø§ØªÙħ": 2079,
      "ÚĢÙĬ": 2080,
      "ØµÙģØ§": 2081,
      "Ø±ÙĪÚº": 2082,
      "Ø±ÙĪÚĢ": 2083,
      "ĠÙ¾ÙĪÙĬ": 2084,
      "ĠÛģÙħØ§Ø±": 2085,
      "Ø·Ø§": 2086,
      "Ø·ÙĪ": 2087,
      "ĠÙĦÚ©ÙĪ": 2088,
      "ĠØ³ÙħÙĬØª": 2089,
      "ÙĬØ³ÙĬ": 2090,
      "ĠÚªÙħÙĨ": 2091,
      "ĠÚªÙħÙ¾ÙĬÙĪ": 2092,
      "ĠÚªÙĪØ±ÙĬ": 2093,
      "ĠÚªÙĪØ¨Ûģ": 2094,
      "Ø³ÙĬØª": 2095,
      "Ø§Ø²Ø´": 2096,
      "ĠØ²ÙĪØ±": 2097,
      "ĠÙħÙĪØ¶ÙĪ": 2098,
      "ĠÚĨÙĪØ§ÙĨ": 2099,
      "ĠÙĦÚ³Ø§": 2100,
      "ĠÙĦÚ³ÙĦ": 2101,
      "ĠÙħØ¹Ø§Ùħ": 2102,
      "ĠØ·Ø±ÙĬ": 2103,
      "ĠØ·Ø¦ÙĬ": 2104,
      "ĠØ·Ø±ØŃ": 2105,
      "ĠÙºØ§Ùĩ": 2106,
      "ĠÙºÙĬÙº": 2107,
      "ĠÙ»ÙĪÙĦÙĬÙĨ": 2108,
      "ĠÙħÙĦØ§Ø¦ÙĬ": 2109,
      "ĠÚĩÙĪØªÛģ": 2110,
      "ĠØ¬ÙĨÙĩÙĨ": 2111,
      "Ø°Ø§Øª": 2112,
      "ĠØºÙĦØ§Ùħ": 2113,
      "ĠÙĪÙĬÙºØ§": 2114,
      "ĠØ§Ú³ÙĪØ§Ú»": 2115,
      "Ù¹ÛĴ": 2116,
      "ĠØ¬ÙĬÚªÚıÙĩÙĨ": 2117,
      "ĠÙħÙĨØ·": 2118,
      "ĠÚªØ§ÚıÙĬ": 2119,
      "Ø§Ø¶ÙĬ": 2120,
      "ĠÙħØŃÙĨØª": 2121,
      "Ø¯Ø±Ø³Øª": 2122,
      "ĠØ§Ø¯Ø¨": 2123,
      "ĠØ±ÙĪÙ¾": 2124,
      "ĠÙ¾ÚĻÙĩÙĪ": 2125,
      "ĠØ§ØµÙĪÙĦ": 2126,
      "ĠÙĦÙĪÚ¯": 2127,
      "ĠØ®ÙĪØ´ÙĬ": 2128,
      "ĠÚ¦ÙĦ": 2129,
      "ĠÙħÙĬÚĨÙĪ": 2130,
      "ĠØªØµÙĪÙĬØ±ÙĪÙĨ": 2131,
      "ĠÙĤÙĪÙħÙĬ": 2132,
      "ĠØºÙĦØ·ÙĬ": 2133,
      "ĠÚªØ§Ø±ÚªÙĨ": 2134,
      "ÛĮØ§Úº": 2135,
      "ĠØ³ÙĪÚĨÙĬÙĪ": 2136,
      "ĠØ¬Ú¾ÚĻÙĬ": 2137,
      "ÛĶÛĶÛĶ": 2138,
      "ĠØ³ÙĨØ¬ÙĬ": 2139,
      "ĠÙģØ±ÙĤ": 2140,
      "ĠØ³ÙħØ¬ÙĩÙĬÙĪ": 2141,
      "ĠÙħØ´Ú¾ÙĪØ±": 2142,
      "ĠØ¸ÙĦÙħ": 2143,
      "ĠÙ¹ÙĪ": 2144,
      "ĠÙ¾ÚĩÙĬÙĪ": 2145,
      "Ù¾ÙĦØ§Ø¦ÙĬ": 2146,
      "ĠØŃØ³Ø§Ø¨": 2147,
      "ÙĦÙĦÙĦÙĦ": 2148,
      "ĠØªØ¨Ø¯ÙĬ": 2149,
      "ĠÙħØ¬ÙħÙĪ": 2150,
      "Û°Û°": 2151,
      "Ú¾ØªÙĬØª": 2152,
      "ĠØ¨ÙĬÙħØ§Ø±ÙĬ": 2153,
      "ĠÚıÙĪÚ¾": 2154,
      "ĠØŃØ§ÙĦØª": 2155,
      "ĠÙ»Ø±ÙĪÚĨ": 2156,
      "ĠÙ½ÙĬÚªÙĨØ§ÙĦ": 2157,
      "ĠÙħØ¨Ø§Ø±ÚªÙĪÙĨ": 2158,
      "ĠÙģÙĦØ³ÙģÙĬ": 2159,
      "ĠÙ¾ÙĬØ³Ø¦Ø§": 2160,
      "ĠØŃÚªÙĪÙħØª": 2161,
      "ĠÙħØ«Ø§ÙĦ": 2162,
      "ĠÙĦØ§Ú³Ø§Ù¾": 2163,
      "ĠØ³Ø®Øª": 2164,
      "ĠØ±ÚªØ§Ø±ÚĬ": 2165,
      "ĠÙħÙĪØ¶ÙĪØ¹": 2166,
      "ĠÙħÙĬÚĨÙĪØ¦Ø±": 2167,
      "12": 2168,
      "13": 2169,
      "24": 2170,
      "25": 2171,
      "32": 2172,
      "38": 2173,
      "43": 2174,
      "50": 2175,
      "57": 2176,
      "59": 2177,
      "«Ø±": 2178,
      "ÙĮ": 2179,
      "ÙĴ": 2180,
      "Ġ05": 2181,
      "Ú¾Ø§Ø±": 2182,
      "Ú¾ÚĻÙĬ": 2183,
      "Ø§Ø¸": 2184,
      "ÙĦØ§ÙĨ": 2185,
      "ĠØ¬ÙĬÙĪ": 2186,
      "ĠØ¬Ø³Ùħ": 2187,
      "ĠØ³ÙĦ": 2188,
      "ĠØ³Ø§Ú¾": 2189,
      "ĠØ³Ø¬": 2190,
      "ĠØ³Ø§Ú»": 2191,
      "ĠØ³Ø²": 2192,
      "ĠØ³ÙĨÚ¯": 2193,
      "ĠØ³Ø¦ÙĬÙĨ": 2194,
      "ĠØ³ÙĬØ´ÙĨ": 2195,
      "ĠÙħÙĦÙĪ": 2196,
      "ÙħØ²": 2197,
      "ÙħØ¨Ø±": 2198,
      "ÙħÙºØ§": 2199,
      "ÙħØ´ÙĪ": 2200,
      "ÛģÙħ": 2201,
      "Ø³Ø§Ø³": 2202,
      "Ø¯Ûģ": 2203,
      "Ø¯Ø§Ø±ÙĬ": 2204,
      "Ø¯ÙĨÙĬØ§": 2205,
      "ÙĩÙĬØ¡": 2206,
      "ÚªÙĬÙĪ": 2207,
      "ÚªÙĨÚ¾ÙĨ": 2208,
      "ÚªØ§Ø±ÙĬ": 2209,
      "ÚªÙ¿ÙĬ": 2210,
      "ĠØ¢Ø¦ÙĬÙĨ": 2211,
      "ĠÙ¾Ú»": 2212,
      "ĠÙ¾ÙĦØ§": 2213,
      "ĠÙ¾Ø§Ú©": 2214,
      "ĠØªÚ¾ÛĮ": 2215,
      "Ø§Ø¦Ù¾Ø±": 2216,
      "ĠØ§Ùº": 2217,
      "ĠÙĪØ§Ø¦ÙĬ": 2218,
      "ĠÙĪÙĨÚĬ": 2219,
      "Ú»ÙĬÙĨ": 2220,
      "Ø¬Ø¨": 2221,
      "ĠÚ©ÙĦÙĪ": 2222,
      "ĠÚ©Ø§Ø¦Ú»": 2223,
      "ĠÚ©Ø§Ø¦ÙĬÙĨØ¯ÙĪ": 2224,
      "ĠÚ©Ø¬ÙĬÙĨ": 2225,
      "ĠØ¨Øµ": 2226,
      "ĠØ¨ÙĨØ¯ÙĪ": 2227,
      "ĠÙĨØ³": 2228,
      "ĠÙĨØ§Ø±": 2229,
      "ĠÙĨÚĢ": 2230,
      "ĠÚ¾ÙĬØ³": 2231,
      "ĠÚ¾Ú»ÙĬ": 2232,
      "Ø¦Ùħ": 2233,
      "Ú¾ÙĨØ¯ÙĬ": 2234,
      "ĠÙĦØ§Ø¦ÙĬÙĨ": 2235,
      "ĠÙĦÚ¯": 2236,
      "Ø±ÙĬØª": 2237,
      "Ø±ÙĬØ´ÙĨ": 2238,
      "Ø§ÙĦØ¯": 2239,
      "ĠØ§Ø²": 2240,
      "ÙģÙ½": 2241,
      "ÙģÙĬØ³": 2242,
      "Ù¾ÚĻ": 2243,
      "Ù¾ÙĬØ§Ø±ÙĪ": 2244,
      "ĠØ±ÙĨÚ¯": 2245,
      "ĠØ±Ù¾ÙĦØ§Ø¦ÙĬ": 2246,
      "ĠØ§ÙĨØ¬": 2247,
      "ĠÚĨØ§Ú¾": 2248,
      "ĠÚĨÙĨØ¯": 2249,
      "ÙĬØº": 2250,
      "ÙİØĮ": 2251,
      "ĠÚıØ§Ú¾ÙĬ": 2252,
      "ĠÚ¯ÙĪÙĨ": 2253,
      "ĠÚ¯ÙĨØ¯": 2254,
      "Ø¹ÙĦÙĬ": 2255,
      "ĠØ®Ø§ÙĨØ¯": 2256,
      "ĠØ®Ø§ÙħÙĪ": 2257,
      "ĠØ¯Ø±ÙĬ": 2258,
      "ĠØ¯ÙĦÙĬ": 2259,
      "ĠØ¯ÙĬØ¯": 2260,
      "ĠØ´Ùħ": 2261,
      "ĠØ´Ø¦ÙĬ": 2262,
      "ĠØ§Ø³Ù½ÙĬ": 2263,
      "ÙĬØ±ÙĨ": 2264,
      "ĠÙĤØ§ÙĨ": 2265,
      "ĠÙĤØ¨Ø±": 2266,
      "ĠÙĤØªÙĦ": 2267,
      "ĠÙĤØ±Ø§Ø±": 2268,
      "ĠÚĢÙĦ": 2269,
      "ĠÚĢÙĪÙĨ": 2270,
      "ĠÚĢØ§Ø¦ÙĪ": 2271,
      "ĠÚĢÙĬØ±Ø§": 2272,
      "Ø§Ø¯Ø±": 2273,
      "ĠØ¹ÙĤÙĦ": 2274,
      "ĠØ¹ÙĪØ±ØªÙĨ": 2275,
      "ĠÙģÙĪÙĨ": 2276,
      "ĠÙģØµ": 2277,
      "ĠÙģÙĬØ³": 2278,
      "ĠÙģØ®Ø±": 2279,
      "ĠØ³ÙĨÚĮÙĪ": 2280,
      "ĠÚªØ±Ù¾": 2281,
      "ĠÚªØ±ÙĬÙĪÙĨ": 2282,
      "ÚĢÙĦÙĪ": 2283,
      "ÚĢØ§Ø¦ÙĪ": 2284,
      "ØµØ§Ùģ": 2285,
      "ØµÙĪØ±Øª": 2286,
      "ØµØ¯ÙĤÙĪ": 2287,
      "ĠØŃÙħØ§": 2288,
      "Ø±ÙĪØ±ÙĬ": 2289,
      "ĠÚªÙħÙĬ": 2290,
      "Ø®Ø¯Ø§": 2291,
      "ÚĩÙĪØ±Ø§": 2292,
      "ÙĬØ¯ÙĬ": 2293,
      "ĠÚªÙĬÚıÙĪ": 2294,
      "ĠÙ¿ÙĬÙĨØ¯ÙĬÙĪÙĨ": 2295,
      "ĠØ§ÙĬÚĩ": 2296,
      "ĠØ³ÙħØ¬ÙĩÛģ": 2297,
      "ĠÚ¯ÙĩÚ»ÙĬ": 2298,
      "ĠÙĪÚĥØ§Ø¦ÙĬ": 2299,
      "ĠÙºØ§Ú¾": 2300,
      "ĠÙħÙĦÙĬØ§": 2301,
      "ĠÚıÙĬØ§ÙĨ": 2302,
      "ĠÙ»ÚĮØ§Ø¦ÙĬ": 2303,
      "ĠÚĮÙĨ": 2304,
      "ĠÚĮÙĬØ§ÙĨ": 2305,
      "ĠÙĨØ§ÙĩÙĨ": 2306,
      "ĠÚ³Ø§ÙĦÚ¾Ø§Ø¦ÙĬ": 2307,
      "Ø§ØŃØª": 2308,
      "ĠØ§Ú³Ùº": 2309,
      "ĠØ³ÙĬØ¨": 2310,
      "ĠÚ©ÙĪÚĻ": 2311,
      "ĠÚ©ÙĪÙĦÙĬ": 2312,
      "ĠÚ©ÙĪØ¦ÛĮ": 2313,
      "ĠØ¯ÙĪØ³ØªÙĬ": 2314,
      "ĠÙħØ³ØªÙĬ": 2315,
      "Ù»Ø¦ÙĬ": 2316,
      "ĠØ°Ø§ØªÙĬ": 2317,
      "ĠÙ¾ÚĻÚ¾Ú»": 2318,
      "ØªØ±Ø§Ùħ": 2319,
      "ĠÚĦÙħ": 2320,
      "ĠÚĦØ§Ø¦ÙĬ": 2321,
      "ĠÙĨÙĪØ§Ø²": 2322,
      "ĠÙĪØ§Ù¾Ø³": 2323,
      "ĠÚ©Ø±ÛĴ": 2324,
      "ĠÙħØ§ÙĬÙĨ": 2325,
      "ĠØ§ÙĬÙĨØ¯Ø§": 2326,
      "ĠÚ¾ÙĦØ§Ø¦ÙĬ": 2327,
      "ĠÚ¾ÙĦÙĨØ¯Ø§": 2328,
      "ĠÚªÙĦØ§Ø³": 2329,
      "ĠÙģÙĦÙħ": 2330,
      "ĠÚıÙĬÙĨØ¯ÙĬÙĨ": 2331,
      "ĠØ³Ø¨ØŃ": 2332,
      "ĠÙĨØ¸Ø±ÙĬ": 2333,
      "ĠÙĨØ¸Ø§Ùħ": 2334,
      "ĠÙħØ³Ø¦ÙĦÙĬ": 2335,
      "ĠÙĨÙĬØ§Ú»ÙĬ": 2336,
      "ĠØ³Ú¾Ú»ÙĪ": 2337,
      "ĠÙħÙ¿ÙĪ": 2338,
      "ĠØ§Ú©Ø±": 2339,
      "ĠÚªØ§Ø±ÚĬ": 2340,
      "ĠÙ¾ÙĨØ¬": 2341,
      "ÙħØªÙģÙĤ": 2342,
      "ĠØ§ÙĨØªØ¸": 2343,
      "ĠÙħØªØŃ": 2344,
      "ĠÙ¾Ø§Ø±Ù½ÙĬ": 2345,
      "ĠÙ¾Ú¾Ø±ÙĬÙĨ": 2346,
      "ÚĳÛĮ": 2347,
      "Ø¹ÙĪØª": 2348,
      "ĠÙĩÙĪÙĨØ¯Ø§": 2349,
      "ĠÙĩÙĪÙĨØ¯ÙĬ": 2350,
      "ĠÙĪØ±ØªÙĪ": 2351,
      "ĠØ§ØŃØ³Ø§Ø³": 2352,
      "ĠØ§ØŃØªØ±Ø§Ùħ": 2353,
      "Ú¯ÙĪÚ¯ÙĦ": 2354,
      "ĠØ³ÙħØ¬ÙĩÚ»": 2355,
      "ĠÙ¾Ú¾ÚĨÙĬ": 2356,
      "ĠØ´Ø§Ú¯Ø±": 2357,
      "ĠØ¬ÙĩØ±": 2358,
      "ĠÚĮØ±Ú»ÙĬ": 2359,
      "ĠØ§ÙħÙĬØ±": 2360,
      "ĠØ§ÙħÙĬØ¯": 2361,
      "ĠØ±ÙĩÙĬÙĪ": 2362,
      "ĠÙħØ§Ú»ÙĩÙĪØ¡": 2363,
      "ĠØ¸Ø§ÙĦÙħ": 2364,
      "ĠÙĨÚªØªÙĦ": 2365,
      "ĠÚ¾Ú»Ú»": 2366,
      "ĠÙħÙĬÙĨÙĩÙĨ": 2367,
      "Ø¬ÙĬÚªÚıÚ¾ÙĨ": 2368,
      "ĠØ²ÙĨØ¯Ú¯": 2369,
      "ĠÙħØ§ÙĦÚª": 2370,
      "ĠÚ¯Ø°Ø±": 2371,
      "ĠÚ¯Ø°Ø§Ø±": 2372,
      "ĠÚ³Ø§ÙĦÙĩÙĬÙĪÙĨ": 2373,
      "ĠÙħÚĻØ³": 2374,
      "ĠÛ±": 2375,
      "ĠÚĢÙ½Ø§Ø¦ÙĬØ¡": 2376,
      "ĠÙĪØ§ÙĦÛĴ": 2377,
      "ĠÙ¾Ø³ÙĨØ¯": 2378,
      "ĠØ´Ø¹ÙĪØ±": 2379,
      "ĠØ³Ú¯Ú¾Ø¬ÙĬ": 2380,
      "ĠÙģØ§Ø±Ùħ": 2381,
      "ĠÚıØ§ÚįÙĪ": 2382,
      "ĠØªÙĤØ±ÙĬ": 2383,
      "ĠØ¨Ø®Ø´": 2384,
      "Ù½ÙĪØ¦ÙĬÙ½Ø±": 2385,
      "ĠØ§Ø®ÙĦØ§ÙĤ": 2386,
      "Ø§ÚĥØ§": 2387,
      "ĠØ±Ø§Ø¬Ø§": 2388,
      "ĠØ°Ø±ÙĬØ¹ÙĬ": 2389,
      "ĠÙħØ¸ÙĦÙĪÙħ": 2390,
      "ĠÚ¯Ø±ÙĪÙ¾": 2391,
      "ØµØŃÙĬØŃ": 2392,
      "ĠØŃÙĤÙĬÙĤØª": 2393,
      "ĠÙ¾Ø±ÙĪÙģÙĬØ´ÙĨÙĦ": 2394,
      "ĠÚªÚĨÚ¾Ø±ÙĬ": 2395,
      "ĠÚ¦Ø§Ù¿": 2396,
      "ĠÙĨÙĪØ¬ÙĪØ§ÙĨ": 2397,
      "ĠØ³Ø§ØªÚ¾": 2398,
      "ĠÚªÙĦØ§Úª": 2399,
      "ĠØªØ®ÙĦÙĬ": 2400,
      "ĠÙĤÙĦÙĨØ¯Ø±": 2401,
      "ĠØ·Ø±ÙĬÙĤÙĪ": 2402,
      "ĠØªØ¨Ø¯ÙĬÙĦ": 2403,
      "ĠÙĦØ§Ú³Ø§Ù¾ÙĬÙĦ": 2404,
      ".âĢľ": 2405,
      "04": 2406,
      "21": 2407,
      "35": 2408,
      "55": 2409,
      "Ø¤": 2410,
      "ØĽ": 2411,
      "Ù°": 2412,
      "Ø§ÚĨ": 2413,
      "Ø§Ú¯Ø±": 2414,
      "ÙĬÙĬ": 2415,
      "ÙĬØ¨Øª": 2416,
      "ÙĨØ±": 2417,
      "ÙĪØ§": 2418,
      "ÙĪÙ¹": 2419,
      "Ø±ÛĴ": 2420,
      "Ø±Ø§Øª": 2421,
      "Ú¾Ùħ": 2422,
      "ÙĦÙģ": 2423,
      "Ø§ÙĨÛģ": 2424,
      "Ø§ÙĨØª": 2425,
      "Ø§ÙĨØªÙĬ": 2426,
      "Ø§ÙĨÚ¾ÙĪÙĨ": 2427,
      "ĠØ¬Ø§Ø¦": 2428,
      "ĠØ¬ÙĩÙĬ": 2429,
      "ĠØ¬Ø¨Ø±Ø¯Ø³Øª": 2430,
      "ĠØ³Ø±ÙĬ": 2431,
      "ĠØ³ÚĮ": 2432,
      "ĠØ³Ø§Ø±ÙĪ": 2433,
      "ĠØ³Ø§ÚĻ": 2434,
      "ĠØ³ÚĮÙĪ": 2435,
      "ĠØ³ÚĮÙĬ": 2436,
      "ĠØ³ÙģØ±": 2437,
      "ĠØ³ÙĦØ³": 2438,
      "ĠØ³Ø§Ø²Ø´": 2439,
      "ĠÙħÚ»": 2440,
      "ĠÙħÙĬÙĪ": 2441,
      "ĠÙħÙĪØ±": 2442,
      "ĠÙħÙº": 2443,
      "ĠÙħØ±ÙĪ": 2444,
      "ĠÙħØ§Ú³": 2445,
      "ĠÙħØ¨Øª": 2446,
      "ĠÙħÙĪÙĦØ§": 2447,
      "ĠÙħØ¯Ø¯": 2448,
      "ÙħØ±ÙĬ": 2449,
      "ÙħÙĨÚ¾ÙĨØ¬ÙĪ": 2450,
      "Ø§Ú¾Ù¾": 2451,
      "ĠÚªØ§ÙĦ": 2452,
      "ĠÚªÙ¾": 2453,
      "ĠÚªÚıÙĩÙĨ": 2454,
      "ĠÚªØªÙĨ": 2455,
      "Ø³ÚĨ": 2456,
      "Ø³Ø§Ø¦ÙĬ": 2457,
      "Ø³Ø²": 2458,
      "Ø³Ú¾Ú»": 2459,
      "Ø³ÚªØ±": 2460,
      "Ø¯Ø³": 2461,
      "Ø¯Ø§ÙĦ": 2462,
      "ÙĩÙĬÙĨ": 2463,
      "ÙĩÙĩ": 2464,
      "ÙĩØ§Ø¦ÙĪ": 2465,
      "ÚªÙĬÙĨ": 2466,
      "ÚªÙĬØ±": 2467,
      "ÚªØ§Ùħ": 2468,
      "ÚªÚıÚ¾ÙĨ": 2469,
      "ÚªØ±ÙĬÙĨ": 2470,
      "ÚªÙħØ±": 2471,
      "ĠØ¢ÙĬØ§": 2472,
      "ĠØ¢Øµ": 2473,
      "ĠÙ¾Ø§Ø³": 2474,
      "ĠÙ¾ÚĦ": 2475,
      "ĠÙ¾Ø§Ø¦Ú»": 2476,
      "ĠÙ¾ÙĨÚ¾ÙĨØ¬Ø§": 2477,
      "ĠÙ¾ÙĦÙĬÙ½": 2478,
      "..âĢ¦": 2479,
      ".....": 2480,
      "ØªØ§ÙĦ": 2481,
      "ĠØªÙĨÚ¾ÙĨØ¬ÙĪ": 2482,
      "Ø§Ø¦Ø¬ÙĬ": 2483,
      "ĠØ§Ú»": 2484,
      "ĠØ§ÙĬØ±": 2485,
      "ĠÙĪØ²": 2486,
      "ĠÙĪØ§Ø³ÙĬÙĨ": 2487,
      "Ø¬ÙĪÙĨ": 2488,
      "ÙĬÙĪØ¦ÙĬ": 2489,
      "ĠÚ©ÙĬÙĨ": 2490,
      "ĠÚ©Ù½": 2491,
      "ĠÚ©ÙĨÚĬ": 2492,
      "Ø¨Ø¬": 2493,
      "Ø¨ÙĬØ±": 2494,
      "Ø¨Ú¾ÛĮ": 2495,
      "ĠØ¨ÛĮ": 2496,
      "ĠØ¨Ú©": 2497,
      "ĠØ¨Ø§Ø³": 2498,
      "ĠØ¨Ø§ÙĤ": 2499,
      "ĠØ¨ÙĨÚ¯": 2500,
      "ĠØ¨ØºÙĬØ±": 2501,
      "ĠØ¨Ø§Øº": 2502,
      "ĠÙĨØª": 2503,
      "ĠÙĨØ¨": 2504,
      "ĠÙĨØ´": 2505,
      "ĠÙĨØªÙĬ": 2506,
      "ĠÙĨÙĬØª": 2507,
      "ĠÙĨÙĨÚĬ": 2508,
      "Ø§Ø±ÙĬØ¡": 2509,
      "ĠØ¬ÙĬØªØ±ÙĪ": 2510,
      "ĠÚ¾ÛĴ": 2511,
      "ĠÚ¾ÙĨÚĮ": 2512,
      "ĠÚ¾ÙĬØ´": 2513,
      "ĠÚ¾ÙĦØ§ÙĬÙĪ": 2514,
      "Ú¾ÙĨØ¯ÙĪ": 2515,
      "ÛĮØ²": 2516,
      "ĠÙ¿ÙĪØ±": 2517,
      "ĠÙĦØ¦": 2518,
      "ĠÙĦÚ¾ÙĨ": 2519,
      "ĠÙĦÙº": 2520,
      "ĠÙĦÚ¾Ú»": 2521,
      "Ø±ÙĬÙĦ": 2522,
      "Ø±ÙĬØ³": 2523,
      "Ø±ÙĬØ¨": 2524,
      "ÚĻÙĬÙĨ": 2525,
      "ÚĻÙĬØ¡": 2526,
      "Ú¾ÙĬØ§": 2527,
      "Ú¾ÙĬÙĦ": 2528,
      "Ú¾ÙĬØ¯": 2529,
      "ÙĪÙĨØ§": 2530,
      "Ú©Ø§ÙĨ": 2531,
      "Ú©ÛĮ": 2532,
      "Ú©ÛĴ": 2533,
      "ÙģÙĦ": 2534,
      "ÙģÛĮ": 2535,
      "ÙģØ§ÙĤ": 2536,
      "ÙģÙĬØª": 2537,
      "ÙģØ±ÙĨ": 2538,
      "Ù¾Ø±ÙĪ": 2539,
      "Ù¾Ú¾Ø±": 2540,
      "ÙĤØ¨ÙĦ": 2541,
      "ÙĤØ§ÙģØª": 2542,
      "ÚıÙĨ": 2543,
      "ÚıØ³ÙĪ": 2544,
      "ĠØ±Ø¯": 2545,
      "ĠØ±ÛĮ": 2546,
      "ĠØ±ÙĪÙĦ": 2547,
      "ĠØ±Ø§Ú»ÙĬ": 2548,
      "ĠØ±Ø³Øª": 2549,
      "ĠØ±Ø§ÚĦ": 2550,
      "Ø§Ú»ÙĬÙĪÙĨ": 2551,
      "ĠØ§ÙĨÚ¯": 2552,
      "ĠØ§ÙĨØµØ§Ùģ": 2553,
      "Ú¯Ú¾": 2554,
      "Ú¯ÙĩÙĬ": 2555,
      "ĠÚĨÙħ": 2556,
      "ĠÚĨÙ½": 2557,
      "ĠÚĨØ±ÙĬØ§": 2558,
      "ĠÚıØ§Ú¾ÙĪ": 2559,
      "ĠÚıÙºÙĬ": 2560,
      "ĠÚıØ§Ú¾Ù¾": 2561,
      "ĠÚ¯ÛĮ": 2562,
      "ĠÚ¯ÛĮØ§": 2563,
      "ĠÙ»Ø§ÙĨÚ¾ÙĪÙĨ": 2564,
      "Ø¹Ø§Ùħ": 2565,
      "ĠØ®Ø´": 2566,
      "ĠØ®Ø·": 2567,
      "ĠØ®Ø§ÙĦØ¯": 2568,
      "ØŁâĢľ": 2569,
      "ĠØ¯ÙĬ": 2570,
      "ĠØ¯ÛĮ": 2571,
      "ĠØ¯ÛĴ": 2572,
      "ĠØ¯ÙĬØ±": 2573,
      "ĠØ¯ÙĬÙħ": 2574,
      "ĠØ¯Ø§Ø®": 2575,
      "Ú³Ø§ÙĦ": 2576,
      "ĠØ´ÙĨ": 2577,
      "ĠØ´Ø§Ø¯": 2578,
      "ĠØªÙĬÙĦ": 2579,
      "ĠØ§ÙĪÚªÙĬ": 2580,
      "Ø§Ø¨Øª": 2581,
      "Ø§Ø¨ÙĤ": 2582,
      "ĠÚĩÙĪÙĨÛģ": 2583,
      "ÙĲ..": 2584,
      "ĠØ§Ø³ÛĮ": 2585,
      "ÚĬÙĨ": 2586,
      "ÚĬÙĬÙ½": 2587,
      "ÚĬØ±ÙĨ": 2588,
      "Ø§ÙħØ±": 2589,
      "Ø²ÙĬ": 2590,
      "Ø²ÙĬÙĨ": 2591,
      "Ø²Ø§Ø±": 2592,
      "Ø²Ø²": 2593,
      "ĠÙĤØ·": 2594,
      "ĠÙĤØ§Ø¦Ùħ": 2595,
      "ĠÚĢÙ½ÙĬ": 2596,
      "ĠÚ³ÚĻ": 2597,
      "ĠÚ³ÙĨÚį": 2598,
      "ĠÚ³ÙĪÙĦØ§": 2599,
      "Ø§Ø¯Øª": 2600,
      "ĠÙ¾Ø±ÙĬÙĨ": 2601,
      "ĠÙ¾Ø±Ø§Ú»ÙĬ": 2602,
      "ÙĩÙĨØ¬ÙĪ": 2603,
      "ĠØ¹Ø§ÙĦÙħ": 2604,
      "Ø§Ø³Ùħ": 2605,
      "Ø§Ø³Ù¾": 2606,
      "ĠØµØ¨ØŃ": 2607,
      "Ø§ØªÛĴ": 2608,
      "ÙıØĮ": 2609,
      "ĠÚªØ±Ø§Ø¦Ú»": 2610,
      "ĠÚªØ±Ø¯Ø§Ø±": 2611,
      "ÚĢÙĪ": 2612,
      "ÚĢÙ½": 2613,
      "ĠÚ©Ø§ÙĨÙ¾ÙĪØ¡": 2614,
      "ØµØ¯": 2615,
      "ĠÚ³Ø§ÙĦÚ¾Ø§ÙĬÙĪ": 2616,
      "ÙĦÙĪØ³ÙĬ": 2617,
      "ĠØŃØ±": 2618,
      "ĠØŃÚ©": 2619,
      "ĠØŃÚªÙħ": 2620,
      "ĠØŃÚªÙħØ±": 2621,
      "ĠÙ¾ÙĪÚĻ": 2622,
      "Ø·Ûģ": 2623,
      "Ø¸ÙĦÙħ": 2624,
      "ÚªÙĪÚĻÙĪ": 2625,
      "ĠÙĪÚıÙĨ": 2626,
      "ĠÙĪÚıÙĬØ±ÙĪ": 2627,
      "Ø§ÙĪÚ¾": 2628,
      "ĠÚªÙħØ²ÙĪØ±": 2629,
      "ÙĬØ¯Ø±Ø¢": 2630,
      "ĠÚªÙĬØªØ±Ø§": 2631,
      "ĠÚªÙĬØ¨ÙĪØ±": 2632,
      "ĠÙħØ§Ú»ÙĩÙĪÙĨ": 2633,
      "Ġ10": 2634,
      "ĠÚĬÙĪÙĦ": 2635,
      "ĠÙ¿ÙĬÙĨØ¯Ø³": 2636,
      "ĠÙ¿ÙĬÙĨØ¯ÚĻ": 2637,
      "ĠØ§ÙĬÙħØ§ÙĨ": 2638,
      "ĠØ§ÙĬÚıÙĬ": 2639,
      "ĠØ³Ø±Ú¾ÙĬ": 2640,
      "Ø§Ø²ÙĪ": 2641,
      "ĠØ²ÙħØ§ÙĨ": 2642,
      "ĠØ²ÙħÙĬÙĨ": 2643,
      "ĠÙħÙĪØ¨": 2644,
      "ÚįÙĬ": 2645,
      "ĠÙĦÚ³ÙĨ": 2646,
      "ĠÙħØ¹Ø°": 2647,
      "ĠÙħØ¹ØµÙĪ": 2648,
      "ĠÙħØ¹Ø§Ø´": 2649,
      "ĠÙħØ¹Ø±ÙģØª": 2650,
      "ĠÙ½ÙĪÙĬÙ½": 2651,
      "ĠÙ¾ÙĬÙ½": 2652,
      "Ø§ÙģØ±": 2653,
      "Ø§ÙģÙĬÙĨ": 2654,
      "ÙĨÙĬØ§Ú»ÙĬ": 2655,
      "ĠÙħÙĦÙĨØ¯Ø§": 2656,
      "ĠØ³Ú¯ÙĩÙĪ": 2657,
      "Ø¶ÙĬ": 2658,
      "Ø¶Ø±ÙĪØ±": 2659,
      "ĠÙĪÙĬÚ¾ÙĬ": 2660,
      "ĠÙĪÙĬÚĨ": 2661,
      "ĠÙĪÙĬÙºÙĪ": 2662,
      "ĠÚ³Ø§ÙĦÚ¾Ø§Ø¦Ú»": 2663,
      "âĢľ.": 2664,
      "Ø¨ÙĪØ·": 2665,
      "ĠØ§Ú³ÙĬ": 2666,
      "ĠÚĩÚıÙĬØ§": 2667,
      "ĠØ³ÙĬÙĦ": 2668,
      "ĠÙħÙĨÙ¿": 2669,
      "ĠÙħÙĨØ§Ùģ": 2670,
      "ĠÙħÙĨØ²ÙĦ": 2671,
      "ĠØªÙĪÚ¾Ø§ÙĨ": 2672,
      "ĠØªÙĪÙĩØ§ÙĨ": 2673,
      "ĠØªÙĪØ³Ø§ÙĨ": 2674,
      "ĠÙħØŃØ¨": 2675,
      "Ù»ÙĪ": 2676,
      "Ù»ÙĬÙĪ": 2677,
      "ÙĬÙĦØª": 2678,
      "ĠÚªÙĨØ¯ÚĻ": 2679,
      "ØªØ±Ùħ": 2680,
      "ĠÙĦÙĪÚª": 2681,
      "ĠÙĦÙĪØ³ÙĬ": 2682,
      "ĠØ§ÚĦÚ»": 2683,
      "ĠÙĪÙºÙĪ": 2684,
      "ĠÙĪÙºÚ»": 2685,
      "ĠØ¨ÙĬÚ¾ÙĬ": 2686,
      "ĠØ®ÙĪØ§Ø¨": 2687,
      "ĠÚ¦ÙĪ": 2688,
      "ĠÚ¦Ø±": 2689,
      "Ø¢ÙħÙĬÙĨ": 2690,
      "ĠØ¶Ø±ÙĪØ±ÙĬ": 2691,
      "ĠØ³Ú©ÙĬÙĪ": 2692,
      "ĠÛģÙĪØ§": 2693,
      "ĠÛģÙĪÚ¯": 2694,
      "ĠÙħØ§ÚªÙĪÚĻÙĬ": 2695,
      "ĠÚıÙĬÙĨÙĩÙĨ": 2696,
      "ÙĨÚĬÙĪ": 2697,
      "Ø±ØªÙĬØ¡": 2698,
      "ĠØ§ÚĨØ§ÙĨ": 2699,
      "ĠÚ¾ÙĦÙĬØ§": 2700,
      "ÙħÙĦÚª": 2701,
      "ĠØ³ÚıÙĬÙĨ": 2702,
      "ĠØ³ÚıÙĬÙĪ": 2703,
      "ĠØ³Ø¨ÙĤ": 2704,
      "ĠØ®ÙĬØ±Ø§Øª": 2705,
      "ĠØ®ÙĬØ±Ù¾ÙĪØ±": 2706,
      "ĠÙ¾ÙĬØ§Ø±ÙĪ": 2707,
      "ĠÙħØ²Ø§ØŃ": 2708,
      "ĠÚªØ§Ø±ÙĬÙĨ": 2709,
      "ĠÙĨÙģØ±Øª": 2710,
      "ĠØ§ÙĨØªÚ¾Ø§Ø¦ÙĬ": 2711,
      "ĠÙħØªØ§Ø": 2712,
      "ĠÙħØªØ§ÙĨ": 2713,
      "ĠÚªØªØ§Ø¨ÙĨ": 2714,
      "ĠØ³ÙĨØ³ÚªØ±": 2715,
      "ĠØ§ÚªØ³": 2716,
      "ĠÙĨØ§Ú¾ÙĬÙĪÙĨ": 2717,
      "ĠÚ¾Ù¿ÙĨ": 2718,
      "ĠÙħØ·Ø§ÙĦ": 2719,
      "ĠÙħØ·Ø§Ø¨ÙĤ": 2720,
      "ĠÚªÙĪÙĨÙĩ": 2721,
      "ĠÙ¾Ú¾ÚĨ": 2722,
      "ĠØ§Ù¾ÙĨÛĮ": 2723,
      "ĠÙħØ´ÙĬÙĨ": 2724,
      "ÙħÙĪÙĨÚ©ÙĬ": 2725,
      "ĠÚªÚįÚ»": 2726,
      "ĠÚĮØ±ØªÙĬ": 2727,
      "ĠØ§ÙħÚĻ": 2728,
      "ĠØ±Ø³Ø§ÙĦÙĬ": 2729,
      "ĠØ³Ú¯ÙĩØ¬ÙĬ": 2730,
      "ĠÙĨÙģØ³ÙĬØ§Øª": 2731,
      "ĠØ³Ø§ÙħÙĩÙĪÙĨ": 2732,
      "ĠØ§Ø¹ÙĦØ§ÙĨ": 2733,
      "ĠÙ»ÙĨÚ¾ÙĬ": 2734,
      "ĠÚ³ÙĪÙºÙĨ": 2735,
      "ĠØ«ÙĨØ§": 2736,
      "ÙħØ¹ÙĨÙĬ": 2737,
      "Ù¾ÙĦØ²": 2738,
      "ĠØ¬ÙĦØ¯": 2739,
      "ĠØ¬ÙĦØ¯ÙĬ": 2740,
      "ĠØ³Ø§Ø¦ÙĨÚ»": 2741,
      "ĠÙ¾ÙĪÙĨØ¯ÙĪ": 2742,
      "ĠÙ¾ÙĪÙĨØ¯ÙĬ": 2743,
      "ĠØªØ¹ÙĦÙĤ": 2744,
      "ĠØ´Ø§Ø¹Ø±": 2745,
      "ĠØ´Ø§Ø¹Ø±ÙĬØ¡": 2746,
      "ĠÚªØ§ÙħÙĬ": 2747,
      "Ø¬ÙĬÚªÚıÙĩÙĨ": 2748,
      "ĠØ¹ÙĦØ§Ø¦ÙĤ": 2749,
      "ĠÙħÙĪÙĤØ¹ÙĪ": 2750,
      "ĠØ¢ÙģÙĬØ³": 2751,
      "ĠÚĨØ¦Ø¬ÙĬ": 2752,
      "ĠÚ³Ø§ÙĦÙĩØ§Ø¦ÙĬ": 2753,
      "Ú±Ú»": 2754,
      "Ø¨ØŃØ±ÙĬØ§": 2755,
      "ĠØ¨Ú¾ØªØ±ÙĬÙĨ": 2756,
      "ĠØ±ÛģØ§": 2757,
      "ĠØ±Ú¾ÙĨØ¯ÙĪ": 2758,
      "ĠÚĨÙĬÚĨ": 2759,
      "ĠÙħØ°Ø§ÙĤ": 2760,
      "ĠØ¨ÙĬÙħØ§Ø±": 2761,
      "Ø³Ø³Ø³Ø³": 2762,
      "ĠØ¬Ú³Ú¾": 2763,
      "ĠØ´Ø¹Ø±": 2764,
      "ĠØ§Ø³ÚªØ±ÙĬÙĨ": 2765,
      "ĠÙħØ¨Ø§Ø±Úª": 2766,
      "ĠØ§ÙĩÙħ": 2767,
      "ĠØ¨ÙĦØ§Úª": 2768,
      "ĠÚĨØ±ÙĬÙĪ": 2769,
      "ĠÙħØ³ØªÙĤØ¨ÙĦ": 2770,
      "ĠÚ¾Ø¬Ú»": 2771,
      "ĠÙĦØºØª": 2772,
      "ĠØ´ÙĪÙĤ": 2773,
      "Ù½ÙĪØ¦ÙĬÙ½": 2774,
      "ĠØ§ÚªÙĬÙĦÙĪ": 2775,
      "ĠÙĦÛĮÛĴ": 2776,
      "ĠØ³Ø§Ø±ÙĨÚ¯": 2777,
      "ĠÙħÚªÙħÙĦ": 2778,
      "ĠÙħØµÙĬØ¨Øª": 2779,
      "ĠØ¨ÙĦÙĪÚĨ": 2780,
      "ĠØ¨Ú»ÙĬØ§Ø¯": 2781,
      "ĠÚ¾Ø§Ú¾Ø§Ú¾Ø§Ú¾Ø§Ú¾Ø§Ú¾Ø§Ú¾Ø§": 2782,
      "ĠÚ¾Ø²Ø§Ø±ÙĬÙĨ": 2783,
      "ĠØ¬Ø°Ø¨Ø§Øª": 2784,
      "ĠÚıÙĨÙĦ": 2785,
      "ĠÚ¯ÙĨØ§Ú¾": 2786,
      "ĠØ¯Ø§ÙĨØ´": 2787,
      "ĠØ®ÙĪØ¨ØµÙĪØ±Øª": 2788,
      "ĠØ¬ÛĮØ³ÛĴ": 2789,
      "ĠØ¨Ø§Ø¯Ø´Ø§Ú¾": 2790,
      "ĠÚ¯Ø±ÙģØªØ§Ø±": 2791,
      "ĠÙģØ¶ÙĬÙĦØª": 2792,
      "Ø±ÙĪÚĢØ±ÙĪ": 2793,
      "ĠÙħØ¹Ø§ÙħÙĦÙĬ": 2794,
      "ĠÙħØ¬ÙħÙĪØ¹ÙĬ": 2795,
      "ĠÙ»Ø±ÙĪÚĨØ§Ú»ÙĬ": 2796,
      "ĠÙ½ÙĬÚªÙĨØ§ÙĦØ§Ø¬ÙĬ": 2797,
      "ĠÙ¾ÙĦØ§Ù½": 2798,
      "ĠØ¨ØµØ±": 2799,
      "ĠÚ¯ÙĪÙĨÚ¯ÙĪ": 2800,
      "ĠØ®Ø§ÙĨØ¯Ø§ÙĨ": 2801,
      "ĠØ®Ø§ÙħÙĪØ´": 2802,
      "ĠØ§Ø³Ù½ÙĬØ¬": 2803,
      "ĠØ³Ø¨ØŃØ§ÙĨ": 2804,
      "ĠÙħØ¨ØªÙĦØ§": 2805,
      "Ø³Ú¾Ú»Ø§": 2806,
      "ĠØ¢ØµÙģ": 2807,
      "ÙģØ±ÙĨØ³": 2808,
      "ĠØ¯ÙĬÙħØ§Úª": 2809,
      "ÙĬØ¯Ø±Ø¢Ø¨Ø§Ø¯": 2810,
      "ĠÚªÙĬØ¨ÙĪØ±ÚĬ": 2811,
      "ĠØ³ÙĨØ³ÚªØ±Øª": 2812,
      "09": 2813,
      "10": 2814,
      "15": 2815,
      "33": 2816,
      "44": 2817,
      "53": 2818,
      "er": 2819,
      "ir": 2820,
      "sir": 2821,
      "«ÙĬØª": 2822,
      "Ġ5": 2823,
      "Ġ7": 2824,
      "ĠØ§Ø¦": 2825,
      "Ø§ÙĬØ§": 2826,
      "Ø§ÙĩØ§": 2827,
      "Ø§ÚĻÙĪ": 2828,
      "Ø§ÙĬØ²ÙĬ": 2829,
      "ÙĬØ§Ø¦ÙĬÙĨ": 2830,
      "ÙĬØ¬ÙĪ": 2831,
      "ĠØ¡": 2832,
      "ÙĨÙģ": 2833,
      "ÙĨÙĤ": 2834,
      "ÙĨÙĪØ±": 2835,
      "ÙĨØ¹": 2836,
      "ÙĨÚĢ": 2837,
      "ÙĨØ§ÙĦÙĪ": 2838,
      "ÙĪÛĮ": 2839,
      "ÙĪÚĥ": 2840,
      "ÙĪÙĬØ¯": 2841,
      "Ø±ØŃÙħ": 2842,
      "Ú¾ÚĻÙĪ": 2843,
      "Ú¾Úĳ": 2844,
      "ÙĦÛĮ": 2845,
      "ÙĦÚ³ÙĬ": 2846,
      "Ø§ÙĨÛĴ": 2847,
      "Ø§ÙĨÙĬØ¡": 2848,
      "Ø§ÙĨØ¡": 2849,
      "Ø§ÙĨÚĮÙĬ": 2850,
      "ĠØ¬Ø¬": 2851,
      "ĠØ¬Ø§Ø±ÙĬ": 2852,
      "ĠØ³ÙĪÙĨ": 2853,
      "ĠØ³ÙĦÙĬ": 2854,
      "ĠØ³ÚĻÙĬ": 2855,
      "ĠØ³ÚıÙĬ": 2856,
      "ĠØ³Ø§Ú©": 2857,
      "ĠØ³ÙºÙĬ": 2858,
      "ĠØ³Ø§ÚĦÙĬ": 2859,
      "ĠÙħÙģ": 2860,
      "ĠÙħÙĨØ¯": 2861,
      "ĠÙħÚĩ": 2862,
      "ĠÙħØ§ØŃ": 2863,
      "ĠÙħÙĬÙĦ": 2864,
      "ĠÙħØº": 2865,
      "ĠÙħÙºÙĬ": 2866,
      "ÙħØ§Ú¾": 2867,
      "ÙħÚ»": 2868,
      "ÙħÙĬÙĪ": 2869,
      "ÙħÚĻ": 2870,
      "ÙħÙĬØ±": 2871,
      "ÙħØ±ÙĪ": 2872,
      "ÙħØ¶": 2873,
      "ÙħØ°": 2874,
      "ÙħÚªÙĨ": 2875,
      "ÙħØ§ØªØ§": 2876,
      "Ø§Ú¾ÙĬÙĨ": 2877,
      "ÙĬÙĨÚ¾ÙĨ": 2878,
      "ÛģÛĮÚº": 2879,
      "ĠÚªØª": 2880,
      "ĠÚªØ¦": 2881,
      "ĠÚªÚĨ": 2882,
      "ĠÚªÙĦÙĬ": 2883,
      "ĠÚªÙĬØ³": 2884,
      "ĠÚªÚĩ": 2885,
      "ĠÚªØªÙĪ": 2886,
      "ĠÚªØªØ§": 2887,
      "ĠÚªØ§ÙĦÙĩÛģ": 2888,
      "ĠÚªÚªÚĻ": 2889,
      "Ø³Ú¾": 2890,
      "Ø³ÛĮ": 2891,
      "Ø³ÙĪÙĨ": 2892,
      "Ø³Ù¾": 2893,
      "Ø³ÙĨØ¯": 2894,
      "Ø³ÙĤØ±Ø§Ø·": 2895,
      "Ø³Ø·ÙĪ": 2896,
      "ÙĩÚ»": 2897,
      "ÙĩØ§Ú»ÙĬ": 2898,
      "ÚªÛģ": 2899,
      "ÚªÙ½": 2900,
      "ÚªÙĬÙĪÙĨ": 2901,
      "ÚªØ§Ø¡": 2902,
      "ÚªÚĻÙĬ": 2903,
      "ÚªØ§ÙĪ": 2904,
      "ÚªÚıÙĩÙĨ": 2905,
      "ÚªÙĨØ¯Ø§": 2906,
      "ÚªØ´ÙĨ": 2907,
      "ÚªØ§ÙģÙĬ": 2908,
      "ÚªØ§ÙĦÙĩÛģ": 2909,
      "ĠØ¢Ø¬": 2910,
      "ĠØ¢Ú¯": 2911,
      "ĠØ¢Ø¦ÙĪÙĨ": 2912,
      "ĠØ¢ØªÛĴ": 2913,
      "ĠØ¢Ø¯Ùħ": 2914,
      "ĠÙ¾Ø§ÙĨ": 2915,
      "ĠÙ¾ÙĦÙĬ": 2916,
      "ĠÙ¾ÙĩØ§": 2917,
      "ĠÙ¾Ú©ÙĬ": 2918,
      "ĠÙ¾ÙħØ´ÙĪ": 2919,
      "ĠØªÚĻ": 2920,
      "ĠØªØ´": 2921,
      "ĠØªÚ¾Ø§": 2922,
      "Ø§Ø¦ÛĴ": 2923,
      "Ø§Ø¦ÛĮÚº": 2924,
      "Ø§Ø¦Ø¨ÙĪ": 2925,
      "ĠØ§Ú¯": 2926,
      "ĠØ§ÛĴ": 2927,
      "ĠØ§ÙĦÙĪ": 2928,
      "ĠØ§ÙĬØ´": 2929,
      "ĠØ§ÙĬÙĨÚĬ": 2930,
      "ĠØ§ÛĮØ³": 2931,
      "ĠØ§ÛĮÙħ": 2932,
      "ĠØ§ÙĬØ²ÙĬ": 2933,
      "ĠÙĪØ¬": 2934,
      "ĠÙĪÙĬÙĪÙĨ": 2935,
      "ĠÙĪØ§Ø³": 2936,
      "ĠÙĪÙĬØ³": 2937,
      "ĠÙĪÚĩ": 2938,
      "ĠÙĪØ¬ÙĩÙĬ": 2939,
      "Ø¬Ùħ": 2940,
      "Ø¬Ø¯": 2941,
      "ĠÚ©Ùħ": 2942,
      "ĠÚ©Ø§Ø¦ÙĬÙĨ": 2943,
      "ĠÚ©Ø§Ùħ": 2944,
      "ĠÚ©ÙĨÚ¯": 2945,
      "Ø¨ÙĬÙĪÙĨ": 2946,
      "Ø¨ÙĪÙĦ": 2947,
      "Ø¨Ø§ÙĤÙĬ": 2948,
      "ĠØ¨ÙĪ": 2949,
      "ĠØ¨Ø§Ø±": 2950,
      "ĠØ¨Ø±ÙĬ": 2951,
      "ĠØ¨Ø§ÙĦ": 2952,
      "ĠØ¨ÙĪÙĦ": 2953,
      "ĠØ¨ÙĬÚª": 2954,
      "ĠØ¨ÚĨÙĬ": 2955,
      "ĠØ¨ÙĬØª": 2956,
      "ĠÙĨØ¹": 2957,
      "ĠÙĨØ§Ø±ÙĬ": 2958,
      "ĠÙĨØ°": 2959,
      "ĠÙĨÙ¿ÙĬ": 2960,
      "ĠÙĨÚªØ±": 2961,
      "ĠÙĨÙħØ§": 2962,
      "ĠÙĨØ´ÙĪ": 2963,
      "ĠÙĨÚ©ÙĦ": 2964,
      "Ø§Ø±Ù½": 2965,
      "ĠÚ¾Ø§Ú»": 2966,
      "ĠÚ¾Ø§Ø¦ÙĪ": 2967,
      "ĠÚ¾ØªØ§ÙĨ": 2968,
      "Ù½Úª": 2969,
      "Ù½ÙĬÙĪÙĨ": 2970,
      "Ù½ÙĬÚª": 2971,
      "Ù½Ø§Ø¦ÙĬØ²": 2972,
      "ÛĮØ¹": 2973,
      "ØĮâĢ¦": 2974,
      "ĠÙ¿Úª": 2975,
      "ĠÙĦÚª": 2976,
      "ĠÙĦÛĴ": 2977,
      "ĠÙĦØ³ÙĬ": 2978,
      "ĠÙĦÚıÙĬ": 2979,
      "ĠÙĦØ³Ù½": 2980,
      "ĠÙĦØ§ÚĻ": 2981,
      "ĠÙĦÚĮÙĪ": 2982,
      "ĠÙĦØ§Ø¦ÙĤ": 2983,
      "ĠÙĦØ§Ø¦ÙĬÚª": 2984,
      "Ø±ÙĬØ§ÙĨ": 2985,
      "Ø±ÙĬÙ½": 2986,
      "Ú¾ÙĬØ¡": 2987,
      "Ø§ÙĦØ¨": 2988,
      "Ø§ÙĦÙħÙĬ": 2989,
      "Ú©Ûģ": 2990,
      "Ú©Ú»": 2991,
      "ÙģÙĨ": 2992,
      "Ù¾ÛĮ": 2993,
      "Ù¾ÙĨØ¬": 2994,
      "ÙĤÙħ": 2995,
      "ÙĤØ¨": 2996,
      "ĠØ±ÚĻ": 2997,
      "ĠØ±ÙĩÙĬ": 2998,
      "ĠØ±Ø§Ø¨": 2999,
      "ĠØ±Ø§Ø²": 3000,
      "ĠØ±ÙĬØª": 3001,
      "ĠØ±Ø§Ø´": 3002,
      "ĠØ±Ù¾ÙĪØ±": 3003,
      "ĠØ±Ø§ÙĨØ¯": 3004,
      "ĠØ±ÙħØ¶": 3005,
      "Ø§Ú»ÙĨ": 3006,
      "ĠØ§ÙĨØ¹Ø§Ùħ": 3007,
      "Ø¬ÙĬÙĦÙĪ": 3008,
      "Ø¬ÙĬÙ½Ø§Ø¦ÙĬØ²": 3009,
      "Ú¯Ø§Ø±": 3010,
      "Ú¯ÙĬØ¡": 3011,
      "Ú¯Ú¾Ø±": 3012,
      "ĠÚĨÚª": 3013,
      "ĠÚĨØ±ÙĬ": 3014,
      "ĠÚĨÙ¾": 3015,
      "ĠÚĨÚ¾ÙĪ": 3016,
      "ĠÚĨÚªØ±": 3017,
      "ĠÚĨØ¦ÙĬÙĨ": 3018,
      "ĠÚĨØ§Ú¾ÙĬÙĪ": 3019,
      "ĠÚĨÚ±": 3020,
      "ĠÚĨØ§ÚĨÙĪ": 3021,
      "ÙĬØ¸": 3022,
      "ÙĬØ«ÙĬØª": 3023,
      "Ùİ..": 3024,
      "Ùİ...": 3025,
      "ĠÚıÙĬØ§Ø±": 3026,
      "ĠÚıÙº": 3027,
      "ĠÚıÚ¾Ø§": 3028,
      "ĠÚ¯Ø§Ú¾": 3029,
      "ĠÚ¯ÛĴ": 3030,
      "ĠÚ¯Ø²": 3031,
      "ĠÚ¯ÙĦØ§": 3032,
      "ĠÚ¯Ú¾ÙĪ": 3033,
      "ĠÙ»ÚĨ": 3034,
      "ĠÙ»Ø§Ø¬": 3035,
      "ĠÙ»ÚªØ±ÙĬ": 3036,
      "ĠÙ»ÚĨØ§": 3037,
      "Ø¦ÙĬÙ½Ø±": 3038,
      "ÚĨØ§ÙĨ": 3039,
      "ÙĨØ¯ÙĬÙĪÙĨ": 3040,
      "ÙĨØ¯Ø¦ÙĪ": 3041,
      "ÙĪØ±ÙĬÙĪÙĨ": 3042,
      "Ø¹ÙĦ": 3043,
      "Ø¹ÙħØ±": 3044,
      "ĠÙĩÙĨØ¯ÙĪ": 3045,
      "ĠÙĩØ§Ø¦Ù¾Ø±": 3046,
      "ĠØ®Ø§ÙĦÙĬ": 3047,
      "ĠØ¯ÙĬÙĪ": 3048,
      "ĠØ¯Ùģ": 3049,
      "ĠØ¯Ø±Ø¯": 3050,
      "ĠØ¯Ø¹ÙĪØª": 3051,
      "ĠØ´Ú¾": 3052,
      "ĠØ´Úª": 3053,
      "ĠØ´Ø®": 3054,
      "ĠØ´Ú¾Ø±": 3055,
      "ĠØ´Ø±Ø§Ø¨": 3056,
      "ĠØ´Ú¾ÙĬØ¯": 3057,
      "Ø´Ø¯": 3058,
      "Ø´Ø§Ø¯ÙĬ": 3059,
      "ĠØ§ÙĪØ·": 3060,
      "ĠÚĩÙĪØ±ÙĪ": 3061,
      "ÙĲâĢ¦": 3062,
      "ĠØ§Ø³ÙĦØ§Ùħ": 3063,
      "ĠØ§Ø³Ø±Ø§Ø¦ÙĬ": 3064,
      "Ù¿Ø±": 3065,
      "Ù¿ÙĪØ±ÙĪ": 3066,
      "Ø§Ø¦ÙĬÙĦ": 3067,
      "ÚĬÙħ": 3068,
      "ØŃØ§Ø¶Ø±": 3069,
      "Ø²Ùħ": 3070,
      "Ø²Ø§Ùħ": 3071,
      "Ø²Ø§Ø¯": 3072,
      "Ø²ÙĪØ±ÙĬ": 3073,
      "ĠÚĢÙĪØ±": 3074,
      "ĠÚĢØ§Ø¦ÙĬ": 3075,
      "ĠÚĢØ§Ø¦Ø±": 3076,
      "ĠÚĢØ§ÚĦÙĬ": 3077,
      "ĠÚ³Ø§": 3078,
      "Ø§Ø¯Ø±ÙĬ": 3079,
      "ĠØ¹ÙĪ": 3080,
      "ĠØ¹ÙĤ": 3081,
      "ĠØ¹Ø±Ùģ": 3082,
      "ĠØ¹Ø·Ø§": 3083,
      "ĠØ¹Ø§Ø¯Øª": 3084,
      "ĠØ¹Ø§ÙĦÙħÙĬ": 3085,
      "Ø±Ø¨Øª": 3086,
      "ĠÙģÙĪ": 3087,
      "ĠÙģØ§Ø¦": 3088,
      "ĠÙģÚªØ±": 3089,
      "ĠÙģØ¹ÙĦ": 3090,
      "ÙĪÙĦÙĪ": 3091,
      "ÙĪÙĦØª": 3092,
      "ÙĪÙĦÙĬÙĪ": 3093,
      "ĠØ¬Ø§ÙĪÙĬØ¯": 3094,
      "ĠØµØ§Ùģ": 3095,
      "ĠØµÙĦØ§ØŃ": 3096,
      "Ùı.": 3097,
      "ĠÚªØ±Ùħ": 3098,
      "ÚĢÙĦÙĬ": 3099,
      "ÚĢÙĦØ§": 3100,
      "ÚĢÙĨÚ¯": 3101,
      "ÚĢÙĬØ§ÙĨ": 3102,
      "ĠØŃÙģ": 3103,
      "ĠØŃØ¶": 3104,
      "ĠØŃØ³ÙĨ": 3105,
      "ĠØŃÙĪØ§ÙĦ": 3106,
      "ĠØŃØ§ØªÙħ": 3107,
      "ĠØŃÙĬØ«ÙĬØª": 3108,
      "ĠÙ¾ÙĪÚ©": 3109,
      "ĠÛģÙĪÙĨ": 3110,
      "ĠÛģØ§Úº": 3111,
      "Ø¸Ø±": 3112,
      "ĠÙĦÚ©Ø¬ÙĬ": 3113,
      "ÙĩØ§ÙĬÙĪ": 3114,
      "ÙĬÚªÙ½": 3115,
      "Ø®ÙĬØ±": 3116,
      "ĠØ³ÙĪÙħØ±Ø§": 3117,
      "ĠÚªÙĪÚĻØ§": 3118,
      "ĠÚ¾ÚªÙ»Ø¦ÙĬ": 3119,
      "ĠÚªÙĬÚıÙĬ": 3120,
      "ĠÚªÙĬÚıØ§": 3121,
      "ĠÚªÙĬÙģÙĬØª": 3122,
      "Ġ16": 3123,
      "ĠÚĬØ§Ø¦": 3124,
      "ĠÚĬÙĦÙĬÙ½": 3125,
      "ĠÚĬÚ¯ÙĩÙĬ": 3126,
      "ĠÚĬØ¬ÙĬÙ½Ø§Ø¦ÙĬØ²": 3127,
      "Ø³ÙĬØ§Ø³Øª": 3128,
      "ĠØ§ÙĬÚıØ§": 3129,
      "ĠØ³Ø±Ø´": 3130,
      "ĠØ²Ø§ÙĦ": 3131,
      "ĠØ²Ø¨Ø§ÙĨ": 3132,
      "ĠÙħÙĪÙ½Ø±": 3133,
      "ĠÙħÙĪØ³Ùħ": 3134,
      "ĠÙħÙĪØ§ÙĦÙĬ": 3135,
      "ĠÙħÙĪÙĪÙĬ": 3136,
      "ĠÚĨÙĪØ±ÙĬ": 3137,
      "ĠØ§ÙĦØ³ÙĦØ§Ùħ": 3138,
      "ĠÙĦÚ³Ø§Ø¦ÙĬ": 3139,
      "ĠÙħØ¹ÙĨ": 3140,
      "ĠÙħØ¹Ø§ÙģÙĬ": 3141,
      "ĠÙħØ¹ÙĦÙĪÙħ": 3142,
      "ĠØ§Ù¿ÙĬ": 3143,
      "ĠØ§Ù¿Ø§Ø±": 3144,
      "ĠØ§Ù¿Ø§Ø¦ÙĬÙĨ": 3145,
      "ĠØ§Ù¿ÙĨØ¯ÙĬ": 3146,
      "Ù½ÙĬÙĦ": 3147,
      "Ù½ÙĬÙģ": 3148,
      "ĠÙ¾ÙĬÚĬÙĬØ§": 3149,
      "ĠØ³ÙħØ¬Ú¾Ú»": 3150,
      "ĠÚ¾ÙĬÙº": 3151,
      "ĠÚ¾ÙĬØ¦ÙĨ": 3152,
      "ÙĨÙĬØ¦Ø±": 3153,
      "ĠÙºÙĩÙĬÙĦ": 3154,
      "ĠÙºÚªØ§Ø¡": 3155,
      "ĠÙĪØ§Ø±ÙĬÙĪÙĨ": 3156,
      "ĠÙħÙĦÙĨØ¯ÙĬ": 3157,
      "ĠØ³ÚĢØ§Ú»ÙĬ": 3158,
      "Ø¶Ø§": 3159,
      "ĠÚıÙĬØ¦ÙĬ": 3160,
      "ĠØ¬ÙĨØª": 3161,
      "ĠÚĮÚª": 3162,
      "ĠÚĮØ±ØªÙĬØ¡": 3163,
      "ÙĬØ´Ûģ": 3164,
      "ĠØºØ¯Ø§Ø±": 3165,
      "ĠÙĪÙĬÙĦ": 3166,
      "ĠÙĪÙĬØ¨": 3167,
      "ĠÙĪÙĬØ±ÙĬÙģ": 3168,
      "ĠÙĪÙĬÙºÙĦ": 3169,
      "ĠÙĪÙĬÚ¾ÙĨØ¯ÙĬ": 3170,
      "ĠÚ³Ø§ÙĦÚ¾Ûģ": 3171,
      "ĠÚ³Ø§ÙĦÚ¾ÙĬÙĪÙĨ": 3172,
      "Ø¨ÙĪØª": 3173,
      "ĠØ§Ú³ÙĬÙĨ": 3174,
      "ĠÙħÚ¾ÙĬÙĨ": 3175,
      "ĠÚªØ±Ú»ÙĪ": 3176,
      "ĠÚĩÚıÙĬÙĨ": 3177,
      "Ù¹Ø±ÛĮ": 3178,
      "ĠØ³ÙĬÚ©": 3179,
      "ĠÙħØŃÙģÙĪ": 3180,
      "ĠÙħØŃÙħØ¯": 3181,
      "Ø¯Ø±Ø¯": 3182,
      "ĠØ§Ø¯ÙĬØ¨": 3183,
      "ĠØ±ÙĪØ²": 3184,
      "ĠØ±ÙĪÚªÙĬ": 3185,
      "ĠÙħØ³ÙĦØ³": 3186,
      "Ø³ÙĨÚĮÙĪ": 3187,
      "ĠÚ©ÛĮÙĪÚº": 3188,
      "ĠÚªÙĨØ¯Ø³": 3189,
      "ĠÚªÙĨØ¯Ø¦ÙĪ": 3190,
      "ĠÚªÙĨÙĪ": 3191,
      "ØªØ±ÙĨ": 3192,
      "ĠØ±Ú©Ú¾": 3193,
      "ĠÚĦØ§Ø¦ÙĪ": 3194,
      "ĠÚĦÙħØ§Ø±": 3195,
      "ĠÚ¦Ø§Ù½": 3196,
      "Ù¾ÙĪØ²": 3197,
      "ĠÙĨØ§ÙĩÙĬØ§ÙĨ": 3198,
      "Ø¢Ø¦ÙĪÙĨ": 3199,
      "ĠÙĨÙĪØ§ÙĨ": 3200,
      "ĠÙĨÙĪÙ½": 3201,
      "ĠÙĨÙĪØ§Ø¨": 3202,
      "ĠÚªÚ¾ÚĻÙĬÙĨ": 3203,
      "ĠÙĪØ§Ûģ": 3204,
      "ĠÙĪØ§Ùĩ": 3205,
      "ĠÙĪØ§Ù½": 3206,
      "ĠÙĪØ§ÙºØ§": 3207,
      "ĠÙĪØ§Ú±Ú»": 3208,
      "ĠÙħÙĬÙ½Ø±": 3209,
      "Ø³Ø§ÙĨØ¦Ú»": 3210,
      "ĠÚ©Ø±ØªÛĴ": 3211,
      "ĠØ³Ú©Ú»": 3212,
      "ÛĮÙĨØ³": 3213,
      "ĠÙĬØ§Ø±ÙĨ": 3214,
      "ĠØ§ÙĬÙĨØ¯Ø§Ø³ÙĬÙĨ": 3215,
      "ĠÙĨÙĨÚįÙĬÙĪÙĨ": 3216,
      "ĠÙ½ÙĪØ¦ÙĬÙ½Ø³": 3217,
      "ĠÚ¾ÙĦÙĨ": 3218,
      "ĠÚªÙĦÚª": 3219,
      "ĠØ¢ÙĩÙĬÙĨ": 3220,
      "ĠÚĨÙĪÙĨÚĬ": 3221,
      "ØŁØŁØŁØŁ": 3222,
      "ĠÙĪÚĮÙĬ": 3223,
      "ĠÚıÙĬÙĨØ¯Ø§": 3224,
      "ĠÙĩÙĬÙĦÙĪ": 3225,
      "ĠØ³Ø§Ú³ÙĬØ§": 3226,
      "ÙĤÙĬÙĤ": 3227,
      "ĠØµØŃØª": 3228,
      "ÙħØ§ÚªÙĪÚĻÙĬ": 3229,
      "ÚªØ§Ø±Ù¾ÙĪØ±ÙĬ": 3230,
      "ĠÙħØ³Ø¦ÙĦØ§": 3231,
      "ĠØ¨ØŃØ±ÛĮ": 3232,
      "ĠØ±ÙĬØ§Ø³Øª": 3233,
      "ĠØ±ÙĬØ¦ÙĦ": 3234,
      "Ø±ÙĨØ§Úª": 3235,
      "ĠÙĨÙĬØ§Ú»ÙĬÙĨ": 3236,
      "ĠÙĤÙĪÙħÙ¾Ø±": 3237,
      "ĠÙĬÙĪØ²": 3238,
      "ĠÙĬÙĪÙ½ÙĬÙĪ": 3239,
      "Ø§Ø¦ÙĪÙĨÙ½": 3240,
      "ĠÚıØ³Ø¬ÙĪ": 3241,
      "ĠÙħØ²Ø§Ø¬": 3242,
      "ĠÚ¯Ø§Ø±ÙĬÙĨ": 3243,
      "ĠØªØ±Úª": 3244,
      "ĠØ¬ÙħÙĦØ§": 3245,
      "ĠØ¨ÙĩØªØ±ÙĬÙĨ": 3246,
      "ĠÙħØªÙģÙĤ": 3247,
      "ĠÙ»ÙĪÙ½ÙĬ": 3248,
      "ĠÙħØ±Ø¶": 3249,
      "ĠØ¢Ø²Ø§Ø¯ÙĬ": 3250,
      "ĠØ§ÚªØ§Ø¦ÙĪÙĨÙ½": 3251,
      "ĠÙĩÙĪÙĨØ¯": 3252,
      "ĠÙħØ·ÙĦÙĤ": 3253,
      "Ø¬Ú¾ÛĴ": 3254,
      "ĠÙģØ±Ùħ": 3255,
      "ĠØ§Ù¾ÙĨØ§": 3256,
      "ĠØ§Ù¾ÙĨÛĴ": 3257,
      "ĠØ¨Ø¯ÙĨ": 3258,
      "ĠØ±ÙĩÙĨØ¯Ø§": 3259,
      "ĠÚĢÙĬØ±ÙĬ": 3260,
      "ĠØ³Ú¯ÙĩÙĪÙĨ": 3261,
      "ĠØ³Ø§ÙħØ±Ø§Ø¬": 3262,
      "ĠÙ¾ÚĩÙĪ": 3263,
      "ĠÙ¾ÚĩÚ»": 3264,
      "ĠØ«ÙĤØ§ÙģØª": 3265,
      "ĠØ«Ø§Ø¨Øª": 3266,
      "Ù¾ÙĦÙĬØ²": 3267,
      "ĠÙĩÙĦØ§Ø¦Ú»": 3268,
      "ĠØŃØ³ÙĬÙĨ": 3269,
      "ĠØŃØ³Ø§Ø³": 3270,
      "ĠÙĨÚªØªÙĪ": 3271,
      "ĠÙ¾ÚªÚĻÙĬ": 3272,
      "ĠÙ¾ÙĪÙĨØ¯Ø§": 3273,
      "ÙĬØ¹Øª": 3274,
      "ĠÚ¯Ø±Ø§ÙħØ±": 3275,
      "Ø§ÛģØ±": 3276,
      "ĠÙħÙĬÙĨÚ¾ÙĨ": 3277,
      "ĠÚªØ§ÙħØ±ÙĬÚĬ": 3278,
      "ĠÚªØ§ÙħØ±Ø§ÙĨ": 3279,
      "Ø¬ÙĬÚªÙ½": 3280,
      "ĠÚĨØ¦Ø¨ÙĪ": 3281,
      "ĠÚıÚ©ÙĬÙĪ": 3282,
      "ĠÙħÚĻÙĬÙĪØ¦ÙĬ": 3283,
      "ĠØ§ÙģÙĦØ§": 3284,
      "ĠØ§ÙģØ³ÙĪØ³": 3285,
      "ÛĮÙĪÚº": 3286,
      "ĠÛ²": 3287,
      "ĠÙħØ°ÙĩØ¨": 3288,
      "ĠÙħÙĪÚªÙĦÙĬÙĪ": 3289,
      "ÙĢÙĢÙĢÙĢÙĢÙĢÙĢÙĢÙĢÙĢÙĢÙĢÙĢÙĢÙĢÙĢ": 3290,
      "ĠÙ¾Ú¾Ø§ÚªØ§": 3291,
      "ĠÙĪØºÙĬØ±Ùĩ": 3292,
      "ĠÙĦÛĮÚ©Ø±": 3293,
      "ĠØ·Ø¨ÙĬØ¹Øª": 3294,
      "ĠØªØ±Ø¬ÙħØ§": 3295,
      "ĠÙħØ§ÙħØ±ÙĪ": 3296,
      "ĠØ§ÙĩÚĻÙĪ": 3297,
      "Ø±ÙĬÚªÙ½Ø±": 3298,
      "ĠÙ½Ø±ÙħÙ¾": 3299,
      "ĠØ§Ø®Ø¨Ø§Ø±ÙĨ": 3300,
      "Ø±Ø§Ø¦ÙĬÚĬ": 3301,
      "ĠØ³Ø§Ø¦ÙĬÙ½": 3302,
      "ĠÙ¾Ø¦Ø¬ÙĬ": 3303,
      "ĠØªØŃØ±ÙĬÚª": 3304,
      "ĠØªØŃÙĤÙĬÙĤ": 3305,
      "ĠØ§ÚĩÙĦ": 3306,
      "ĠØ§ÚĩÙĬÙĨ": 3307,
      "ĠØŃÚªÙĪÙħ": 3308,
      "ĠÙ¾ÛģÙĦÛĴ": 3309,
      "ĠØ§ÙĬÚªØ´ÙĨ": 3310,
      "ĠÙ»Ø§Ú¾Ø±Ø§ÙĨ": 3311,
      "ĠØµÙĪÙģÙĬ": 3312,
      "ĠØµÙĪØ±ØªØŃØ§ÙĦ": 3313,
      "ĠØ¬Ú¾ÙĬÚĻÙĪ": 3314,
      "ĠØ¬Ú¾ÙĬÚĻØ§": 3315,
      "ĠÙħØ¶ÙħÙĪÙĨ": 3316,
      "ĠÙħØ¶Ø¨ÙĪØ·": 3317,
      "ĠØªØµÙĪØ±": 3318,
      "ĠØ¨Ú»ÙĬØ§Ø¯ÙĬ": 3319,
      "ĠÚ¾Ø§Ú¾Ø§Ú¾Ø§Ú¾Ø§Ú¾Ø§": 3320,
      "ĠÙģÙĬØ§Ø¶": 3321,
      "ĠÚ¾ÙĪÙĨØ¯ÙĬÙĪÙĨ": 3322,
      "ĠØ¬Ø°Ø¨Ø§ØªÙĬ": 3323,
      "ĠÙ¾Ø±ÙĪÚ¯Ø±Ø§ÙħÙĨÚ¯": 3324,
      "ĠÚªÙ¿Ø§ÙĨ": 3325,
      "ĠÚªØ§Ø±ÙĪØ¨Ø§Ø±": 3326,
      "ĠØªØ¬Ø±Ø¨": 3327,
      "ĠÙĨØ§Ø²Úª": 3328,
      "ĠÙ¾ÙĬØ¦ÙĨØ¯ÙĪ": 3329,
      "ĠØ³ÚĥØ§Ú»Ù¾": 3330,
      "ĠÙ¾Ø§Ù¾Ø§": 3331,
      "ĠÙĦÚ¾Ø¬ÙĬ": 3332,
      "ĠÛģÙħØ§Ø±ÛĮ": 3333,
      "ĠÚªÙħÙ¾ÙĬÙĪÙ½ÙĨÚ¯": 3334,
      "ĠÙħÙĨØ·ÙĤ": 3335,
      "ĠØ³Ø²Ø§": 3336,
      "ĠØ³ÙĨÚ¯Øª": 3337,
      "ĠØ¨ÙĨØ¯ÙĪÙĤ": 3338,
      "ĠÙĨØ§Ø±Ø§Ø¶": 3339,
      "ĠØ§ÙĨØ¬ÙĨÙĬØ¦Ø±": 3340,
      "Ø¹ÙĦÙĬÚªÙħ": 3341,
      "ĠÙĤØ§ÙĨÙĪÙĨ": 3342,
      "ĠØŃÙħØ§ÙĬØª": 3343,
      "ĠÚĮÙĨØ§Ø±": 3344,
      "ĠØ³ÙĬØ¨ØªÙĬ": 3345,
      "ĠØ´Ø§Ú¯Ø±Ø¯": 3346,
      "ĠÚ¯Ø°Ø§Ø±Ø´": 3347,
      "ĠØªÙĤØ±ÙĬØ±": 3348,
      "ĠÚ¦Ø§Ù¿ÙĦ": 3349,
      "ĠØªØ®ÙĦÙĬÙĤÙĬ": 3350,
      "ÙĦÙģØ¸": 3351,
      "ĠØ¬Ø§Ø¦Ø²": 3352,
      "ĠØ¬ÙĩÙĬÚĻÙĪ": 3353,
      "ĠÙħØ§Ú³ÙĨ": 3354,
      "Ø³Ø§Ø¦ÙĬÚªÙĦ": 3355,
      "ĠÙĪØ²ÙĬØ±": 3356,
      "ĠØ±ÛĮØ§Ø¶": 3357,
      "ĠØ®Ø´Úª": 3358,
      "Ú³Ø§ÙĦÚ¾": 3359,
      "ĠÙħØ¹Ø°Ø±Øª": 3360,
      "ĠÙħØ¹ØµÙĪÙħ": 3361,
      "ĠÙħØªØ§Ø«Ø±": 3362,
      "ĠØ§ÚªØ³ÙĬØ±": 3363,
      "ĠØ±ÙħØ¶Ø§ÙĨ": 3364,
      "ĠØ´Ø®Øµ": 3365,
      "ĠØ§Ø³Ø±Ø§Ø¦ÙĬÙĦ": 3366,
      "ĠØŃØ¶Ø±Øª": 3367,
      "ĠÙħØŃÙģÙĪØ¸": 3368,
      "ĠÙħØ³ÙĦØ³ÙĦ": 3369,
      "ĠØ¨ØŃØ±ÛĮÛģ": 3370,
      "ĠØ±ÙĬØ¦ÙĦÙ½ÙĬ": 3371,
      "ĠÙĬÙĪÙ½ÙĬÙĪØ¨": 3372,
      "14": 3373,
      "16": 3374,
      "17": 3375,
      "23": 3376,
      "34": 3377,
      "39": 3378,
      "54": 3379,
      "wi": 3380,
      "ºÙĪØ§": 3381,
      "Ġ3": 3382,
      "Ġ8": 3383,
      "Ġ9": 3384,
      "ĠÙĬØ±": 3385,
      "ĠÙĬÚª": 3386,
      "ĠÛĶÛĶ": 3387,
      "Ġ99": 3388,
      "Ø§ÙĬÙĪÙĨ": 3389,
      "Ø§ÙĢ": 3390,
      "ÙĬØ¦ÙĪ": 3391,
      "ÙĨÙĩ": 3392,
      "ÙĪÚª": 3393,
      "ÙĪØ¨": 3394,
      "ÙĪØ§Ø±": 3395,
      "ÙĪÚĻ": 3396,
      "ÙĪÚĮ": 3397,
      "ÙĪÙĬØ±": 3398,
      "ÙĪÚĻÙĬ": 3399,
      "ÙĪÚªÙĬ": 3400,
      "ĠÙĢ": 3401,
      "Ø±Ûģ": 3402,
      "Ø±Ø³": 3403,
      "Ø±Ú»": 3404,
      "Ø±Ø§Ø¦ÙĬÙĨ": 3405,
      "Ø±ÙĪÙĨ": 3406,
      "Ø±Ú©": 3407,
      "Ø±ÚĨ": 3408,
      "Ø±ØªÙĬ": 3409,
      "Ø±Ø§Ú»ÙĬ": 3410,
      "Ú¾Ûģ": 3411,
      "Ú¾ÙĬÙĪ": 3412,
      "Ú¾Úı": 3413,
      "Ú¾ÛĴ": 3414,
      "Ú¾ÙĬÙĪÙĨ": 3415,
      "Ú¾Ø§Ø±ÙĬ": 3416,
      "Ú¾Ø§Ø±ÙĪ": 3417,
      "Ú¾ÙħØ±Ø§Ú¾": 3418,
      "ÙĦØ§Ø¦ÙĬ": 3419,
      "ÙĦÙħØ§ÙĨ": 3420,
      "Ø§ÙĨØ³Ø§ÙĨ": 3421,
      "Ø§ÙĨÚ¯Ø±ÙĬØ²": 3422,
      "ĠØ¬Ø§Ø±": 3423,
      "ĠØ¬Ú¾Ø§ÙĨ": 3424,
      "ĠØ¬ÚĻÙĬ": 3425,
      "ĠØ¬Ú¾ÙĪ": 3426,
      "ĠØ¬Ø¨Ø±": 3427,
      "ĠØ¬ØªØ§ÙĨ": 3428,
      "ĠØ³Úª": 3429,
      "ĠØ³Ù½": 3430,
      "ĠØ³ÛĮ": 3431,
      "ĠØ³Ù¾": 3432,
      "ĠØ³ÙĬÙĪÙĨ": 3433,
      "ĠØ³ÙĬØ±": 3434,
      "ĠØ³Ø§Ø±ÙĬ": 3435,
      "ĠØ³Ú©ÙĬ": 3436,
      "ĠØ³ÙĬÙħ": 3437,
      "ĠØ³ØªÙĦ": 3438,
      "ĠØ³Ø§Ø±Ø§": 3439,
      "ĠØ³ÛĮØ¯": 3440,
      "ĠØ³ÙĬØ§Ø±ÙĬ": 3441,
      "ĠØ³Ø§Ø¦ÙĬØ²": 3442,
      "ĠÙħØ¦": 3443,
      "ĠÙħØ§Ø¯": 3444,
      "ĠÙħÙĦØ§": 3445,
      "ĠÙħÙĬØ¯": 3446,
      "ĠÙħØ§Ø´": 3447,
      "ĠÙħØ±Øª": 3448,
      "ĠÙħÚªØ§ÙĨ": 3449,
      "ĠÙħÙĬÙĪØ²": 3450,
      "ĠÙħÚĬÙĦ": 3451,
      "ĠÙħØ³ÙĬØª": 3452,
      "ĠÙħÙħÚªÙĨ": 3453,
      "ÙħÙĬØ¡": 3454,
      "ÙħÙĦØ§": 3455,
      "ÙħØ®": 3456,
      "ÙħÛĮÚº": 3457,
      "ÙħÛĮÙĨ": 3458,
      "ÙħÙĨØ¯ÙĬ": 3459,
      "ĠÚªÙĪÙĦ": 3460,
      "ĠÚªØ§Ø±ÙĬ": 3461,
      "ĠÚªØ§Ø´": 3462,
      "ĠÚªØ´Ùħ": 3463,
      "Ø³Úª": 3464,
      "Ø³ÙħØ§ÙĨ": 3465,
      "Ø³Ø§Ú³": 3466,
      "Ø³ÙºÙĪ": 3467,
      "Ø³ÚĦÙĬ": 3468,
      "Ø³ÙĪÙĨÚ¾ÙĨ": 3469,
      "Ø³Ø§Ø¦ÛĮÙĨ": 3470,
      "Ø¯Ùĩ": 3471,
      "Ø¯Ø§Ø¯": 3472,
      "Ø¯ÙĬØ¡": 3473,
      "Ø¯Ø§ÙĦÙĬ": 3474,
      "Ø¯Ú¯ÙĬ": 3475,
      "Ø¯Ø§ÙĦÙħ": 3476,
      "ÙĩØ§Ø±": 3477,
      "ÙĩÙĬØ§": 3478,
      "ÙĩÙĬÙĪÙĨ": 3479,
      "ÙĩØªÙĬ": 3480,
      "ÙĩØ±ÙĬÙĨ": 3481,
      "ÚªÙ¿": 3482,
      "ÚªØ±ÙĪ": 3483,
      "ÚªØ§Ø±ÙĪ": 3484,
      "ÚªÙħØ§ÙĦ": 3485,
      "ÚªØªØ§Ø¨": 3486,
      "ÚªÙĬØ´ÙĨ": 3487,
      "ÚªÚ¾ÚĻÙĪ": 3488,
      "ĠØ¢Ø¬ÙĬ": 3489,
      "ĠØ¢Ø¦ÙĪ": 3490,
      "ĠØ¢Ø³Ø§ÙĨ": 3491,
      "ĠØ¢ÚıÙĪ": 3492,
      "ĠØ¢Ø±Úª": 3493,
      "ĠØ¢ÚªÚĻ": 3494,
      "ĠØ¢ÚĬÙĬÙĪ": 3495,
      "ĠÙ¾ÙĬÙĨ": 3496,
      "ĠÙ¾ÙĨÚ¾ÙĨ": 3497,
      "ĠÙ¾Ø§Ø¦ÙĬ": 3498,
      "ĠÙ¾Ùº": 3499,
      "ĠÙ¾ÚªÙĪ": 3500,
      "ĠÙ¾Úĳ": 3501,
      "ĠÙ¾ÚªØ§": 3502,
      "ĠÙ¾ÚĨÙĪ": 3503,
      "ĠÙ¾Ú¯Ùĩ": 3504,
      "ĠÙ¾Ø§ØªÙĦ": 3505,
      "ĠÙ¾ÙĬØº": 3506,
      "ĠÙ¾Ø§Ø¯Ø±": 3507,
      "ĠÙ¾Ù¿Ø±": 3508,
      "ØªØ§Ø±": 3509,
      "ØªÙĨÚ¾ÙĨØ¬ÙĬ": 3510,
      "ØªÚ¾Ø§Ø±": 3511,
      "ĠØªÙħ": 3512,
      "ĠØªÛĮ": 3513,
      "ĠØªØ§Ø²ÙĬ": 3514,
      "ĠØªØ§Ø²ÙĪ": 3515,
      "Ø§Ø¦Ù½ÙĬØ¡": 3516,
      "ĠØ§Ù½": 3517,
      "ĠØ§ÛĮ": 3518,
      "ĠØ§Úı": 3519,
      "ĠØ§Ù¹": 3520,
      "ĠØ§ÙĦÙĬÚª": 3521,
      "ĠÙĪØ§Ø¦": 3522,
      "ĠÙĪØ§Ú»ÙĬ": 3523,
      "ĠÙĪÚĦ": 3524,
      "ĠÙĪÙĨÚ¯": 3525,
      "ĠÙĪØ±Øª": 3526,
      "ĠÙĪØ¬Ùĩ": 3527,
      "ĠÙĪÚ©Ø±": 3528,
      "ĠÙĪÚĬÙĬÙĪ": 3529,
      "ĠÙĪØ¹ÙĦÙĬÚªÙħ": 3530,
      "Ú»Ú»": 3531,
      "Ú»ÙĬÙĪ": 3532,
      "Ø¬Ø±": 3533,
      "Ø¬Ø³": 3534,
      "Ø¬ÙĩÙĪ": 3535,
      "ÙĬÙĪÙĦ": 3536,
      "ÙĬÙĪÙħ": 3537,
      "ÙĬÙĪÙ½": 3538,
      "ĠÚ©ÙĨÙĬ": 3539,
      "ĠÚ©ØªÙĨ": 3540,
      "ĠÚ©ÙĪÙĦÙĬÙĪ": 3541,
      "Ø¨ÙĬÙĨ": 3542,
      "Ø¨ÙĨÚ¾ÙĨ": 3543,
      "ĠØ¨Øª": 3544,
      "ĠØ¨Ø¬ÙĬ": 3545,
      "ĠØ¨Ú¯": 3546,
      "ĠØ¨Ø±ÙĪ": 3547,
      "ĠØ¨Úĩ": 3548,
      "ĠØ¨Ø§Ø²": 3549,
      "ĠØ¨ÙĨÙĬ": 3550,
      "ĠØ¨Ø¬Ø§": 3551,
      "ĠØ¨Ø§Ø´": 3552,
      "ĠØ¨Ø§ÙĦÙĬ": 3553,
      "ĠØ¨Ú©Ø±": 3554,
      "ĠØ¨ÙĬØ´Úª": 3555,
      "ĠÙĨÙĬÙĪ": 3556,
      "ĠÙĨÛĮ": 3557,
      "ĠÙĨÙĪØ±": 3558,
      "ĠÙĨÙĬÚª": 3559,
      "ĠÙĨÙĬÙ½": 3560,
      "ĠÙĨØ§ÙĨÚ¯": 3561,
      "Ø§Ø±ØªÙĬ": 3562,
      "ĠØ¬ÙĬØ³ÙĬÙĨ": 3563,
      "ĠØ¬ÙĬØ³ØªØ§Ø¦ÙĬÙĨ": 3564,
      "ĠÚ¾ÙĨØ¯": 3565,
      "ĠÚ¾ÙĨØ¯ÙĪ": 3566,
      "ĠÚ¾Ø¦Ùħ": 3567,
      "Ø¦Ø¬ÙĬ": 3568,
      "Ù½Ùħ": 3569,
      "Ù½Ú»": 3570,
      "Ù½Ø±ÙĪ": 3571,
      "Ù½ÙĬØ´ÙĨ": 3572,
      "Ù½ÙħÙĬÙĨÙ½": 3573,
      "Ù½Ø¦ÙĬÙ½Ø±": 3574,
      "ÛĮØ®": 3575,
      "âĢĻ": 3576,
      "ĠÙ¿Ø±": 3577,
      "ĠÙ¿Ø±ÙĬ": 3578,
      "ĠÙ¿Ø¬ÙĬ": 3579,
      "ĠÙ¿Ø§ÙĨÙĪ": 3580,
      "ĠÙĦØ§Ú¾": 3581,
      "ĠÙĦÚĻ": 3582,
      "ĠÙĦÙ¾": 3583,
      "ĠÙĦØ§Ø´": 3584,
      "ĠÙĦÚĳ": 3585,
      "Ø±ÙĬØ¯": 3586,
      "ÚĻÚ»": 3587,
      "ÚĻÚĻ": 3588,
      "Ú¾ÙĬÙĦÙĪ": 3589,
      "ÙĪÙĨÙĪ": 3590,
      "ÙĪÙĨÚĬ": 3591,
      "Ø§ÙĦØª": 3592,
      "Ø§ÙĦÛĮ": 3593,
      "Ø§ÙĦØ§Ø¦ÙĬ": 3594,
      "Ø§ÙĦÙ¾Ø±": 3595,
      "Ú©Ø§": 3596,
      "Ú©Ú¾": 3597,
      "Ú©ÙĬÙĨ": 3598,
      "Ú©ÙĦÙĪ": 3599,
      "Ú©Ø±Ø§": 3600,
      "ĠØ§ØºÙĪØ§": 3601,
      "ÙģØ§Ø¨": 3602,
      "ÙģØªÙĬ": 3603,
      "Ù¾ÙĬÙĨ": 3604,
      "Ù¾Ø§Úª": 3605,
      "Ù¾ÙĬØ§Ø±ÙĬ": 3606,
      "ÙĤÙĪÙħ": 3607,
      "ĠØ±ÙĦÙĬ": 3608,
      "ĠØ±Ø§Ø¡": 3609,
      "ĠØ±Ú³ÙĬ": 3610,
      "ĠØ±Ø§Ø¶ÙĬ": 3611,
      "ĠØ±ÙģØ±ÙĨØ³": 3612,
      "ĠØ¬ÙĪØ§Ø¦ÙĨ": 3613,
      "ĠØ¬ÙĪÚ³ÙĬ": 3614,
      "ÚĮÚ»": 3615,
      "ÚĮØ±ÙĬ": 3616,
      "ÚĮØ±ÙĪ": 3617,
      "ĠØ§ÙĨÙĩÙĬ": 3618,
      "ĠØ§ÙĨÙ½Ø±": 3619,
      "ĠØ§ÙĨÙĬÚª": 3620,
      "ĠØ§ÙĨÚªØ§Ø±": 3621,
      "ĠØ§ÙĨÚĮØ§": 3622,
      "ĠØ§ÙĨÙĤÙĦ": 3623,
      "Ø¬ÙĬÚªÙĬ": 3624,
      "Ø¬ÙĬÚªÙĪ": 3625,
      "Ú¯ÙĬØ±": 3626,
      "Ú¯ÙĩÛģ": 3627,
      "Ú¯Ø°": 3628,
      "Ú¯ÙĨÚĬ": 3629,
      "ĠÚĨØ§Ø±": 3630,
      "ĠÚĨÙĬØ³": 3631,
      "ĠÚĨØ¦ÙĨ": 3632,
      "ĠÚĨÛĮÙĨ": 3633,
      "ĠÚĨØ§Ø±ÙĪ": 3634,
      "ĠÚĨØ¦ÙĪÙĨ": 3635,
      "ĠÚĨÚªØ§": 3636,
      "ĠÚĨØ§ÙĨÚ¾ÙĨ": 3637,
      "ÙİâĢ¦": 3638,
      "ĠÚıÙĨØ¯": 3639,
      "ĠÚıÙĬÙĪÙĨ": 3640,
      "ĠÚıØ¬ÙĪ": 3641,
      "ĠÚıÙĩØ§": 3642,
      "ĠÚıØ³Ø§ÙĨ": 3643,
      "ĠÚıØ§ÙĨÚ¾ÙĨ": 3644,
      "ĠÚıÙºÙĦ": 3645,
      "ĠÚ¯Ø¯": 3646,
      "ĠÚ¯Ùģ": 3647,
      "ĠÚ¯ÙĪØ±Ø§": 3648,
      "ĠÚ¯Ø±Ø¯": 3649,
      "ĠÙ»ÚĨÙĨ": 3650,
      "Ø¦ÙĬØ¬": 3651,
      "ÚĨÛĮ": 3652,
      "ÚĨØ±ÙĬ": 3653,
      "ÚĨÙĬØ¡": 3654,
      "ÚĨØªÙĬ": 3655,
      "ÙĨØ¯Ùħ": 3656,
      "ÙĨØ¯ÙĬÙĨ": 3657,
      "ÙĨØ¯Ø³": 3658,
      "ÙĨØ¯Ú¯ÙĬ": 3659,
      "ÙĪØ±Ø³": 3660,
      "Ø¹Ø§ÙĦ": 3661,
      "Ø¹ÙħÙĦ": 3662,
      "ĠÙĩÙĬÙĪ": 3663,
      "ĠÙĩÙĦÙĬ": 3664,
      "ĠÙĩÙĦÙĪ": 3665,
      "ĠØ®Ùħ": 3666,
      "ĠØ®ÙĪÙĨ": 3667,
      "ĠØ®Ø§Ùħ": 3668,
      "ĠØ®Ø§Ø·": 3669,
      "ĠØ®Ø±ÚĨ": 3670,
      "ĠØ¯Ø§Ø¯": 3671,
      "ĠØ¯Ø§Ø¡": 3672,
      "ĠØ¯Ø§Ø¦ÙĪ": 3673,
      "ĠØ¯ÚªØ§ÙĨ": 3674,
      "Ú³ÚĻÙĬ": 3675,
      "Ú³ÚĻÙĪ": 3676,
      "Ú³Ø§ÙĦÙĩÛģ": 3677,
      "ĠØ´Ø±ÙĬ": 3678,
      "ĠØ´ÚªØ±": 3679,
      "ĠØªÙĬØ±": 3680,
      "ĠØªÙĬØ§Ø±": 3681,
      "ĠØªÙĬØ§Ø±ÙĬ": 3682,
      "ĠØªÙĬØ¦ÙĨ": 3683,
      "ĠØªÙĬØ³ØªØ§Ø¦ÙĬÙĨ": 3684,
      "Ø´Ø§ÙĨ": 3685,
      "Ø´ÛĮ": 3686,
      "Ø´ÙĨÙĬ": 3687,
      "ĠØ§ÙĪÙĦ": 3688,
      "ĠØ§ÙĪÙħÙ¾": 3689,
      "ĠØ§Ú¾Ùħ": 3690,
      "Ø§Ø¨ÙĪ": 3691,
      "Ø§Ø¨ÙĦ": 3692,
      "ĠÚĩÙĬ": 3693,
      "ĠØ¨ÛģØª": 3694,
      "ÙĲ.": 3695,
      "ÙĲØŁ": 3696,
      "ĠØ§Ø³ÚªÙĬ": 3697,
      "Ù¿ÙĪ": 3698,
      "Ù¿ÙĬÙĪ": 3699,
      "Ù¿ÙĪØ±Ø§": 3700,
      "ÙĬÙĨØ¯ÚĻ": 3701,
      "ÙĦÙĬØ§ØªÙĬ": 3702,
      "ØŃØ§": 3703,
      "ØŃØ±": 3704,
      "Ø§ÙħÙĬØ¯": 3705,
      "Ø²Ø¨": 3706,
      "ĠÙ½Ø§Ø±": 3707,
      "ĠÙ½ÚªÙĬ": 3708,
      "ĠÙ½ÙĬÙħ": 3709,
      "ĠÙ½Ø§Ù¾": 3710,
      "ĠÙ½Ú¾Úª": 3711,
      "ĠÙ½Ø§ÙĦÙ¾Ø±": 3712,
      "ĠÙĤØµ": 3713,
      "ĠÙĤØ¨ÙĪ": 3714,
      "ĠÙĤÙĬÙħ": 3715,
      "ĠÙĤØ§ØªÙĦ": 3716,
      "ĠÙĤØ±Ø¢": 3717,
      "ĠÙĤØ§Ø¶ÙĬ": 3718,
      "ĠÙĤØ³ÙħØ§ÙĨ": 3719,
      "Ú¾Ø§ÙĨØª": 3720,
      "ĠØ³Ø§ÙĨÚį": 3721,
      "ĠØ³Ø§ÙĨÚ¯Ø±ÙĬ": 3722,
      "ĠÚĢØ§": 3723,
      "ĠÚĢÚĦ": 3724,
      "ĠÚĢØ§Ú³": 3725,
      "ĠÚĢÚĦÙĬ": 3726,
      "ĠÚ³Ø§Ø¦Ú»": 3727,
      "ĠÚ³Ø§ÙĬÙĪ": 3728,
      "ĠÚ³ÙĨÚĢ": 3729,
      "ĠÙ¾Ø±Ø§Ø¦ÙĬ": 3730,
      "ĠØ¹Ø±ÙĪ": 3731,
      "ĠØ¹Ø¨Ø±": 3732,
      "ĠØ¹ÙĦØ§Ùħ": 3733,
      "ĠÙģØ±ÙĬ": 3734,
      "ĠÙģÙĬÚª": 3735,
      "ĠÙģÚ¾Ùħ": 3736,
      "ÙºÙĬÚª": 3737,
      "ÙĪÙĦÙĬØ¡": 3738,
      "Ø§Ø³Ø¨": 3739,
      "ĠØ¬Ø§Ú³": 3740,
      "ĠØµØ¨Ø±": 3741,
      "ĠØµØ¯Ø±": 3742,
      "ĠØµÙģØª": 3743,
      "ĠØµÙĨØ¹": 3744,
      "Ø¬ÙĪÚ³": 3745,
      "Ø¬ÙĪÙħÙĬ": 3746,
      "Ùı..": 3747,
      "ØªÙĬØ¨": 3748,
      "ĠÚªØ±ÙĬÙĦ": 3749,
      "ÚĢØ§ÙĦ": 3750,
      "ÚĢØ§Ù½": 3751,
      "ÚĦÙ½": 3752,
      "ØµØ§ÙĨ": 3753,
      "ØµØ±Ùģ": 3754,
      "ØµØ¨ØŃ": 3755,
      "ĠÚ³Ø§ÙĦÙĩØ§ÙĬÙĪ": 3756,
      "ÙĦÙĪÙĤ": 3757,
      "Ø§Ø±ÙĬÙĦ": 3758,
      "Ø§Ø±ÙĬØ§ÙĨ": 3759,
      "ĠØŃÙĪ": 3760,
      "ĠØŃØµ": 3761,
      "ĠØŃØ±Ùģ": 3762,
      "ĠØŃÙħØ²": 3763,
      "ĠØŃÙĬØ¯Ø±Ø¢Ø¨Ø§Ø¯": 3764,
      "ÚªÙĬÚıÙĬ": 3765,
      "Ø±ÙĪÚĬ": 3766,
      "ĠÙ¾ÙĪØ§ÙĨ": 3767,
      "ĠÙ¾ÙĪÚ»": 3768,
      "ĠÙ¾ÙĪÙĬØ³": 3769,
      "ĠÛģØ±": 3770,
      "Ø·Ø§Ùģ": 3771,
      "Ø³ØªØ±": 3772,
      "Ø¸Ø§ÛģØ±": 3773,
      "ĠÙĦÚ©ÙĨ": 3774,
      "ĠÙĦÚ©Øª": 3775,
      "ĠÙĦÚ©ÙĨØ¯ÙĪ": 3776,
      "ĠØ³ÙħÙĬØ¬ÙĪ": 3777,
      "ÚªÙĪÚĻØ§": 3778,
      "ĠÙĪÚıÙĬÙĪÙĨ": 3779,
      "ĠÙĪÚıØ§Ø¦ÙĬ": 3780,
      "Ø§ÙĤÙĪ": 3781,
      "Ù½Ø±ÙĪÙĦ": 3782,
      "Ù½Ø±ÙĬÙĨÚĬ": 3783,
      "ĠÚªÙħØ²ÙĪØ±ÙĬ": 3784,
      "ÙĬØ¯ÙĦ": 3785,
      "ĠØ³ÙĪÙħØ±ÙĪ": 3786,
      "ĠÙħÙĪÙĨØ§": 3787,
      "ĠÚ¾ÚªÚĻØ§": 3788,
      "ĠÚªÙĬÙĦ": 3789,
      "ĠÙħØ§Ú»Ú¾ÙĪÙĨ": 3790,
      "ĠÙħØ§Ú»Ú¾ÙĬÙĨ": 3791,
      "Ġ19": 3792,
      "ĠÚĬÙĪØ±": 3793,
      "ĠÚĬÙĬÙ½": 3794,
      "ĠÚĬÙ¾Ø§Ø±": 3795,
      "Ø³ÙĬÙħ": 3796,
      "ĠØ§ÙĬÙĦ": 3797,
      "ĠØ§ÙĬÙģ": 3798,
      "ĠØ§ÙĬÚĬ": 3799,
      "ĠØ§ÙĬØ¬ÙĨ": 3800,
      "ĠØ§ÙĬØªØ±Ø§": 3801,
      "Ø¯ÙĪØ³Øª": 3802,
      "ĠØ³Ø±Ø¯Ø§Ø±": 3803,
      "ĠØ³Ø±ÚªØ§Ø±ÙĬ": 3804,
      "Ú¾Ø±ÙĬÙĪÙĨ": 3805,
      "ĠØ²ÙĬÙĨ": 3806,
      "ĠØ²Ø¨Ø±": 3807,
      "ĠØ²ÙĪÙħ": 3808,
      "ĠÙħÙĪØ³ÛĮ": 3809,
      "ĠÚĨÙĪÚĮØ±ÙĬ": 3810,
      "ÚĨÙĬØ§ÙĨ": 3811,
      "ĠØ§ÙĦØ²Ø§Ùħ": 3812,
      "ĠØ§ÙĦÙģØ§Ø¨": 3813,
      "ÙĨÚ¯Ø¦ÙĬØ¬": 3814,
      "ĠÙĦÚ³ÙĬÙĨ": 3815,
      "ĠÙħØ¹Ø§Ùģ": 3816,
      "ĠÙħØ¹ÙĨÙĬ": 3817,
      "Ø¯ÙĬÙĤ": 3818,
      "ĠÙ¾Ø§Ú»ÙĬØ¡": 3819,
      "Ù½ÙĬÚªÙĦ": 3820,
      "ĠÙ½ÙĪÙ¾ÙĬ": 3821,
      "ĠØ³ÙħØ¬Ú¾ÙĪ": 3822,
      "Ø§ÚªØ³": 3823,
      "ĠØ·Ø§ÙĤ": 3824,
      "ĠØ·ÙĦØ¨": 3825,
      "ĠÚ¾ÙĬÙħ": 3826,
      "ĠÚ¯ÙĩÚ»": 3827,
      "Ø§ÙģÙĦØ§": 3828,
      "Ø§ÙģØ³ÙĪØ³": 3829,
      "ĠÙĪÚĥØ§ÙĨ": 3830,
      "ĠÙĪÚĥÙĬÙĨ": 3831,
      "ĠÙºÚ¾ÙĨ": 3832,
      "ĠÙºÚ¾Ø±": 3833,
      "Ø§Ø¬Ø¯": 3834,
      "Ø§Ø¬ÙĬØ¡": 3835,
      "ĠÙħÙĦÙĨ": 3836,
      "ĠÙħÙĦÚ»": 3837,
      "ĠÙħÙĦÚ©": 3838,
      "ĠØ³Ú¯Ø±ÙĬÙ½": 3839,
      "Ø³ÙĪØ§ÙĦ": 3840,
      "ĠØ³ÚĢØ§Ú»": 3841,
      "Ø¶Ø§Ø¯": 3842,
      "Ø§Ú³ÙĪ": 3843,
      "ĠÚĩÙĪØ±ÙĬ": 3844,
      "ĠÚĩÙĪÚªØ±Ø§": 3845,
      "ĠÚĩÙĪÚªØ±ÙĬÙĨ": 3846,
      "ĠØ¬ÙĨØ±": 3847,
      "Ø³ÙħÙĪ": 3848,
      "ĠÙ»ÚĮÙĦ": 3849,
      "ĠÙ»ÚĮÙĨØ¯Ø§": 3850,
      "ĠÙ»ÚĮØ§Ø¦ÙĬÙĨØ¯ÙĪ": 3851,
      "Ø°ÙĬØ¨": 3852,
      "ĠÚĮÙĬØ¡": 3853,
      "ÙĬØ´ÙĬ": 3854,
      "ĠÙĪÙĬÙĨØ¯Ø³": 3855,
      "ĠØºÙĪØ±": 3856,
      "ĠØºØ±ÙĬØ¨": 3857,
      "ĠØºØ§ÙĦØ¨": 3858,
      "ĠÚ³Ø§ÙĦÚ¾ÙĬÙĨ": 3859,
      "Ø¨ÙĪØ¯Ø§Ø±": 3860,
      "Ø§ØŃØ¯": 3861,
      "ĠØ§Ú³ÙĬØ§ÙĨ": 3862,
      "ĠØ§Ú³ÚªÙ¿": 3863,
      "ĠÙħÚ¾Ùħ": 3864,
      "ĠÚĩÚıÚ»": 3865,
      "ĠÚĩÚıÙĬÙĪÙĨ": 3866,
      "ĠÚĩÚıØ¬ÙĪ": 3867,
      "ĠØ³ÙĬÙģ": 3868,
      "ĠØ³ÙĬØ§ØŃØª": 3869,
      "ĠÚ©ÙĪØ¬": 3870,
      "ĠÙħÙĨÙĩÙĨØ¬ÙĬ": 3871,
      "ĠÙħÙĨÙĩÙĨØ¬Ø§": 3872,
      "ĠØªÙĪÙģ": 3873,
      "ĠØªÙĪÚĻÙĬ": 3874,
      "ĠØªÙĪØ¨ÙĨÚ¾ÙĨ": 3875,
      "ÙĬØ²Ø§Ø±": 3876,
      "ĠÚªØ§Ù¾ÙĬ": 3877,
      "ĠÙħØŃØ³ÙĨ": 3878,
      "ĠÚ¾ÙĪØ´": 3879,
      "ĠÙ¿ÙĬÙĪØ±ÙĬ": 3880,
      "ĠØ§Ø¯ÙĪ": 3881,
      "ĠØ§Ø¯Ø§Ø±Ø§": 3882,
      "ĠØ±ÙĪØ§ÙĬ": 3883,
      "ĠØ±ÙĪØ¯Ø§ÙĦÙĬ": 3884,
      "ĠØ§Ø¨ÙĦ": 3885,
      "ĠÙħØ³ÚªØ§ÙĨ": 3886,
      "ĠÙħØ³ÚªÙĬÙĨ": 3887,
      "ĠÙħØ³Ø¬Ø¯": 3888,
      "ĠÙħØ³ÙĦÙħØ§ÙĨ": 3889,
      "Ø³ÙĨÚĮÙĬÙĨ": 3890,
      "ÚªØ±ÙĨ": 3891,
      "ÚªØ±ÙĬÙĪÙĨ": 3892,
      "Ù»ÙĨ": 3893,
      "Ù»ÙĬÙĨ": 3894,
      "Ù»Ø±ÙĪ": 3895,
      "ÙĬØªÙĪÙĨ": 3896,
      "ĠÚªÙĨØ¯Ùħ": 3897,
      "ĠÚªÙĨØ¯ÙĬÙĨ": 3898,
      "ĠØ°Ú¾Ø§ÙĨØª": 3899,
      "ĠÙ¾ÚĻÚ¾ÙĪ": 3900,
      "ĠØ§ØµÙĦÙĬ": 3901,
      "ĠÙĦÙĪÚ»": 3902,
      "ĠÙĦÙĪÚ¯ÙĪ": 3903,
      "ĠØ±Ú©Ú»": 3904,
      "ĠØ±Ú©ÙĨØ¯ÙĪ": 3905,
      "ĠØ±Ú©Ø¨ÙĪ": 3906,
      "ĠÚĦØ§Ú»ÙĬ": 3907,
      "ÙĩØ§ÙĩØ§ÙĩØ§": 3908,
      "ĠÙĪÙºØ§ÙĨ": 3909,
      "ĠØ¨ÙĬØ¯Ø§": 3910,
      "ĠØ§ØªØ§ÙĨ": 3911,
      "ĠØ§ØªØ±Ø§": 3912,
      "ĠØ§ØªÙģØ§ÙĤ": 3913,
      "ĠÚ¦Ù½ÙĬ": 3914,
      "......": 3915,
      "Ù¾Ø±Ø§Ø¦ÙĬ": 3916,
      "ĠØ¯ÙĪØ³ØªÙĪ": 3917,
      "Ø¢Ú¾": 3918,
      "Ø¢Ú¾ÙĬ": 3919,
      "Ø¢Ù¾": 3920,
      "ØºÙĦØ·": 3921,
      "ĠØ¶ÙĦ": 3922,
      "ĠÙĨÙĪÚªØ±ÙĬ": 3923,
      "ĠÚªÚ¾ÙĦ": 3924,
      "Ø¬ÙĨÙħ": 3925,
      "ĠÙĪØ§ÙºÙĪ": 3926,
      "ĠÙĪØ§Ù½Ø³": 3927,
      "ÙĪÙħØª": 3928,
      "Ø¨ÙĬØ¨": 3929,
      "Ø¨ÙĬØ¯Ø§": 3930,
      "ĠÙħÙĬØ§ÙĨ": 3931,
      "ĠÙħÙĬÚĬÙĬ": 3932,
      "ĠÙħÙĬÚĬÙĬÙħ": 3933,
      "ĠÙħÙĬÚĬÙħ": 3934,
      "Ù½ÙĪÙĪ": 3935,
      "Ù½ÙĪÙĬÙ½Ø±": 3936,
      "ĠÚ©Ø±ÛĮÚº": 3937,
      "ĠÚ©Ø±Ú©ÛĴ": 3938,
      "ĠØ³Ú©Ø±": 3939,
      "ĠÛģÙĪØªÛĮ": 3940,
      "ĠÛģÙĪØ¦ÛĴ": 3941,
      "ĠÙĪÚıÙĬØ±ÙĬ": 3942,
      "ĠÙħØ§ÚĬÙĦ": 3943,
      "ĠÙħØ§ÚªÙĪÚĻÙĪ": 3944,
      "ĠÙĨÙĨÚįÙĪ": 3945,
      "ĠØ§ÚĨÙĨ": 3946,
      "ĠØ§ÚĨØ§Ø±": 3947,
      "ĠÛĮÙĪÙ¹": 3948,
      "ĠÚ©Ø§ÚĮØ§": 3949,
      "ĠÚ©Ø§Ù»ÙĬ": 3950,
      "ĠÚ¾ÙĦÙĨØ¯ÙĬ": 3951,
      "ĠÚ¯ÙĩØ±Ú»": 3952,
      "ĠÚªÙĦÙ¾": 3953,
      "ĠØ¯ÙĦÙĬÙĨ": 3954,
      "ĠÙģÙĦØ§Ø³": 3955,
      "ĠÙģÙĦØ§Ú»ÙĬ": 3956,
      "ĠÙģÙĦØ§Ú»ÙĪ": 3957,
      "ĠÚĨÙĪÙĨØ¯ÙĬ": 3958,
      "Ø³Ù½Ø±ÙĬ": 3959,
      "Ø³Ù½ÙĬØ¡": 3960,
      "ĠÙĪÚĮØ§Ø¡": 3961,
      "ĠÙĩÙĬÙº": 3962,
      "ĠÙĬÙĤÙĬÙĨ": 3963,
      "ĠØ³Ø¨Ø¬ÙĬÚªÙ½": 3964,
      "ÙħÙĬÚĬÙĬÙħ": 3965,
      "ĠÚ¯Ú¾Ø±ÙĨ": 3966,
      "ĠØ§Ø³Ù¾ØªØ§ÙĦ": 3967,
      "ĠØµØŃØ§Ùģ": 3968,
      "ÙħÙĨÙĩÙĨØ¬ÙĬ": 3969,
      "ÚªÙĨÙĩÙĨ": 3970,
      "ĠØ³ÙĨØ¯Ú¾ÛĮ": 3971,
      "ĠØ¨ØŃØ±ÙĬ": 3972,
      "Ù¾ÙĬÚĬÙĬØ§": 3973,
      "Ù¾ÙĬÚ¯ÙĨÚĬ": 3974,
      "ĠÚ¯ÚıÚ¾": 3975,
      "ĠÚıØ³Ú»": 3976,
      "ĠÚıØ³Ø¨ÙĪ": 3977,
      "ĠÚıØ³ÙĨØ¯Ø§": 3978,
      "ĠÙ½Ø±ÙĬÙĨÚĬÙĨ": 3979,
      "ĠÙħØ®ÙĦÙĪÙĤ": 3980,
      "ÙħØªØ§Ø²": 3981,
      "ĠØªØ±ØªÙĬØ¨": 3982,
      "ĠÙĨÙħÙĪÙĨÙĬ": 3983,
      "ĠÙ½ÙĬÙ¾": 3984,
      "ĠÙ½ÙĬÚ¯": 3985,
      "ĠØ¬Ú¾Ø§Ø²": 3986,
      "ĠØ¬Ú¾ÚĻØ§": 3987,
      "ĠØ¬ÙħØ¹": 3988,
      "ĠØ¬ÙħÙĦÙĬ": 3989,
      "ĠØ¬ÙħØ§ÙĦÙĬ": 3990,
      "ĠØ§ÙĨØªÙĩØ§Ø¦ÙĬ": 3991,
      "Ø§Ù¾Ø§": 3992,
      "ÙħÙĪÙ½Ø±": 3993,
      "ĠÙ¾Ø§Ø±Ù½ÙĬÙĨ": 3994,
      "ĠÙĦÙĬÚĬØ±": 3995,
      "ĠØ±Ú¾ÙĬÙħ": 3996,
      "ĠÙ»ÙĪÚĻ": 3997,
      "ÚĳÛĴ": 3998,
      "ĠÙħØ±Úª": 3999,
      "ĠÙ¾Ù½ÚªÙĪ": 4000,
      "Ø§Ú©ÙĬÙĪÙĨ": 4001,
      "Ø§Ú©Ù¹Ø±": 4002,
      "ĠØ³ÙĨØ¦ÙĪÙĨ": 4003,
      "ĠØ³ÙĨÚĢØ§ÙĦ": 4004,
      "ÙħÚ¾ÙħØ§ÙĨ": 4005,
      "ĠÙĨØ§Ú¾ÙĬÙĨ": 4006,
      "Ú¾Ø§Ú¾Ø§Ú¾Ú¾Ø§": 4007,
      "ĠÙĪØ±Ø´Ø§": 4008,
      "ĠÙĪÚ»ÙĨØ¯ÙĪ": 4009,
      "ĠØ¨Ø§ÛģØ±": 4010,
      "ĠÙģØ±Ø´": 4011,
      "ĠÙģØ±ÙħØ§": 4012,
      "ĠØ³ÙħØ¬ÙĩÙĨØ¯ÙĪ": 4013,
      "ĠÙ¾ÙĬØ±Ø§": 4014,
      "ĠÙ¾ÙĬØ±ÙĨ": 4015,
      "ĠØ§Ù¾ÙĬÙĦ": 4016,
      "ĠØ§Ù¾ÚĬÙĬÙ½": 4017,
      "ØŃØ§ÙĦØª": 4018,
      "ĠÙ¾Ø±ÙĪÙ¾ÙĬÚ¯ÙĨÚĬ": 4019,
      "ÚĪÛĮ": 4020,
      "ÚĪÛĮØ§": 4021,
      "ĠÙħØ´Ø§Ú¾": 4022,
      "ĠØ§Ø±Ø§Ø¯ÙĬ": 4023,
      "ĠØ§Ø¬Ø§Ø¦ÙĬ": 4024,
      "ĠÚĮØ±Ú»ÙĪ": 4025,
      "ĠØ³ÙĬÚªÙ½Ø±": 4026,
      "ĠØ±Ø³ØªÙĬ": 4027,
      "ĠØ±Ø³ÙĬØ¯": 4028,
      "ĠØ±Ø³Ø§ÙĦÙĪ": 4029,
      "ĠØ±ÙĩÙĬØ§": 4030,
      "ĠÚ¯ÙĦØ§Ø¨": 4031,
      "ĠÚ¯ÙĦØ¨ÙĬØ¯Ø§": 4032,
      "ĠØ®Ø±Ø§Ø¨ÙĬ": 4033,
      "Ġ1300": 4034,
      "ĠØ³Ú¯ÙĩÙĬÙĨ": 4035,
      "ĠÙ¹ÛĮÚ©": 4036,
      "ĠØ«Ø¨ÙĪØª": 4037,
      "ĠØ¨Ø¬ÙĦÙĬ": 4038,
      "ĠØ¨Ø¬ÙĦÙĬØ¡": 4039,
      "ĠØŃØ³Ø§Ùħ": 4040,
      "ĠØ³Ú¾ÙħØª": 4041,
      "ĠÙĪØ³Ø§Ø±": 4042,
      "ĠÙĪØ³ÙĬØ¹": 4043,
      "ĠØ¨ÙĦÙĬÙĪ": 4044,
      "ĠÚĢØ±ÙĬÙĪ": 4045,
      "ĠØ³Ø§Ø¦ÙĨØ³ÙĬ": 4046,
      "ĠØªØ¹ÙĦÙĬÙħ": 4047,
      "ĠØ¨Ø§Ø¨ÙĦØ§": 4048,
      "ĠÚ¯Ø±Ø§Ùģ": 4049,
      "ĠØ´Ø±Ùħ": 4050,
      "ĠØ³Ø§ÚĢÙĬØ§ÙĨ": 4051,
      "ĠØªØ§Ø±ÛĮØ®": 4052,
      "ĠÙ½Ø§Ø¦ÙĬÙ¾": 4053,
      "ĠØ¹ÙĦÙħ": 4054,
      "ĠØ¹ÙĦØ§Ø¦": 4055,
      "ĠØ¹ÙĦØ§Ø¬": 4056,
      "ĠÙģÙĬØµÙĦØ§": 4057,
      "ĠÙħÙĪÙĤØ¹": 4058,
      "ÙĪÙĬÙĦØ§": 4059,
      "ĠÙħØ§ÙĦÚªÙĬ": 4060,
      "ĠØªÚ¾ÚĻÙĪ": 4061,
      "Ø§ÙĩØ±": 4062,
      "ĠØ¬Ø§ÙĨÛĴ": 4063,
      "ĠÙħÚĻØ¦ÙĬ": 4064,
      "ĠØ§ÙģÙĬÚªÙ½": 4065,
      "ĠØ¨Ú¾ØªØ±": 4066,
      "ĠÙĦØ§ÙĩÙĬ": 4067,
      "ĠØ§Ø´ØªÚ¾Ø§Ø±": 4068,
      "ĠØ±ÛģÛĴ": 4069,
      "ĠØ±ÛģØ§Ø¦Ø´": 4070,
      "ĠØ±Ú¾ÙĨØ¯Ø§": 4071,
      "ĠÚĨÙĬØ§Ø¦ÙĬÙĨ": 4072,
      "ĠÚ¯Ú¾Ø±ÙĬ": 4073,
      "Ú³ÙĪÙº": 4074,
      "ĠÙ¾ÚĻÚ¾ÙĬÙĦ": 4075,
      "ĠÛ¹": 4076,
      "Ø§ÙĬÚıÙĪ": 4077,
      "ĠØ¬Ø¯Øª": 4078,
      "ĠÙħØ±ÙĬØ®": 4079,
      "ĠÙħØ±ÙĬØ¶": 4080,
      "ĠÙĪØ§ÙĨÚ¯ÙĬ": 4081,
      "ĠØ¨ÙĬÙħØ§Ø±ÙĬÙĨ": 4082,
      "ĠÚĨÚĻÙĩÙĬ": 4083,
      "ĠÚıÙĪÙ¿ÙĬ": 4084,
      "ĠØ¯Ø¹Ø§Ø¦ÙĪÙĨ": 4085,
      "ĠÚªØ±Ø§ÚĨÙĬØ¡": 4086,
      "ĠØ³ÚĥØ§Ú»ÙĬ": 4087,
      "ĠÙħÙ½ÙĬØ¡": 4088,
      "ĠÙħÛĮØ±Ø§": 4089,
      "ĠÙħÛĮØ±ÛĮ": 4090,
      "ĠÙħÙĤØ¯Ø³": 4091,
      "ĠÙħÙĤØµØ¯": 4092,
      "ĠØ¢Ù¾Ø´ÙĨ": 4093,
      "ĠØ¢Ù¾Ø±ÙĬØ´ÙĨ": 4094,
      "ĠÙĪØ§ÙĦÛĮ": 4095,
      "ÛĮØ¯Ûģ": 4096,
      "ĠÙ»Ø±ÙĪÚĨÙĨ": 4097,
      "ĠÙ¾Ú¾Ø§ÚªÙĬ": 4098,
      "ĠØ¨ÚĨØ§Ø¦Ú»": 4099,
      "ĠØ§Ø³ÚªÙĪÙĦ": 4100,
      "Ġ20": 4101,
      "ĠØ¬Ø°Ø¨ÙĪ": 4102,
      "ĠÙħØ§Ø¦Ù½": 4103,
      "ĠÙħØ§Ø¦Ù½ÙĬ": 4104,
      "ĠÙħÚĥÚ»": 4105,
      "ÙħØ§Ø´Ø§Ø¡": 4106,
      "ĠØ¢Ø³ÙħØ§ÙĨ": 4107,
      "ĠØ¢Ø¦ÛĴ": 4108,
      "ĠØ¢Ø¦ÙĬÙĨØ¯": 4109,
      "ĠÙ¾ÛĮØ±": 4110,
      "ĠÚ©ÙĨÙĬÙĪ": 4111,
      "ĠÚĨØ±ÚĨØ§": 4112,
      "ĠÙ½Ø±Ø§ÙĨØ³": 4113,
      "ĠØªÙĨØ¸ÙĬÙħÙĨ": 4114,
      "ĠÙģÙĦØ³Ø·": 4115,
      "ĠØ§ÚªØ«Ø±ÙĬØª": 4116,
      "ĠÚıØ§ÚįÙĬ": 4117,
      "ĠÙģÙĤÙĬØ±ÙĨ": 4118,
      "ĠÚ©Ú»Ú»": 4119,
      "ĠÚ©Ø§Ø±Ø§Ø¦ÙĬÙĨØ¯ÙĪ": 4120,
      "ĠØ¨Ú»Ø¬ÙĬ": 4121,
      "ĠØ´ÙĬÙĨÚ¾ÙĨ": 4122,
      "ĠØ§Ø®ÙĦØ§ÙĤÙĬ": 4123,
      "ĠÙħØ®Ø§ÙĦÙģÙĨ": 4124,
      "ĠÙħÙĪÙĦÙĪÙĬ": 4125,
      "ÙħØŃØ¨": 4126,
      "ÙħØŃØªØ±Ùħ": 4127,
      "ĠÚªÙĬÙĨÙĩÙĬ": 4128,
      "ĠÙ¾ÛģÙĨ": 4129,
      "ĠØ§ÚªÙĬÙĦÙĬ": 4130,
      "Ù¾Ø§Ø±Ù¹": 4131,
      "ĠØ±Ø´ØªÙĪ": 4132,
      "ĠÚĨØ§ÙĨÚ¾": 4133,
      "ĠÚ¯Ø§ÚıÙĬ": 4134,
      "ÙĦÙĬÚªÙĬØ´ÙĨ": 4135,
      "ĠØ°Ú¾ÙĨÙĬ": 4136,
      "ĠÚĦØ§Ú»Ø§ÙĨ": 4137,
      "ĠÙĦÙĬÚ©ÙĬÙĪ": 4138,
      "ĠÚªØ§ÙĪÚĻØ¬ÙĬ": 4139,
      "ĠÙħØ§Ø³Úª": 4140,
      "ĠÙ¾Ø§Ùº": 4141,
      "ĠÙĨØµÙĬØ±": 4142,
      "ĠÚ¾ÙħÙĬØ´Ûģ": 4143,
      "ĠÚ¾Ø²Ø§Ø±": 4144,
      "ĠÙĤØ¯Ø±Øª": 4145,
      "ĠÙģØ§ÙĦÙĪÙĪ": 4146,
      "ĠÙģØ§ÙĦÙĪÙĪØ±": 4147,
      "ĠØ§ÙĬÙ¾ÙĦÙĬÚªÙĬØ´ÙĨ": 4148,
      "ĠÙ¾ÙĬÙ¾ÙĦØ§": 4149,
      "ĠÙ¾ÙĬÙ¾Ø³ÙĬ": 4150,
      "ĠÚ¾ÙĪÙĨØ¯Ø³": 4151,
      "ĠÚĮÙĪØ¦ÙĬ": 4152,
      "ĠÙĪØ§ÙĤØ¹Ø§": 4153,
      "ĠÙĪØ§ÙĤØ¹ÙĨ": 4154,
      "ĠØ§Ø±Ø¯ÙĪØ¡": 4155,
      "ĠÙĩØ§ÙĩØ§ÙĩØ§ÙĩØ§": 4156,
      "ĠÙĬÙĪÙĨÙĬÙĪØ±": 4157,
      "ĠØ¬ÙĩÙĨÚ¯ÙĦÙĬ": 4158,
      "ĠÙħÙĬÙħÚ»": 4159,
      "ÙħØ³ÚªÙĬ": 4160,
      "ĠÚªÙ¿Ø§": 4161,
      "ĠØ¢Ø±Ù½": 4162,
      "ĠÙĪÙģØ§ÙĤÙĬ": 4163,
      "Ø¨Ú¾ØªØ±ÙĬÙĨ": 4164,
      "ĠØ§ÙĨØ¯Ø§Ø²ÙĪ": 4165,
      "ĠØ¯ÛĮÚ©Ú¾ÛĮÚº": 4166,
      "ĠØ´Ø¯Øª": 4167,
      "ÚªØ±Ø§ÚĨÙĬ": 4168,
      "ĠÙ»ÚĮØ§ÙĬØ§ÙĨÙĪ": 4169,
      "Ù¸ÛĮ": 4170,
      "ĠØ³Ø±ÙĪØ³": 4171,
      "ĠÚªÙĩÚĻÙĬ": 4172,
      "ĠÚªÙĩÚĻØ§": 4173,
      "ĠÙ¾Ø§ÙĦÙĬØ³": 4174,
      "Ø¨Ø§Ø¨ÙĦØ§": 4175,
      "ĠØ¨Ú¾Ø±ØŃØ§ÙĦ": 4176,
      "ĠÚĨØ§ÛģÛĴ": 4177,
      "ĠÚ¯ÙĬÙ½Ø³": 4178,
      "ĠØ¹Ø±Ø¨ÙĬ": 4179,
      "ĠØ¹Ø±Ø¨ÙĬØ¡": 4180,
      "ĠØ¹Ø§Ø´ÙĤÙĨ": 4181,
      "ĠÛģÙħØ§Ø±ÛĴ": 4182,
      "ĠÙºØ§ÙĩÚ»": 4183,
      "ĠÚªØ§Ø±ÚªÙĨÙĨ": 4184,
      "ĠØ¬ÙĬÙĪØª": 4185,
      "ĠØ³Ø¬Ø§Ø¯": 4186,
      "ĠÙ¾Ú»Ú¾ÙĬÙĨ": 4187,
      "ĠÙ¾Ø§Ú©Ø³ØªØ§ÙĨ": 4188,
      "ĠÙĨÚĢØ§Ú³ÙĬ": 4189,
      "ĠØ¯ÙĬØ¯Ø§Ø±": 4190,
      "ĠÙĤØ¨Ø±Ø³ØªØ§ÙĨ": 4191,
      "ĠÙģØµÙĦ": 4192,
      "ĠÙģØµÙĦÙĨ": 4193,
      "ĠÚªØ±Ù¾Ù½": 4194,
      "ĠÚªØ±Ù¾Ø´ÙĨ": 4195,
      "ĠÚªÙħÙĬÙ½ÙĬ": 4196,
      "ĠÙĨØ¸Ø±ÙĬØ§ØªÙĬ": 4197,
      "ĠØ§ÙĨØªØ¸Ø§Ùħ": 4198,
      "ĠÙħØªØŃØ±Úª": 4199,
      "ĠØ¬ÙĩØ±ÚªÙĬ": 4200,
      "ĠÙģØ§Ø±ÙħÙĪÙĦØ§": 4201,
      "ĠØ³ÙĦØ³ÙĦÙĪ": 4202,
      "ĠÙħÚ»Ø´": 4203,
      "ĠÙħÙĬÙĪÙĪ": 4204,
      "ĠÙħÙºØ§Ø¦ÙĬ": 4205,
      "ĠÙħØ±ÙĪØ¬": 4206,
      "ĠÚªÙ¾ÚĻØ§": 4207,
      "ĠÙĨØªÙĬØ¬ÙĪ": 4208,
      "ĠÙĦØ¦ÙĨÚ¯Ø¦ÙĬØ¬": 4209,
      "Ù¾Ú¾Ø±ÙĬÙĨ": 4210,
      "ĠØ±Ø³ØªØ§": 4211,
      "ĠØ®Ø·Ø±ÙĨØ§Úª": 4212,
      "ĠØ¯Ø§Ø®ÙĦ": 4213,
      "ĠØ´ÙĨØ§Ø®": 4214,
      "ĠÙĤØ·Ø¹ÙĬ": 4215,
      "Ø§Ø³Ù¾ÙĬØ³": 4216,
      "ÚĢÙ½Ø§Ø¦ÙĬØ¡": 4217,
      "ĠØŃÚ©ÙĪÙħØª": 4218,
      "ĠØŃÚªÙħØ±Ø§ÙĨ": 4219,
      "ĠÙħÙĪØ¨Ø§Ø¦ÙĦ": 4220,
      "ĠØ³ÙĬÙĦÙģÙĬ": 4221,
      "ĠÙħÙĨØ§ÙģÙĤØª": 4222,
      "ĠÙħØŃØ¨ØªÙĪÙĨ": 4223,
      "ĠÚ¦ÙĪÙ½ÙĪ": 4224,
      "ĠÙħØ²Ø§ØŃÙħØª": 4225,
      "ĠÚªØ§ÙħÙĬØ§Ø¨ÙĬ": 4226,
      "ÙĨÙģØ³ÙĬ": 4227,
      "ÙħØ§Ú¾Ùħ": 4228,
      "ÙħÚĻØ¦ÙĬ": 4229,
      "ÙħØ°ÙĩØ¨": 4230,
      "ĠÚªØªØ¨": 4231,
      "ĠÚªÚĨÚ¾Ø±ÙĬÙĪÙĨ": 4232,
      "Ø³Ú¾Ú»ÙĬ": 4233,
      "Ø³ÙĨØ¯Ú¾": 4234,
      "ĠÙ¾ÙĦÙĬØ¬ÙĪ": 4235,
      "ĠÙ¾ÙĩØ§ÚªÙĪ": 4236,
      "ĠØªÚĻÙ¾": 4237,
      "ĠØ§ÙĬØ´ÙĬØ§": 4238,
      "ĠØ§ÙĬÙĨÚĬØ±Ø§Ø¦ÙĬÚĬ": 4239,
      "ĠÙĪØ§Ø³Ø·ÙĬ": 4240,
      "ĠÙĦØ§ÚĻÚª": 4241,
      "ĠØ±Ø§Ø´Ø¯ÙĬ": 4242,
      "ĠÚıÚ¾Ø§ÚĻÙĬ": 4243,
      "ĠÙ»Ø§Ø¬ÙĩÛģ": 4244,
      "ĠØ¹ÙĪØ§Ùħ": 4245,
      "ĠØ¹Ø±ÙģØ§ÙĨ": 4246,
      "ĠÙģØ§Ø¦Ø¯ÙĪ": 4247,
      "ĠÛģÙĪÙĨÛĴ": 4248,
      "ĠÙĪÙĬØ±ÙĬÙģØ§Ø¡": 4249,
      "ĠÙģØ±ÙħØ§Ø¦Ø´": 4250,
      "ĠÛ²Û": 4251,
      "ĠÙħØ§Ø¯Ø§Ùħ": 4252,
      "Ø¯Ø§ÙĦÙħØ§Ø¬Ø¯": 4253,
      "ĠØ¢Ø¦ÙĪÙ½": 4254,
      "ĠÙ¾Ú¯ÙĩØ§Ø±": 4255,
      "ĠÙĪØ§Ú»ÙĬÙĬ": 4256,
      "ĠØ¨ÙĨÙĬØ§Ø¯": 4257,
      "Ú©Ø±Ø§ÚĨÛĮ": 4258,
      "Ù¾Ø§ÚªØ³ØªØ§ÙĨ": 4259,
      "ĠØ®Ø§Ø·Ø±": 4260,
      "ĠØ¯Ø§Ø¦ÙĪØ¯": 4261,
      "ĠØ§ÙĪÙħÙ¾Ø§": 4262,
      "ĠÙĤØ±Ø¢ÙĨ": 4263,
      "ĠÚ³ÙĨÚĢÙĬØ±": 4264,
      "ĠÚĬÙĬÙ½Ø§": 4265,
      "ĠÚĬÙ¾Ø§Ø±Ù½ÙħÙĬÙĨÙ½": 4266,
      "ĠØ²ÙĪÙħØ¨": 4267,
      "ĠØ§ÙĦÙģØ§Ø¨ÙĬÙ½": 4268,
      "ĠØ§ØªØ±Ø§ÚĮÚ»": 4269,
      "ĠÙ¾Ø±ÙĪÙ¾ÙĬÚ¯ÙĨÚĬØ§": 4270,
      "ĠÙĬÙĪÙĨÙĬÙĪØ±Ø³Ù½ÙĬØ¡": 4271,
      ",ï¸ı": 4272,
      ".\"": 4273,
      "29": 4274,
      "¡Ù": 4275,
      "·Ø§ÙĨ": 4276,
      "¸ÙĩØ§Ø±": 4277,
      "Ùĸ": 4278,
      "Ú¦": 4279,
      "Ú¦ÙĬ": 4280,
      "Û³": 4281,
      "ĠØ§Ø¦ÙĬ": 4282,
      "ĠâĢľ": 4283,
      "ĠØ§Ø¦Ù¾": 4284,
      "Ø§ÙĬØ³": 4285,
      "Ø§ÚĨÙĬ": 4286,
      "Ø§ÙĬÙħ": 4287,
      "Ø§ÛĮÚ©": 4288,
      "ÙĬØ¦": 4289,
      "ÙĬØ±ÙĬ": 4290,
      "ÙĬÙģ": 4291,
      "ÙĬØ§Ø³": 4292,
      "ÙĬØ§Ø¡": 4293,
      "ÙĬØªÙĬ": 4294,
      "ÙĬÙĦØ§": 4295,
      "ÙĬÙĤÙĬÙĨ": 4296,
      "ÙĬØ¦Ùħ": 4297,
      "ÙĬÙģÙ½": 4298,
      "ĠØ¦": 4299,
      "ÙĨÙĨ": 4300,
      "ÙĨØ§Ú¾": 4301,
      "ÙĨÙĬÙĪ": 4302,
      "ÙĨÙ½": 4303,
      "ÙĨÙĨÚį": 4304,
      "ÙĨØ¬Ùĩ": 4305,
      "ÙĨØ§ÙĨÚ¾ÙĨ": 4306,
      "ÙĨØ¸Ø±": 4307,
      "ÙĨÚĪÛĮ": 4308,
      "ÙĪÚ¾": 4309,
      "ÙĪØ§ÙĨ": 4310,
      "ÙĪÛģ": 4311,
      "ÙĪÙ½": 4312,
      "ÙĪÚĬ": 4313,
      "ÙĪØ§Ø±ÙĬ": 4314,
      "ÙĪÙĬØ³": 4315,
      "ÙĪÚªÙĪ": 4316,
      "ÙĪØ§ÙĤ": 4317,
      "ÙĪÙĬÙĦ": 4318,
      "ÙĪÙºÙĪ": 4319,
      "ÙĪØ¬ÙĪØ¯": 4320,
      "ÙĪØ§Ûģ": 4321,
      "ÙĪÙĦÙĬØ§ØªÙĬ": 4322,
      "ĠÚĥ": 4323,
      "Ø±Ø§Ú¾": 4324,
      "Ø±Ø¬": 4325,
      "Ø±ÚĻÙĪ": 4326,
      "Ø±Ø¯ÙĬ": 4327,
      "Ø±ØªØ§": 4328,
      "Ø±ÛĮÙĨ": 4329,
      "Ø±ÙĨØ¯ÚĻ": 4330,
      "Ø±Ø§Ø¹": 4331,
      "Ú¾Ú¾": 4332,
      "Ú¾Ø¯": 4333,
      "Ú¾Ø¨": 4334,
      "ÙĦÙĬÙĨ": 4335,
      "ÙĦÙĩÙĬ": 4336,
      "ÙĦÙĬÙĪÙĨ": 4337,
      "ÙĦØ§Ø³": 4338,
      "ÙĦÙĬØ´ÙĨ": 4339,
      "ÙĦÙĬÙĨØ¯Ø§": 4340,
      "ÙĦÚĢÙĬ": 4341,
      "ÙĦÙĬØ¸": 4342,
      "Ø§ÙĨÚĮ": 4343,
      "Ø§ÙĨÚĬ": 4344,
      "Ø§ÙĨÚĬÙĬØ§": 4345,
      "Ø§ÙĨÚĬÙĪ": 4346,
      "Ø§ÙĨÙ½Ùħ": 4347,
      "ĠØ¬ÙĬÙĨ": 4348,
      "ĠØ¬Ûģ": 4349,
      "ĠØ¬ÚĻ": 4350,
      "ĠØ¬Ø§ÙĦ": 4351,
      "ĠØ¬Ø§Ø¨": 4352,
      "ĠØ¬Ø¯ÙĪ": 4353,
      "ĠØ¬Ú¯Ø±": 4354,
      "ĠØ¬ÙħÙĬ": 4355,
      "ĠØ¬ÙħØ§ÙĦ": 4356,
      "ĠØ¬Ø§ØªØ§": 4357,
      "ĠØ¬Ø§ØªÛĴ": 4358,
      "ĠØ³Ùĩ": 4359,
      "ĠØ³Ùģ": 4360,
      "ĠØ³Ú³": 4361,
      "ĠØ³Ø§Ø¯": 4362,
      "ĠØ³ÙĬØ¡": 4363,
      "ĠØ³ÙĪÙĦ": 4364,
      "ĠØ³ÙĬØ³": 4365,
      "ĠØ³Ø§ÙĪ": 4366,
      "ĠØ³ÚĻÙĪ": 4367,
      "ĠØ³ÙĬØ²": 4368,
      "ĠØ³Ø§Ø¦Ú»": 4369,
      "ĠØ³ÛĮÙĨ": 4370,
      "ĠØ³Ø³Ù½": 4371,
      "ĠØ³ØªØ§Ø¨": 4372,
      "ĠØ³Ù¾ÙĪØ±": 4373,
      "ĠØ³Ú±": 4374,
      "ĠØ³Ø§Ø±ÙĬÙĨ": 4375,
      "ĠØ³ÚªÙĪÙĨ": 4376,
      "ĠØ³ÚĮØ§Ø±": 4377,
      "ĠØ³ÙĩÙĬÙĦ": 4378,
      "ĠØ³ÚĻÚ»": 4379,
      "ĠÙħØ¯": 4380,
      "ĠÙħÙĬÙĪÙĨ": 4381,
      "ĠÙħÙĬØ§Ø±": 4382,
      "ĠÙħØ§Ø±ÙĬ": 4383,
      "ĠÙħØ³ÙĬ": 4384,
      "ĠÙħÚ©ÙĬ": 4385,
      "ĠÙħÚ¾Ø±": 4386,
      "ĠÙħØ¬Ø§": 4387,
      "ĠÙħÙĬØ²": 4388,
      "ĠÙħØ§Ø¶": 4389,
      "ĠÙħØ¯Ø±": 4390,
      "ĠÙħØ§Ø³ÙĬ": 4391,
      "ĠÙħØ§Ø±ÙĪ": 4392,
      "ĠÙħØªÙĨ": 4393,
      "ĠÙħÙºÙĪ": 4394,
      "ĠÙħØ§Ø¦ÙĬØ¡": 4395,
      "ĠÙħØ§Ú¾Ø±": 4396,
      "ĠÙħÙĬØ¯ÙĬ": 4397,
      "ĠÙħØ¬Ú¾ÛĴ": 4398,
      "ĠÙħÙħØªØ§Ø²": 4399,
      "ÙħÙħ": 4400,
      "ÙħÙĤ": 4401,
      "ÙħØ§Ø¡": 4402,
      "ÙħØªÙĬ": 4403,
      "ÙħØ·": 4404,
      "ÙħÙĦÚ©": 4405,
      "ÙħØ¨Ø§Ø±": 4406,
      "ÙħÙĪÙĦØ§": 4407,
      "ÙħØ´Øª": 4408,
      "ÙħØ§Ø¦ÙĬÚª": 4409,
      "ÙħØ¬Ú¾ÛĴ": 4410,
      "Ø§Ú¾Ú¾Ø§": 4411,
      "Ø§Ú¾Ø±ÙĬÙĨ": 4412,
      "ÙĬÙĨØ³": 4413,
      "ÛģØ§": 4414,
      "ÛģØ±ÙĪÚº": 4415,
      "ĠÚªÚĻ": 4416,
      "ĠÚªÚ©": 4417,
      "ĠÚªÙĪØ±": 4418,
      "ĠÚªØ´": 4419,
      "ĠÚªØ§Ø¨": 4420,
      "ĠÚªÙĨÚĮ": 4421,
      "ĠÚªÙº": 4422,
      "ĠÚªØªÙĬ": 4423,
      "ĠÚªÚ¾ÙĪ": 4424,
      "ĠÚªÙĬÚª": 4425,
      "ĠÚªÚĨÙĬ": 4426,
      "ĠÚªÙĦØ§Ùħ": 4427,
      "ĠÚªÙĬÙĨÚĬ": 4428,
      "ĠÚªÙĦÙĬÙħ": 4429,
      "Ø³ÙĦ": 4430,
      "Ø³Ú»": 4431,
      "Ø³Ø±ÙĬ": 4432,
      "Ø³Ú©": 4433,
      "Ø³ÙĨÚ¯": 4434,
      "Ø³Ø±ÙĬÙĨ": 4435,
      "Ø³ÛĮÙĨ": 4436,
      "Ø³Ø§Ø¦ÙĨ": 4437,
      "Ø³ÚĨÙĪ": 4438,
      "Ø³ÙºÙĬ": 4439,
      "Ø³ÙģØ±": 4440,
      "Ø³Ø¹ÙĬØ¯": 4441,
      "Ø³ÙĦÙĬÙħ": 4442,
      "Ø³Ù¹Ø±ÛĮ": 4443,
      "Ø³Ø§Ø¦Ù½ÙĬØ¡": 4444,
      "Ø¯Ú¾": 4445,
      "Ø¯Ø§ÙĨ": 4446,
      "Ø¯Ú©": 4447,
      "Ø¯Ø¦ÙĬ": 4448,
      "Ø¯ÙĬÙĪÙĨ": 4449,
      "Ø¯Ø§Ø¨": 4450,
      "Ø¯ÙĬØ±": 4451,
      "Ø¯Ø´Øª": 4452,
      "Ø¯Ø´ÙħÙĨ": 4453,
      "Ø¯ÙĤØ§": 4454,
      "Ø¯Ø¹ÙĪØª": 4455,
      "ÙĩÙħ": 4456,
      "ÙĩÙ¾": 4457,
      "ÙĩØ§Ø¨": 4458,
      "ÙĩÙĦØ§": 4459,
      "ÚªØª": 4460,
      "ÚªØ§ÙĦ": 4461,
      "ÚªØªÙĬ": 4462,
      "ÚªØ§Ø´": 4463,
      "ÚªÙĨØ¯ÚĻ": 4464,
      "ÚªÚ¾ÚĻÙĬ": 4465,
      "ĠØ¢ÙĦ": 4466,
      "ĠØ¢Ø¨": 4467,
      "ĠØ¢Ù¿": 4468,
      "ĠØ¢ÚĢ": 4469,
      "ĠØ¢Ø¡": 4470,
      "ĠØ¢ÙĨØ¯ÙĪ": 4471,
      "ĠØ¢Ø³Ùħ": 4472,
      "ĠØ¢ÙĬÙħ": 4473,
      "ĠØ¢Ø¯Ø±": 4474,
      "ĠØ¢ÙĬÙĦ": 4475,
      "ĠØ¢Ú±": 4476,
      "ĠØ¢ÙĨÛĴ": 4477,
      "ĠØ¢ÙĤØ§": 4478,
      "ĠØ¢ÙĬØ¦ÙĪ": 4479,
      "ĠØ¢ÙĬØªÙĪÙĨ": 4480,
      "ĠØ¢Ø¯Ø§Ø¨": 4481,
      "ĠÙ¾ÚĨ": 4482,
      "ĠÙ¾ÙĬÙĪÙĨ": 4483,
      "ĠÙ¾ÙĬØ¡": 4484,
      "ĠÙ¾Ø§Ø¡": 4485,
      "ĠÙ¾Ø¦ÙĪ": 4486,
      "ĠÙ¾ÙĬÚª": 4487,
      "ĠÙ¾Ø®": 4488,
      "ĠÙ¾ÙĨÙĬ": 4489,
      "ĠÙ¾Ø³Ùħ": 4490,
      "ĠÙ¾Ø°": 4491,
      "ĠÙ¾Ù¾ÙĪ": 4492,
      "ĠÙ¾Ø§ÚĻÙĬ": 4493,
      "ĠÙ¾Ø§Ø¦ÙĪ": 4494,
      "ĠÙ¾ÚĦÙĬ": 4495,
      "ĠÙ¾Ø§ÚĻ": 4496,
      "ĠÙ¾Ø³ØªÙĬ": 4497,
      "ĠÙ¾Ú¯Ú¾Ø±": 4498,
      "ĠÙ¾ÙĩØ±ÙĬÙĨ": 4499,
      "..ï¸ı": 4500,
      "ØªÚĻ": 4501,
      "ØªØ¨Ø±": 4502,
      "ØªÙĨØ§": 4503,
      "ØªØµÙĪ": 4504,
      "ØªÙĨÚ¾ÙĨØ¬ÙĪ": 4505,
      "ØªÙħØ§Ùħ": 4506,
      "ĠØªØ¯": 4507,
      "ĠØªØ±ÙĬ": 4508,
      "ĠØªØ§ÙĦ": 4509,
      "ĠØªÙ¾": 4510,
      "ĠØªØ§Ø¨": 4511,
      "ĠØªÙĢ": 4512,
      "ĠØªØ¹ÙĪ": 4513,
      "ĠØªØ¨ÙĦ": 4514,
      "ĠØªÙĨÚ¾ÙĨØ¬Ø§": 4515,
      "ĠØªØ§Úĥ": 4516,
      "ĠØªÚªÚĻÙĬ": 4517,
      "ĠØªØ³ÙĦÙĬÙħ": 4518,
      "Ø§Ø¦Ø¬ÙĪ": 4519,
      "Ø§Ø¦ØªÙĪ": 4520,
      "Ø§Ø¦ØªØ§": 4521,
      "Ø§Ø¦ÚªÙĨ": 4522,
      "Ø§Ø¦ÙĬÙĪØ²": 4523,
      "ĠØ§ÙĬÙĪ": 4524,
      "ĠØ§ÙĦÙĬ": 4525,
      "ĠØ§Ù½ÙĬ": 4526,
      "ĠØ§Ù½ÙĪ": 4527,
      "ĠØ§Ù½ÙĬÙĨ": 4528,
      "ĠØ§Ù»ÙĪ": 4529,
      "ĠÙĪÚ¾ÙĨ": 4530,
      "ĠÙĪÚ©": 4531,
      "ĠÙĪÙĦÙĬ": 4532,
      "ĠÙĪÚªÙĬ": 4533,
      "ĠÙĪØ³Øª": 4534,
      "ĠÙĪÙĬÚª": 4535,
      "ĠÙĪÙĬØ¯": 4536,
      "ĠÙĪØ³ÙĬ": 4537,
      "ĠÙĪØ§Ú³": 4538,
      "ĠÙĪØ¦ÙĬÙĨ": 4539,
      "ĠÙĪØ±Ø¯": 4540,
      "ĠÙĪØ±ÙĨ": 4541,
      "ĠÙĪÚĦÙĬ": 4542,
      "ĠÙĪØªØ§ÙĨ": 4543,
      "ĠÙĪØ§Ø¦ÙĦ": 4544,
      "ĠÙĪØ§Ø¦Ø±": 4545,
      "ĠÙĪÙĬÙĨÚ¯": 4546,
      "ĠÙĪØ§ØŃØ¯": 4547,
      "ĠÙĪÙĨØ¬Ùĩ": 4548,
      "ĠÙĪÙĩØ§Ø¨": 4549,
      "Ú»ÙĬÙĪÙĨ": 4550,
      "Ø¬ÙĦ": 4551,
      "Ø¬Ú»": 4552,
      "Ø¬ÙĬÙĪ": 4553,
      "Ø¬ÙĬÙĪÙĨ": 4554,
      "Ø¬Ø§Ùħ": 4555,
      "Ø¬Ø±ÙĪ": 4556,
      "Ø¬Ø§ÙĪ": 4557,
      "Ø¬ÙĩÛģ": 4558,
      "Ø¬ÙĨÚ¯": 4559,
      "Ø¬ÙĩØ§ÙĨ": 4560,
      "Ø¬Ø§Ú³": 4561,
      "Ø¬Ø³ÙĬÙĨ": 4562,
      "ÙĬÙĪØ³ÙĬ": 4563,
      "ÙĬÙĪÙħÙĬÙĨÙ½": 4564,
      "ĠÚ©Ú¾": 4565,
      "ĠÚ©Ø¨": 4566,
      "ĠÚ©ÚĻ": 4567,
      "ĠÚ©ÙĪÙĨ": 4568,
      "ĠÚ©Ø§ÙĦ": 4569,
      "ĠÚ©Ù¾": 4570,
      "ĠÚ©ÙĦÙĬ": 4571,
      "ĠÚ©Ø³ÙĬ": 4572,
      "ĠÚ©Ø§ØªÙĬ": 4573,
      "ĠÚ©ÚĨÚ¾": 4574,
      "ĠÚ©ÙħÙ¾": 4575,
      "ĠÚ©Ù½ÙĬÙĪ": 4576,
      "ĠÚ©Ú¾ÚĻÙĬ": 4577,
      "Ø¨Ø¯": 4578,
      "Ø¨Ù½": 4579,
      "Ø¨Ø§ÙĦ": 4580,
      "Ø¨Ø¦ÙĬ": 4581,
      "Ø¨ÙĨØ¯": 4582,
      "Ø¨Ø§Ø¦ÙĬ": 4583,
      "Ø¨ÙĬÚª": 4584,
      "Ø¨Ø§ÙĨÙĬ": 4585,
      "Ø¨Ú¾Ø±": 4586,
      "Ø¨ØªØ±": 4587,
      "Ø¨ØªØ§": 4588,
      "ĠØ¨ÚĮ": 4589,
      "ĠØ¨ÙĪØ±": 4590,
      "ĠØ¨ÛĴ": 4591,
      "ĠØ¨Ú¾Ø§ÙĨ": 4592,
      "ĠØ¨Ú¾ÙĪ": 4593,
      "ĠØ¨Ø§ÙĪ": 4594,
      "ĠØ¨Ú¾Ø§": 4595,
      "ĠØ¨Ø¦ÙĨ": 4596,
      "ĠØ¨Øº": 4597,
      "ĠØ¨ÙĦÚ©": 4598,
      "ĠØ¨Ú¾ÙĦ": 4599,
      "ĠØ¨ÚĨØ§": 4600,
      "ĠØ¨ÙĨÛĮ": 4601,
      "ĠØ¨Ø±ÙĬÚª": 4602,
      "ĠØ¨ÙĦÙĬÚª": 4603,
      "ĠØ¨ÙĬØ³Ù½": 4604,
      "ĠØ¨Ø§Ø¦ÙĬÚª": 4605,
      "ĠØ¨Ø·ÙĪ": 4606,
      "ĠØ¨Ø°Ø§Øª": 4607,
      "ĠØ¨ÚĳÛĮ": 4608,
      "ĠØ¨ÙĬØ²Ø§Ø±": 4609,
      "ĠÙĨÚ©": 4610,
      "ĠÙĨÚ¯": 4611,
      "ĠÙĨÙĬØ±": 4612,
      "ĠÙĨÚªÙĦ": 4613,
      "ĠÙĨØ§ÙĤ": 4614,
      "ĠÙĨØ®": 4615,
      "ĠÙĨÚĨÙĬ": 4616,
      "ĠÙĨÙĬÙħ": 4617,
      "ĠÙĨØ¦ÙĬÙĨ": 4618,
      "ĠÙĨÙħÙĬ": 4619,
      "ĠÙĨØ´ÙĬ": 4620,
      "ĠÙĨØ§ÙĨØ§": 4621,
      "ĠÙĨØ§ÙĨÛĮ": 4622,
      "ĠÙĨÚ¯Ú¾": 4623,
      "ĠÙĨÙĬÙĨÚ¾ÙĨ": 4624,
      "ĠÙĨØ¬ÙĪÙħÙĬ": 4625,
      "Ø§Ø±Ùģ": 4626,
      "Ø§Ø±ÛĴ": 4627,
      "Ø§Ø±Ø³Ø·ÙĪ": 4628,
      "ĠØ¬ÙĬÙĦ": 4629,
      "ĠØ¬ÙĬØ¦": 4630,
      "ĠØ¬ÙĬÚıÙĬ": 4631,
      "ĠØ¬ÙĬØªØ±Ø§": 4632,
      "ĠÚ¾ÙĬÙĨ": 4633,
      "ĠÚ¾Ø¦": 4634,
      "ĠÚ¾Ø´": 4635,
      "ĠÚ¾Ø§Ø¦ÙĬ": 4636,
      "ĠÚ¾Ø§Ø³": 4637,
      "ĠÚ¾ÙĦÙĪ": 4638,
      "ĠÚ¾Ø§Ú¾Ø§Ú¾Ø§": 4639,
      "ĠÚ¾ÙĨØ¯ÙĬ": 4640,
      "ĠÚ¾Ø±ÙĪÚĢ": 4641,
      "ĠÚ¾Ø§Ø¦Ù¾Ø±": 4642,
      "Ø¦ØªÙĬ": 4643,
      "Ø¦Ù½Ø±": 4644,
      "Ø¦ÛĮÚº": 4645,
      "Ø¦Ø³ÙĬ": 4646,
      "Ø¦ÚĻÙĨ": 4647,
      "Ú¾ÙĨÙĨ": 4648,
      "Ú¾ÙĨÙ¹ÛĴ": 4649,
      "Ú¾ÙĨÙĬÙĦØ§": 4650,
      "Ù½Ø±ÙĬ": 4651,
      "Ù½ÙĪÙĨ": 4652,
      "Ù½ÚªÙĪ": 4653,
      "Ù½ÙĬØ²": 4654,
      "Ù½ÙħØ§": 4655,
      "ÛĮØª": 4656,
      "ÛĮØ¨": 4657,
      "ÛĮØ§ÙĦ": 4658,
      "ÛĮØŃ": 4659,
      "ÛĮØ§Ø¯": 4660,
      "ÛĮÙ¹Ø±": 4661,
      "ÛĮØ´Øª": 4662,
      "ÛĮØµØ¯": 4663,
      "Ø§Ø¦ÙĬÙĨØ¯ÚĻ": 4664,
      "ØĮØĮ": 4665,
      "âĢį": 4666,
      "âĢĺ": 4667,
      "ĠÙ¿ÙĦ": 4668,
      "ĠÙ¿Ùħ": 4669,
      "ĠÙ¿Ø³": 4670,
      "ĠÙ¿Ø¬ÙĪ": 4671,
      "ĠÙ¿ÚªÙĬ": 4672,
      "ĠÙ¿ÚĮÙĪ": 4673,
      "ĠÙ¿ÚĮÙĬ": 4674,
      "ĠÙĦØ§Ø¦": 4675,
      "ĠÙĦÚ¾ÙĬ": 4676,
      "ĠÙĦØ§ÙĦ": 4677,
      "ĠÙĦÙĤ": 4678,
      "ĠÙĦØ¦ÙĬ": 4679,
      "ĠÙĦÙĩÙĬ": 4680,
      "ĠÙĦØ´": 4681,
      "ĠÙĦØ§Ø¦ÙĬ": 4682,
      "ĠÙĦØŃ": 4683,
      "ĠÙĦÙĬÚª": 4684,
      "ĠÙĦÚĩ": 4685,
      "ĠÙĦÛĮÚº": 4686,
      "ĠÙĦØ§Ø²": 4687,
      "ĠÙĦØ°": 4688,
      "ĠÙĦÛĮØ§": 4689,
      "ĠÙĦØ§Ù¾": 4690,
      "ĠÙĦÚ¯ÙĬ": 4691,
      "ĠÙĦÙħØ¨Ø±": 4692,
      "ĠÙĦÙĬÙĪÙĦ": 4693,
      "Ø±ÙĬÙħ": 4694,
      "Ø±ÙĬØ§Ø¶": 4695,
      "Ø±ÙĬØ¨ÙĨ": 4696,
      "ÚĻÙĪÙĨ": 4697,
      "ÚĻÙĩÙĬ": 4698,
      "ÚĻÙĩÙĪ": 4699,
      "ÚĻØ§ÙĦÙĬ": 4700,
      "ÚĻÙĩÙĬØ¡": 4701,
      "ÙĪÙĨÙ½": 4702,
      "ÙĪÙĨÛĮ": 4703,
      "ÙĪÙĨÚ¯Ø§Ø±": 4704,
      "Ø§ÙĦØ§": 4705,
      "Ø§ÙĦØŃ": 4706,
      "Ø§ÙĦØ§Úª": 4707,
      "Ú©Ø¬ÙĬ": 4708,
      "Ú©Ú»ÙĬ": 4709,
      "Ú©Ù¹ÛĮ": 4710,
      "Ú©Ø¨Ú¾ÛĮ": 4711,
      "ĠØ§Ø«Ø±": 4712,
      "ĠØ§Ø¸ÙĩØ§Ø±": 4713,
      "ÙģØ±ÙĬ": 4714,
      "ÙģØ·": 4715,
      "ÙģØ±Ø¯": 4716,
      "ÙģØ§ÙĦÙĪ": 4717,
      "ÙģÙ½ÙĨ": 4718,
      "ÙģÙĦØ³": 4719,
      "ÙģÙĬÙĪØ²": 4720,
      "ÙģÙĬÙĪÙħ": 4721,
      "ÙģÙĪØ±Ø³": 4722,
      "Ù¾Ù½": 4723,
      "Ù¾Ø±ÙĬ": 4724,
      "Ù¾ÙĬØ§": 4725,
      "Ù¾Ø§Ø¦ÙĬ": 4726,
      "Ù¾ÙĦÙĬ": 4727,
      "Ù¾ÚĬ": 4728,
      "Ù¾ÙĬØ±": 4729,
      "Ù¾ÙĪÙĦ": 4730,
      "Ù¾ÙĬÙ½": 4731,
      "Ù¾ØªÛģ": 4732,
      "Ù¾ÙħÙĬÙĨÙ½": 4733,
      "Ù¾ÙħØ´ÙĪ": 4734,
      "Ù¾Ø¦Ø³ÙĬ": 4735,
      "ÙĤÙĤ": 4736,
      "ÙĤÛĴ": 4737,
      "ÙĤØ§Øª": 4738,
      "ÚıØ§ÙĨÙĩÙĨ": 4739,
      "ĠØ±ÙĦ": 4740,
      "ĠØ±Ø§Ø¦ÙĬ": 4741,
      "ĠØ±ÙĬØ³": 4742,
      "ĠØ±ÙĬÙĦ": 4743,
      "ĠØ±ÙģØª": 4744,
      "ĠØ±ÙĬØ®": 4745,
      "ĠØ±Ø¨ÙĨ": 4746,
      "ĠØ±ÙĨØ¬": 4747,
      "ĠØ±ÚĻÙĬÙĪÙĨ": 4748,
      "ĠØ±Ø§ÙĬØ§": 4749,
      "ĠØ±ÙĤÙħ": 4750,
      "ĠØ±Ù¾ÙĬØ§": 4751,
      "ĠØ¬ÙĪØ§ÙĨ": 4752,
      "ĠØ¬ÙĪØ¡": 4753,
      "ĠØ¬ÙĪÚ»ÙĬ": 4754,
      "ĠØ¬ÙĪÚĮÙĨ": 4755,
      "ÚĮØ§Ø±ÙĬÙĨ": 4756,
      "ÚĮØ±ØªÙĬ": 4757,
      "ĠØ§ÙĨÚĬ": 4758,
      "ĠØ§ÙĨÚĪ": 4759,
      "ĠØ§ÙĨÚĮÙĪ": 4760,
      "ĠØ§ÙĨÚĮÙĬ": 4761,
      "ĠØ§ÙĨÚĬÙĪ": 4762,
      "ĠØ§ÙĨÚ©Ø§Ø±": 4763,
      "ĠØ§ÙĨÙ½Ø±ÙĪ": 4764,
      "Ø¬ÙĬÚªØ§": 4765,
      "Ø¬ÙĬØªØ±ÙĪ": 4766,
      "Ø¬ÙĬÚ»Ø§": 4767,
      "Ø¬ÙĬØ³ØªØ§Ø¦ÙĬÙĨ": 4768,
      "Ú¯Ø±ÙĪ": 4769,
      "ĠÚĨÙĦ": 4770,
      "ĠÚĨØ§Ú¾ÙĬ": 4771,
      "ĠÚĨÚªÙĪ": 4772,
      "ĠÚĨÚ¾Ø±": 4773,
      "ĠÚĨØ±ÙĬÙĨ": 4774,
      "ĠÚĨÙĨØ§": 4775,
      "ĠÚĨÙĬÙħ": 4776,
      "ĠÚĨÙĨÚĬ": 4777,
      "ĠÚĨØ§ÙĦÙĬ": 4778,
      "ĠÚĨØ§ÚĻ": 4779,
      "ĠÚĨØ§Ù¾": 4780,
      "ĠÚĨØ§ÙĨØ¯": 4781,
      "ĠÚĨÙ½ÙĬÙĨ": 4782,
      "ĠÚĨÛĮØ±": 4783,
      "ĠÚĨØ§ÚĨ": 4784,
      "ĠÚĨØ§ÙĦØ§Úª": 4785,
      "ÙĬØ·Ø§ÙĨ": 4786,
      "ÙİØŁ": 4787,
      "Ùİ....": 4788,
      "ĠÚıÙĬØ³": 4789,
      "ĠÚıØ§Úª": 4790,
      "ĠÚıØ¨ÙĪ": 4791,
      "ĠÚıØ§ÚĻ": 4792,
      "ĠÚıØ§Ú¾Ø±": 4793,
      "ĠÚıÙĬØ§Ø±ÙĬ": 4794,
      "ĠÚıØ¬Ø§ÙĨ": 4795,
      "ĠÚıØ§ÙĨÙĩÙĨ": 4796,
      "ĠÚıÙĨÚĬÙĪ": 4797,
      "ĠÚ¯Ø§Ø¦ÙĬ": 4798,
      "ĠÚ¯ÙĪÙĦ": 4799,
      "ĠÚ¯ÙĬØª": 4800,
      "ĠÚ¯ÙĬØ§ÙĨ": 4801,
      "ĠÚ¯ÙģØª": 4802,
      "ĠÚ¯Ø§ÙĨÙĪ": 4803,
      "ĠÚ¯Ø§ÙĨØ§": 4804,
      "ĠÚ¯ÙĪØ±ÙĨ": 4805,
      "ĠÚ¯Ø¦ÛĴ": 4806,
      "ĠÚ¯ÙĬØ³Ù½": 4807,
      "ĠÚ¯ÙĨÚĬÙĬ": 4808,
      "ĠÚ¯ÙĬØ¯ÙĬ": 4809,
      "ĠÚ¯Ø¨ÙĪÙĦ": 4810,
      "ĠÚ¯ÙĪØ±ÙĬÙĪÙĨ": 4811,
      "ĠÚ¯Ú¾ÙĨÙ¹ÛĴ": 4812,
      "ĠÙ»Ùĩ": 4813,
      "ĠÙ»Ù½": 4814,
      "ĠÙ»ÙĬÙĪÙĨ": 4815,
      "ĠÙ»ÙĬÚª": 4816,
      "ĠÙ»ÙĨÙĬ": 4817,
      "ĠÙ»Ø§ÙĨÙĩÙĨ": 4818,
      "ĠÙ»ÚªØ±ÙĬÙĨ": 4819,
      "ĠÙ»Ø§ÙĩØ±": 4820,
      "ĠÙ»Ø±ÚĻÙĪ": 4821,
      "ÚĨÙĦ": 4822,
      "ÚĨÚ¾ÙĪ": 4823,
      "ÚĨÚĻØ§": 4824,
      "ÚĨØªØ§": 4825,
      "ÚĨØ§Ø±ÙĪ": 4826,
      "ÚĨØ§Ø±Ú»": 4827,
      "ÙĨØ¯Ø¦ÙĬ": 4828,
      "Ø¹Ûģ": 4829,
      "Ø¹Ø¨": 4830,
      "Ø¹ÙĪÙĨ": 4831,
      "Ø¹ØªÙĬ": 4832,
      "Ø¹ÙĪØ±Øª": 4833,
      "Ø¹Ø§ÙĦÙħ": 4834,
      "Ø¹ÙĤÙĦ": 4835,
      "Ø¹Ø¬ÙĬØ¨": 4836,
      "Ø¹ÙĦÙĤ": 4837,
      "Ø¹Ø§ÙĦÙĨ": 4838,
      "Ø¹ÙĪØ±ØªÙĨ": 4839,
      "ĠÙĩØ§ÙĨ": 4840,
      "ĠÙĩÙĬÙĨ": 4841,
      "ĠÙĩÚ»": 4842,
      "ĠÙĩØ²": 4843,
      "ĠÙĩÚ»ÙĬ": 4844,
      "ĠÙĩÙĬÙħ": 4845,
      "ĠÙĩÚ»ÙĪ": 4846,
      "ĠÙĩÙĬØ±ÙĪ": 4847,
      "ĠÙĩØªØ§ÙĨ": 4848,
      "ĠÙĩÙĦØ§ÙĬÙĪ": 4849,
      "ĠÙĩØ±ÙĪÚĢØ±ÙĪ": 4850,
      "ĠÙĩØ¬Ú»": 4851,
      "ĠØ®Ø¯": 4852,
      "ĠØ®ÙĪØ±": 4853,
      "ĠØ®ÙĦÙĪ": 4854,
      "ĠØ®ØªÙĨ": 4855,
      "ĠØ®ÙħØ§Ø±": 4856,
      "ĠØ®ÛĮØ±": 4857,
      "ĠØ®ÙģØªÙĬ": 4858,
      "ĠØ®ÛĮØ§ÙĦ": 4859,
      "ĠØ¯ÙĨ": 4860,
      "ĠØ¯ÙĬÙĨ": 4861,
      "ĠØ¯Ø§ÙĦ": 4862,
      "ĠØ¯Ú©": 4863,
      "ĠØ¯ÚĻÙĬ": 4864,
      "ĠØ¯Ø±ÙĪ": 4865,
      "ĠØ¯ÛĮÚº": 4866,
      "ĠØ¯Ù»": 4867,
      "ĠØ¯Ú¾ÛĮ": 4868,
      "ĠØ¯ÙĪØ±Ø§": 4869,
      "ĠØ¯ÛĮÙĪ": 4870,
      "ĠØ¯Ø§Ø¦Ùħ": 4871,
      "ĠØ¯Ø´Ùħ": 4872,
      "ĠØ¯Ú¾Úĳ": 4873,
      "ĠØ¯Ø¨Ø¦ÙĬ": 4874,
      "ĠØ´Ø§ÙĨ": 4875,
      "ĠØ´Ùĩ": 4876,
      "ĠØ´ÛĮ": 4877,
      "ĠØ´Ø§ÙĦ": 4878,
      "ĠØ´ÙĪØ±": 4879,
      "ĠØ´Ø§Ø¨": 4880,
      "ĠØ´ÙģØ§": 4881,
      "ĠØ´ÙĬØ®": 4882,
      "ĠØ´ÙĬØ±ÙĪ": 4883,
      "ĠØ´Ø§ÙĨØªÙĬ": 4884,
      "ĠØ´Ø§Ø±Ù½": 4885,
      "ĠØ´Ø±Ø¨Øª": 4886,
      "ĠØ´ÛģØ±ÙĪÚº": 4887,
      "ĠØ´Ø¬Ø±ÙĪ": 4888,
      "ĠØ´Ú¾ÙĨÙĬÙĦØ§": 4889,
      "ĠØ´ÙĬØ·Ø§ÙĨ": 4890,
      "ĠØªÙĬÚıØ§": 4891,
      "ÙĩÙĬØ§Ø±": 4892,
      "Ø´Ø§Ø¯": 4893,
      "Ø´ÚªÙĬ": 4894,
      "Ø´ÙĬØ®": 4895,
      "ĠØ§ÙĪØ¦ÙĬ": 4896,
      "ĠØ§ÙĪÚ¾Ø§": 4897,
      "ĠØ§ÙĪØªØ±ÙĪ": 4898,
      "ĠØ§ÙĪØªØ±ÙĬ": 4899,
      "ĠØ§ÙĪÚĨØªÙĬ": 4900,
      "ĠØ§Ú¾ÚĻÙĬÙĪÙĨ": 4901,
      "Ø§Ø¨ÙĨ": 4902,
      "ĠÚĩÚĻÙĬ": 4903,
      "ĠÚĩØªÙĬ": 4904,
      "ĠÚĩÚªÙĬ": 4905,
      "ĠÚĩÚªÙĪ": 4906,
      "ĠÚĩÚĻÙĪ": 4907,
      "ĠÚĩÙĨÙĬ": 4908,
      "ĠÚĩÙĪØ±Ø§": 4909,
      "ĠÚĩØ§ÙĨÙĪ": 4910,
      "ÙĲØĽ": 4911,
      "ĠØ§Ø³Ø¯": 4912,
      "ĠØ§Ø³ÛĴ": 4913,
      "ĠØ§Ø³ÚªØ±": 4914,
      "ĠØ§Ø³Ø§Ø¦ÙĨ": 4915,
      "Ù¿ÙĬØ§": 4916,
      "ĠÙħØ§ÙĨÙĬØ¡": 4917,
      "ĠÙħØ§ÙĨØ¡": 4918,
      "ÙĬÙĨØ¯Ùħ": 4919,
      "ÙĬÙĨØ¯Ø§Ø³ÙĬÙĨ": 4920,
      "Ø§Ø¦ÙĬÙ¾": 4921,
      "ÙĦÙĬØ¯": 4922,
      "ÚĬØ¬ÙĬ": 4923,
      "ÚĬÙ¿": 4924,
      "ÚĬÙĬØ¡": 4925,
      "ÙĬØ±Ø§ÙĨ": 4926,
      "ÙĬØ±ÙĬÙĨ": 4927,
      "ÙĬØ±Øª": 4928,
      "ØŃÙĬØ¯": 4929,
      "ØŃÙĬØ¯Ø±Ø¢Ø¨Ø§Ø¯": 4930,
      "Ø§ÙħØ§": 4931,
      "Ø§ÙħÙĨ": 4932,
      "Ø§ÙħØ§ÙĨ": 4933,
      "Ø²Ø§": 4934,
      "Ø²ÙĨØ¯Ú¯ÙĬ": 4935,
      "ĠÙ½Ú¾": 4936,
      "ĠÙ½Ø¦ÙĬ": 4937,
      "ĠÙ½ÙĬÙĪÙĨ": 4938,
      "ĠÙ½ÙĨÚ¯": 4939,
      "ĠÙ½ÙĬÙ½": 4940,
      "ĠÙ½ÚªÙĨ": 4941,
      "ĠÙ½Ø§Ø±Ú»": 4942,
      "ĠÙ½Ø±ÙĬÚĬ": 4943,
      "ĠÙ½ÙĨÚĬÙĬ": 4944,
      "ĠÙ½ÙĨÚĬÙĪ": 4945,
      "ĠÙ½Ø±ÙĬÚªÙ½Ø±": 4946,
      "ĠÙĤÙĬØ§": 4947,
      "ĠÙĤÙĬØ¯": 4948,
      "ĠÙĤÛĮØ¯": 4949,
      "ĠÙĤØ§Ø¦ÙĦ": 4950,
      "ĠÙĤØ±Ø¶": 4951,
      "ĠÙĤØ§Ø³Ùħ": 4952,
      "ĠÙĤØ§Ø¯Ø±ÙĬ": 4953,
      "ĠØ³Ø§ÙĨØ¯": 4954,
      "ĠÚĢØª": 4955,
      "ĠÚĢØ±ÙĬ": 4956,
      "ĠÚĢÙĬÙĦ": 4957,
      "ĠÚĢØªØ±": 4958,
      "ĠÚĢØ§ØªÙĬ": 4959,
      "ĠÚĢØ§Ø±Øª": 4960,
      "ĠÚĢØ§ÙĨØª": 4961,
      "ĠÚĢØ±ÙĬÙĦ": 4962,
      "ÙĬØ§Ø±ÙĨ": 4963,
      "ĠÚ³Ø±Ø§": 4964,
      "ĠÙ¾Ø±ÙĦ": 4965,
      "ĠÙ¾Ø±Ú³": 4966,
      "ĠÙ¾Ø±ØªÙĬ": 4967,
      "ĠÙ¾Ø±Ø³ØªÙĬ": 4968,
      "ĠÙ¾Ø±Ø§Ú»ÙĪ": 4969,
      "ĠÙ¾Ø±Ø§Ú»Ø§": 4970,
      "ĠÙ¾Ø±ÙģÙĬÙĪÙħ": 4971,
      "ÙĩÙĨÙĨ": 4972,
      "ĠØ¹Ø±": 4973,
      "ĠØ¹Ø§Ø±": 4974,
      "ĠØ¹Ø§ÙĤ": 4975,
      "ĠØ¹Ø§Ø¬": 4976,
      "ĠØ¹ÙĬØ¨": 4977,
      "ĠØ¹Ø§Ø¦Ø´": 4978,
      "ĠØ¹Ø¬Ø¨": 4979,
      "ĠØ¹Ø¯Ø§ÙĦ": 4980,
      "Ø±Ø¨ÙĨ": 4981,
      "Ø±Ø¨ÙĪ": 4982,
      "ĠÙģÙĨ": 4983,
      "ĠÙģØªÙĪ": 4984,
      "ĠÙģÙĬÙĦ": 4985,
      "ĠÙģÙĤØ±": 4986,
      "ĠÙģÚ¾Ø¯": 4987,
      "ĠÙģÛĮØµØ¯": 4988,
      "ÙĪÙĦÙĨ": 4989,
      "ÙĪÙĦØ±": 4990,
      "Ø§Ø³ÛĮ": 4991,
      "Ø§Ø³ÙĪÙĨ": 4992,
      "Ø§Ø³ÙģÙĪØ±Ø³": 4993,
      "ĠØ¬Ø§ÚĻÙĬ": 4994,
      "ĠØ¬Ø§Ú¯ÙĬØ±": 4995,
      "ĠØ³ÙĨÚĮÙĬØ§": 4996,
      "ĠØµÙģ": 4997,
      "ĠØµØ¯ÙĬØ¡": 4998,
      "ĠØµØ§ÙĦØŃ": 4999,
      "Ø§ØªÙĬÙĨ": 5000,
      "Ø§ØªÛĮ": 5001,
      "Ø§ØªØ§ØªÙĬ": 5002,
      "ĠÙ¿ÙĬÙħ": 5003,
      "ĠÙ¿ÙĬØ³Ø²": 5004,
      "ĠÚªØ±Ø§Ø¦ÙĬÙĨØ¯ÙĪ": 5005,
      "ĠÚªØ±ÙĬÙ½": 5006,
      "ĠÚªØ±ÙĬØ´": 5007,
      "ÙĦØ§Ù¾": 5008,
      "ÙĦØ§ÙĬÙħ": 5009,
      "ÚĢØ±": 5010,
      "ÚĢØªØ±": 5011,
      "ÚĢÙ½ÙĪ": 5012,
      "ĠØ§Ø³Ø§ÙĨØ¬ÙĪ": 5013,
      "ØµØ±ÙĪ": 5014,
      "ØµÙĬØ¨": 5015,
      "ØµÙĦØ§ØŃ": 5016,
      "ÚĥÚ»": 5017,
      "ĠÚ³Ø§ÙĦÚ¾Ø§": 5018,
      "ÙĦÙĪÛģ": 5019,
      "ĠØŃÙħ": 5020,
      "ĠØŃØ¯": 5021,
      "ĠØŃÙĦÙĬÙħ": 5022,
      "ĠØŃØ²Ø¨": 5023,
      "ĠØŃÙĦÙĪÛģ": 5024,
      "ÚªÙĬØª": 5025,
      "ÚªÙĬÚıÙĪ": 5026,
      "Ø¯Ø§ÙĬØª": 5027,
      "Ø¯Ø§Ú¯Ø±": 5028,
      "Ø±ÙĪØ²": 5029,
      "ĠÙ¾ÙĪÙĬÙĨ": 5030,
      "ĠÙ¾ÙĪÙĬÙĪÙĨ": 5031,
      "ĠÙ¾ÙĪÚ©ÙĬ": 5032,
      "ĠÙ¾ÙĪÙĦÙĬÙ½": 5033,
      "ĠÙ¾ÙĪØ¦ØªÙĬ": 5034,
      "Ú¾Ø§Ú¾Ø§Ú¾Ø§Ú¾Ø§Ú¾Ø§Ú¾": 5035,
      "Ø·ÙĨÙĬ": 5036,
      "Ø·ÙĦØ§ØŃ": 5037,
      "Ø³ØªØ±ÙĬ": 5038,
      "Ø³ØªØ§ÙĨÙĬ": 5039,
      "Ø¸Ùħ": 5040,
      "Ø¸ÙĪØ±": 5041,
      "Ø¸ÙĬØ±": 5042,
      "Ø¸Ø§Ú¾Ø±": 5043,
      "ĠÙĦÚ©ÙĬÙĨ": 5044,
      "ĠÙĦÚ©Ø¨ÙĪ": 5045,
      "ĠÙĦÚ©Ø¨Ø§": 5046,
      "ĠØ³ÙħÙĬØ±": 5047,
      "Ú¾ÙĪØ´": 5048,
      "Ú¾ÙĪØ¦ÙĬÙĨ": 5049,
      "Ú¾ÙĪØ±ÙĬØª": 5050,
      "ÙĬØ³Ø§": 5051,
      "ĠÙĪÚıÙĬØ±ÙĨ": 5052,
      "Ø§ÙĪÚĻÙĬ": 5053,
      "ï¸ıï¸ı": 5054,
      "ĠÙĨØ§Ú¾ÙĬØ³": 5055,
      "ĠÚªÙħÙĬÙĪÙĨ": 5056,
      "ĠÚªÙħØ§Ø¦ÙĬ": 5057,
      "ĠÚªÙħØ§ÙĨÙĨ": 5058,
      "ĠÚªÙħÙ¾ÙĪØ²": 5059,
      "ĠÚªÙħÙĬÙĪÙ½": 5060,
      "ÙĬÚªØ§": 5061,
      "ÙĬÚªÙĦÙĬ": 5062,
      "Ø®Ø®": 5063,
      "Ø®Ø¨Ø±": 5064,
      "Ø®ÙĬØ§ÙĦ": 5065,
      "ÚĩÚı": 5066,
      "ÚĩÚ»ÙĬ": 5067,
      "ÚĩÙĪÙĨÛģ": 5068,
      "ĠØ³ÙĪÙĦÙĬ": 5069,
      "ĠØ³ÙĪØ¦Ø±": 5070,
      "ĠØ³ÙĪÙĬÙģÙ½": 5071,
      "ĠØ³ÙĪØ³Ø§Ø¦Ù½ÙĬØ¡": 5072,
      "ĠÚªÙĪÙ½": 5073,
      "ĠÚªÙĪÚĻÙĬ": 5074,
      "ĠÚªÙĪÚªØ§": 5075,
      "ĠÚªÙĪØ§ÙĨÙ½Ùħ": 5076,
      "ĠÙħÙĪÙĨØ«": 5077,
      "ĠÙħÙĪÙĨÙĬÚªØ§": 5078,
      "ĠÚ¾ÚªÚĻÙĬ": 5079,
      "ĠÚªÙĬØ§Ø¦ÙĬÙĨ": 5080,
      "ĠÚªÙĬÚı": 5081,
      "ĠÚªÙĬÚĻÙĪ": 5082,
      "ĠÚªÙĬØªØ±ÙĬ": 5083,
      "ĠÚªÙĬØªØ±ÙĨ": 5084,
      "ĠÚĬØ±": 5085,
      "ĠÚĬØ§Úª": 5086,
      "ĠÚĬÙĬÙħ": 5087,
      "ĠÚĬÙĬÙĦ": 5088,
      "ĠÚĬÙĪÙħ": 5089,
      "ĠÚĬØ³Ù½": 5090,
      "ĠÚĬØ§Ø¦ÙĨ": 5091,
      "ĠÚĬØ§Ù½": 5092,
      "ĠÚĬÚªØ´ÙĨ": 5093,
      "Ø³ÙĬÙĦ": 5094,
      "Ø³ÙĬØ±ÙĬØ³": 5095,
      "ĠØ§ÙĬÚĬÙĪ": 5096,
      "ĠØ§ÙĬØªØ±ÙĬ": 5097,
      "ĠØ§ÙĬÚĬÙĬÙ½": 5098,
      "Ø¯ÙĪØ³": 5099,
      "Ø¯ÙĪØ¯": 5100,
      "ĠØ³Ø±ÙĨ": 5101,
      "ĠØ³Ø±Ø³": 5102,
      "ĠØ³Ø±ÙĪØ±": 5103,
      "ĠØ³Ø±Ø§Ø¦ÙĬ": 5104,
      "ĠØ³Ø±Ø§Ø³": 5105,
      "ĠØ³Ø±ÚªÙĬ": 5106,
      "ĠØ³Ø±Ú¾ÙĪ": 5107,
      "ĠØ³Ø±ÙĩÙĪ": 5108,
      "ĠØ³Ø±Ú¯Ø±": 5109,
      "ĠØ³Ø±Ú©Ø§Ø±": 5110,
      "ĠØ³Ø±Ú¾ÙĬÙĪÙĨ": 5111,
      "ĠØ³Ø±Ø§Ù¾Ø§": 5112,
      "Ø§Ø²ÙĨ": 5113,
      "ĠØ²ÙĬØ±": 5114,
      "ĠØ²Ú¾Ø±": 5115,
      "ĠØ²Ø±ÙĬÙĨ": 5116,
      "ĠØ²ÙĦÙĬÙĦ": 5117,
      "ĠØ²ÙĬØ§Ø¯": 5118,
      "ĠØ²ÙĬÙĪØ±": 5119,
      "ĠØ²ÙħÛĮÙĨ": 5120,
      "ĠØ²Ø±Ø§Ø¹": 5121,
      "ĠÙħÙĪÙĪ": 5122,
      "ĠÙħÙĪØª": 5123,
      "ĠÙħÙĪØ³ÙĬ": 5124,
      "ĠÙħÙĪÚĨÚĻØ§": 5125,
      "ĠÚĨÙĪÚª": 5126,
      "ĠÚĨÙĪØª": 5127,
      "ĠÚĨÙĪÚªÙĬ": 5128,
      "ĠÚĨÙĪÙ¾ÚĻ": 5129,
      "ĠÚĨÙĪÙħØ³ÚªÙĬ": 5130,
      "ĠØ§ÙĦÚ¾": 5131,
      "ĠØ§ÙĦØ§Ú¾ÙĬ": 5132,
      "ĠØ§ÙĦØ¯ÙĬÙĨ": 5133,
      "ĠØ§ÙĦÙħÙĬÙĪ": 5134,
      "ĠØ§ÙĦØ·Ø§Ùģ": 5135,
      "ĠØ§ÙĦÙĩÙĬØ§Ø±": 5136,
      "ÙĨÚ¯Ø±ÙĪ": 5137,
      "ÚįØ§": 5138,
      "ĠÙĦÚ³Ø§ÙĬÙĪ": 5139,
      "ĠÙĦÚ³ÙĨØ¯ÙĬ": 5140,
      "ĠÙĦÚ³Ø±Ø§Ø¦ÙĬ": 5141,
      "ĠÙĦÚ³ÙĨØ¯ÙĬÙĪÙĨ": 5142,
      "ĠÙĦÚ³Ø±Ø§Ø¦ÙĬÙĨ": 5143,
      "ÙħØ§ÙĨÙĪ": 5144,
      "ĠÙħØ¹ÙĬØ§Ø±ÙĬ": 5145,
      "ĠÙħØ¹Ø±Ø§Ø¬": 5146,
      "ĠÙħØ¹ØªØ¨Ø±": 5147,
      "ĠÙħØ¹Ø¨ØªØ±": 5148,
      "ĠÙħØ¹ÛĮØ´Øª": 5149,
      "ĠÙĤØ±Ø¨Ø§ÙĨ": 5150,
      "ĠÙĤØ±Ø¨Ø§ÙĨÙĬ": 5151,
      "ĠÙĤØ±Ø¨Ø§ÙĨÙĬØ¡": 5152,
      "ĠØ§Ù¿ÙĨ": 5153,
      "Ù½ÙĬÚĬ": 5154,
      "Ù½ÙĬÙ½ÙĬÙĪ": 5155,
      "ĠÙ½ÙĪØ¦ÛĮ": 5156,
      "ĠÙ¾ÙĬÙħ": 5157,
      "ĠÙ¾ÙĬØ¬": 5158,
      "ĠÙ¾ÙĬØ¦ÙĬ": 5159,
      "ĠÙ¾ÙĬØªÙĬ": 5160,
      "ĠÙ¾ÙĬØ¦ÙĪ": 5161,
      "ĠÙ¾ÙĬØ¦ÙĨ": 5162,
      "ĠÙ¾ÙĬÚĻØ§": 5163,
      "ĠÙ¾ÙĬÙ¾Ø±": 5164,
      "ĠÙ¾ÙĬØ¦Ú»": 5165,
      "ĠÙ¾ÙĬÙ½ÙĪ": 5166,
      "ĠÙ¾ÙĬÙ¾ÙĦØ²": 5167,
      "ĠÙ¾ÙĬÚĻÙĩÙĬØ¡": 5168,
      "ĠØ³ÙħØ¬Ú¾Ø§ÙĬÙĪ": 5169,
      "Ø§ÚªÙĨ": 5170,
      "Ø§ÚªÙĬØ±": 5171,
      "Ø§ÚªØ«": 5172,
      "ĠØ·Ø§Ø¦ÙĬ": 5173,
      "ĠØ·Ø§Ø¦ÙĬØ¡": 5174,
      "ĠØ·Ø¨ÙĬØ¨": 5175,
      "ĠÚ¾ÙĬÙĦÙĪ": 5176,
      "ĠÚ¯ÙĩØ±ÙĬ": 5177,
      "ĠÚ¯ÙĩÚ»ÙĨ": 5178,
      "ĠÚ¯ÙĩÙħÚ»": 5179,
      "ĠÚ¯ÙĩÙħÙĨØ¯ÙĬ": 5180,
      "ÙĨÙĬÙº": 5181,
      "ÙĨÙĬÚªÙĦ": 5182,
      "ĠÚªÙĬÙĪØ±ÙĬØ¡": 5183,
      "ĠÙĪÚĥÚ»": 5184,
      "ĠÙĪÚĥØ¬ÙĬ": 5185,
      "ĠÙºÚ¾ÙĬ": 5186,
      "ĠÙºØ§Ú¾ÙĬÙĪ": 5187,
      "ĠÙºØ§Ø±ÙĬÙĪ": 5188,
      "ĠÙºÚ¾ÙĬÙĦ": 5189,
      "ĠÙºÙĪÚªÙĬ": 5190,
      "ĠÙ»ÙĪÙĦÙĨ": 5191,
      "ĠÙĪØ§Ø±ÙĬÙĨ": 5192,
      "ĠÙĪØ§Ø±Ø«": 5193,
      "ĠÙħÙĦÚ¾": 5194,
      "ĠÙħÙĦØ§ÙĨ": 5195,
      "ĠÙħÙĦÙĬÙĨ": 5196,
      "ĠÙħÙĦØ¨ÙĪ": 5197,
      "ĠÙħÙĦØ§ØŃ": 5198,
      "ĠÙħÙĦÚªÙĨ": 5199,
      "ĠÙħÙĦØ§Ø¦ÚªÙĨ": 5200,
      "ĠÙħÙĦÚªÙĬØª": 5201,
      "ĠØ³Ú¯Ú¾ÙĪÙĨ": 5202,
      "Ø³ÙĪÙħ": 5203,
      "Ø³ÙĪØ±ÙĬ": 5204,
      "Ø³ÙĪØ¦Ø±": 5205,
      "ĠØ³ÚĢÙĨ": 5206,
      "ĠØ³ÚĢØ§Ø¡": 5207,
      "Ø¶Ø¨": 5208,
      "ĠÚĩÙĪÚªØ±ÙĪ": 5209,
      "ĠØ¬ÙĨØ³": 5210,
      "ĠØ¬ÙĨØ§Ø¨": 5211,
      "ĠØ¬ÙĨÛģÛĮÚº": 5212,
      "ÛĶâĢ¦": 5213,
      "Ø³ÙħØ¬Ú¾": 5214,
      "Ø³ÙħØ§Ø¬ÙĬ": 5215,
      "ĠÙ»ÚĮÚ»": 5216,
      "ĠÙ»ÚĮÙĬÙĪÙĨ": 5217,
      "ĠÙ»ÚĮØ¬ÙĪ": 5218,
      "ĠÙ»ÚĮÚ»ÙĬ": 5219,
      "Ø°Ø§": 5220,
      "Ø°Ø¨": 5221,
      "ĠÚĮÙħ": 5222,
      "ĠÚĮØ±ÙĬÙĨ": 5223,
      "ĠÚĮØ§Ø±Ø§": 5224,
      "ĠÚĮØ§Ú»Ø§": 5225,
      "ĠÚĮÚ»ÙĬÙĨ": 5226,
      "ĠÙĪÙĬÙĨØ¯Ø¦ÙĪ": 5227,
      "ĠÙĪÙĬÙĨØ¯Ø¤": 5228,
      "Ù¿ÙĬÙĦÙĬ": 5229,
      "ĠÙĨØ§ÙĪÙĦ": 5230,
      "ĠØºÙģÙĦ": 5231,
      "ĠØºØ±Ø¨Øª": 5232,
      "ĠØºØ±ÙĬØ¨ÙĨ": 5233,
      "ĠÙĪÙĬÙº": 5234,
      "ĠÙĪÙĬÙĦØ§": 5235,
      "ĠÙĪÙĬØ¦ÙĪ": 5236,
      "ĠÙĪÙĬÚ¾Úª": 5237,
      "ĠÙĪÙĬØ¬Ùĩ": 5238,
      "ĠÙĪÙĬØ¬ÙĩÙĪ": 5239,
      "ĠÙĪÙĬÚĻÙĩÙĬ": 5240,
      "ĠÚ³Ø§ÙĦÚ¾Ø§Ø¦ÙĬÙĨ": 5241,
      "ĠÚ³Ø§ÙĦÚ¾Ø§Ø¦ÙĬÙĨØ¯ÙĬ": 5242,
      "ĠÚ³Ø§ÙĦÚ¾Ø§Ø¦ÙĬÙĨØ¯Ø§": 5243,
      "ĠÚ¾ÙĨÙĬÙĪ": 5244,
      "ĠÙĦÙģÙ½": 5245,
      "ĠÙĦÙģØ§Ø¸": 5246,
      "ĠÙħÚ¾Ø°Ø¨": 5247,
      "ĠÚĩÚıÙĬÙħ": 5248,
      "Ù¹Ø§": 5249,
      "Ù¹Ø³": 5250,
      "Ù¹Ú¾ÛĮ": 5251,
      "Ù¹ÙĪÚº": 5252,
      "ĠØ³ÙĬÙ½": 5253,
      "ĠØ³ÙĬÚ©Ø§Ø±": 5254,
      "ĠÚ©ÙĪÙ½": 5255,
      "ĠÙħÙĨÙĩÙĨØ¬ÙĪ": 5256,
      "ĠÙħÙĨÚįÙĬ": 5257,
      "ĠÙħÙĨØ¸Ø±": 5258,
      "ĠÙħÙĨØ§Ø³Ø¨": 5259,
      "ĠÙħÙĨÙģØ±Ø¯": 5260,
      "ĠÙħÙĨÚĬÙĬØ¡": 5261,
      "ĠØªÙĪØ§Ø²ÙĨ": 5262,
      "ĠÙħØŃÙħÙĪ": 5263,
      "ĠÙħØŃØªØ±Ùħ": 5264,
      "ĠÙħØŃÙĤÙĤ": 5265,
      "Ø¯Ø±Ø¯ÙĬ": 5266,
      "ØµÙĪØµ": 5267,
      "ĠÙĨØ§ÙĦÙĨ": 5268,
      "ĠØ§Ø¯ÚĻÙĬ": 5269,
      "ĠØ§Ø¯Ø§Ø±ÙĪ": 5270,
      "ĠØ§Ø¯Ø§Ø±ÙĨ": 5271,
      "ĠØ§Ø¯ÚĻÙĬØ¡": 5272,
      "ĠØ±ÙĪÙĬÙĪ": 5273,
      "ĠØ±ÙĪÚĬ": 5274,
      "ĠØ±ÙĪÚªÙĬÙĪ": 5275,
      "ĠØ±ÙĪØ¦Ø¬ÙĬ": 5276,
      "ĠØ±ÙĪØ´ÙĨÙĬ": 5277,
      "ØªÙĪÚĻÙĬ": 5278,
      "ØªÙĪØ¨Ú¾": 5279,
      "ĠØ§Ø¨ÙĨ": 5280,
      "ĠØ§Ø¨ØªÙĬ": 5281,
      "ĠØ§Ø¨ØªÙĪ": 5282,
      "ĠØ§Ø¨Ø±Ø§Ú¾": 5283,
      "ĠÙħØ³Ø§Ú³": 5284,
      "ĠÙħØ³Ø¹ÙĪ": 5285,
      "ĠÙħØ³Ø§ÙģØ±": 5286,
      "ÙħÙĬÙĨÙ½ÙĦ": 5287,
      "Ø³ÙĨÚĮÙĬØ¡": 5288,
      "Ù»Ûģ": 5289,
      "Ù»Ùĩ": 5290,
      "Ù»ÙĬØ§": 5291,
      "Ù»ÙĬÙĪÙĨ": 5292,
      "Ù»ÙĪÙĦÙĬØ¡": 5293,
      "Ù»Ø±ÙĨØ¯ÚĻ": 5294,
      "Ù»Ø§Ú¾Ø±ÙĬÙĨ": 5295,
      "ĠÚªØ¬ÙĨ": 5296,
      "ĠÚªØ¬Ø§ÙĨ": 5297,
      "ĠÙĪÙ½Ø§ÙĨ": 5298,
      "ĠÚ©ÛĮØ±ÛĮ": 5299,
      "ĠÚªÙĨØ¯Ø§Ø³ÙĬ": 5300,
      "ĠØ°Ø±Ø§": 5301,
      "ĠÙ¾ÚĻÙĩØ§Ø¦ÙĬ": 5302,
      "ĠÙ¾ÚĻÙĩÚ»": 5303,
      "ĠØ§ØµØ·ÙĦØ§ØŃ": 5304,
      "ĠÚªÙĨØ¬ÙĪ": 5305,
      "ĠÚªÙĨØ§Ø±Ø§": 5306,
      "ĠÙĦÙĪÚĢ": 5307,
      "ĠØ±Ú©ÙĨ": 5308,
      "ĠØ±Ú©Ø¬ÙĬ": 5309,
      "ĠØ±Ú©Ø§ÙĨØ³": 5310,
      "ĠØ±Ú©Ú¾ÛĮÚº": 5311,
      "ĠØ®Ø¨Ø±ÙĪÙĨ": 5312,
      "ĠØ¨Ø³Ø±": 5313,
      "ĠØ¨Ø³ÚªÙ½": 5314,
      "Ú¯Ø±Ø§Ùģ": 5315,
      "ĠØ§ÚĦÙĪÚªÙĪ": 5316,
      "ĠÙĪÙºØ¬ÙĪ": 5317,
      "ĠÙĪÙºÙĨØ¯ÙĪ": 5318,
      "ĠÙĪÙºÙĨØ¯ÙĬ": 5319,
      "ĠÙĪÙºØ¬Ø§ÙĨ": 5320,
      "ĠØ¨ÙĬÚ¯": 5321,
      "ĠØ¨ÙĬÚĬ": 5322,
      "ĠØ¨ÙĬØ¨ÙĬ": 5323,
      "ĠØ¨ÙĬØ¦Ø±": 5324,
      "ĠØ¨ÙĬÙºÙĪ": 5325,
      "ĠØ¨ÙĬÙºØ§": 5326,
      "ĠØ¨ÙĬÚ©Ø±": 5327,
      "ĠØ®ÙĪØ§Ø±": 5328,
      "ĠØ®ÙĪØ´ÙĨ": 5329,
      "ĠØ§ØªÙħ": 5330,
      "ĠØ§ØªÙĨÛĮ": 5331,
      "ĠÚ¦Ù½": 5332,
      "ĠÚ¦Ø§Ø³ÙĬ": 5333,
      "Ù¾ÙĪØ¦ÙĬÙĨ": 5334,
      "Ø§Ø´Ø§": 5335,
      "Ø§Ø´ÛĮ": 5336,
      "....ØŁ": 5337,
      "Ù¾Ø±ÙĦ": 5338,
      "Ù¾Ø±Ø§Ú»ÙĬ": 5339,
      "Ø¢Ø±": 5340,
      "Ø¢Ø³": 5341,
      "Ø¢Ø¬": 5342,
      "Ø¢Ø¡": 5343,
      "Ø¢Ø®Ø±": 5344,
      "Ø¢ÙħØ±ÙĬ": 5345,
      "Ø¢Ø²Ø§Ø¯": 5346,
      "ĠØ¶Ø¯": 5347,
      "ĠØ¶ÙĬØ§Ø¡": 5348,
      "ĠØ³ÚĨÙĪ": 5349,
      "ĠØ³ÚĨØ§Ø¦ÙĬ": 5350,
      "ĠÙĨÙĪÙħ": 5351,
      "ĠÚªÚ¾Ø§Ú»ÙĬ": 5352,
      "Ø¬ÙĨÙĩÙĨ": 5353,
      "ĠÙĪØ§Ù¾": 5354,
      "Ø«Ø§Ø±": 5355,
      "ĠÙħÙĬÙĦØ§Ù¾": 5356,
      "Ù½ÙĪÙ¿": 5357,
      "ĠÚ©Ø±ÙĨØ§": 5358,
      "ĠÚ©Ø±Ø§ÚĨ": 5359,
      "ĠØ³Ú©ÙĪÙĨ": 5360,
      "ĠØ³Ú©ÙĬÙĪÙĨ": 5361,
      "ĠØ³Ú©Ú¾Ø§": 5362,
      "ĠÛģÙĪØªØ§": 5363,
      "ĠÛģÙĪØ¦ÛĮ": 5364,
      "ĠÛģÙĪÚ¯Ø§": 5365,
      "ĠÙħØ§ÙĬÙĪÙĨ": 5366,
      "ĠÙħØ§Ùº": 5367,
      "ĠÙħØ§ÙĩØ±": 5368,
      "ĠÙħØ§Ù¾Ø§": 5369,
      "ĠÙħØ§ÚĬØ±ÙĨ": 5370,
      "ĠÙħØ§ÙĬÙĪØ³ÙĬ": 5371,
      "ĠÙħØ§Ù¿ÙĬÙĦÙĬ": 5372,
      "ĠØªÙĨÙĩÙĨØ¬ÙĬ": 5373,
      "ĠØªÙĨÙĪÙĬØ±": 5374,
      "ĠØ®ÙĬØ§ÙĦÙĬ": 5375,
      "ĠØ®ÙĬØ§ÙĦÙĨ": 5376,
      "ĠØ§ÙĬÙĨØ¯ÚĻ": 5377,
      "ĠÙĨÙĨÚįØ§": 5378,
      "ĠÙĨÙĨÚįÚĻØ§": 5379,
      "ĠØµØ§ØŃØ¨Ûģ": 5380,
      "ÙĨÚĬÙĬØ¡": 5381,
      "Ø¦Ø±ÙħÙĬÙĨ": 5382,
      "ĠÛĮØ§": 5383,
      "ĠÛĮÙĤ": 5384,
      "ĠÛĮØ§Ø¯": 5385,
      "ĠÙ¾ÙĦØ§Ø¡": 5386,
      "ĠÙ¾ÙĦØ³ØªØ±": 5387,
      "ĠÚ©Ø§ÚĮÙĪ": 5388,
      "ĠÚ¾ÙĦÙĬÙĪ": 5389,
      "ĠÚ¾ÙĦØ§Ø¦Ú»": 5390,
      "ĠÚ¯ÙĩØ±ÙĬÙĪ": 5391,
      "ĠÚ¯ÙĩØ±Ø§Ø¦Ú»": 5392,
      "ÙĦØ·ÙĬÙģ": 5393,
      "ÙħÙĦÚ¾": 5394,
      "ĠÚªÙĦØ±": 5395,
      "ĠÚªÙĦØ§Ø³ÙĬ": 5396,
      "ĠÚªÙĦÚĨØ±": 5397,
      "ĠÚªÙĦÙģÙ½ÙĨ": 5398,
      "ĠÙĩÚªÚĻÙĪ": 5399,
      "ĠÙģÙĦÙ½Ø±": 5400,
      "ÙĬÙ½ÚªØ³": 5401,
      "ØªÙĨÙĩÙĨØ¬ÙĬ": 5402,
      "ĠØ§ÚĥØ§Ø±ÙĬ": 5403,
      "ĠØ³ÚıÚ»": 5404,
      "ĠØ³ÚıÙĬÙĪÙĨ": 5405,
      "ĠØ³ÚıØ¬ÙĨ": 5406,
      "ĠÙĪÚĮØ§Ø¦ÙĬÙĨØ¯ÙĬ": 5407,
      "ĠÙĪÚĮØ§ÙĬÙĪÙĨ": 5408,
      "ĠÚıÙĬÙĨØ¯ÚĻ": 5409,
      "ĠÙ»ÙĬØ¦ÙĬ": 5410,
      "ĠÙ»ÙĬÙĦÙĬ": 5411,
      "ĠÙ»ÙĬÚĻÙĬ": 5412,
      "ĠÙĬÚ¯": 5413,
      "ĠÙĬÚªÙĪ": 5414,
      "ĠØ³Ø¨Ø²ÙĬ": 5415,
      "ĠÚ¯Ú¾Ø±Ú»": 5416,
      "ĠÚ¯Ú¾Ø±ÙĨØ¯Ø§": 5417,
      "ĠØµØŃØ§ÙģØª": 5418,
      "ĠØµØŃØ§ÙģÙĬÙĨ": 5419,
      "ÙħØ§Ù¹Ø±": 5420,
      "ÙħØ§ÚªÙĪÚĻÙĪ": 5421,
      "ÙħÙĨÙĬØ¡": 5422,
      "ÙħÙĨÙ¹": 5423,
      "ÙħÙĨØ¸ÙĪØ±": 5424,
      "ÙħØ§ÙĦÚª": 5425,
      "ÙħØ§ÙĦØ§Ø¦ÙĬ": 5426,
      "ÚªÙĨØ²": 5427,
      "ĠÙĤØ³ÙħÙĬÙĨ": 5428,
      "Ù¾ÙĬÙ¾": 5429,
      "ÙĨØ¯ÚĻÙĨ": 5430,
      "ĠÚªÙĬØ±ÙĬÙĪ": 5431,
      "ĠÙĪØ§ÙĤØ¹ÙĪ": 5432,
      "ĠÚ©ÛģØ§": 5433,
      "ĠÚ©ÛģÙĨØ§": 5434,
      "ĠÚ©ÛģØ§ÙĨÛĮ": 5435,
      "ĠÙĨÙĬØ¦ÙĨ": 5436,
      "ĠÙĨÙĬØ§Ú»ÙĬÙĪÙĨ": 5437,
      "ĠØ¯Ø±Ø¬ÙĬ": 5438,
      "ĠØ¯Ø±Ø§ÙĪÚĻÙĬ": 5439,
      "ĠÙĬÙĪÙ¿ÙĬÙĪ": 5440,
      "ÙĨÙĪÚº": 5441,
      "ÙĨÙĪÚªØ±ÙĬ": 5442,
      "ĠØ³Ú¾Ú»ÙĬØ¡": 5443,
      "ĠÙħÙ¿Ø§": 5444,
      "ĠÙħÙ¿ÙĬÙĨ": 5445,
      "ĠÙħÙ¿Ø§Ú¾ÙĬÙĨ": 5446,
      "ĠÙĪÚĻÙĩÙĬ": 5447,
      "Ú¯Ø±ÙĬÙ½": 5448,
      "ĠÚıØ³ÙĨØ¯ÙĪ": 5449,
      "ĠÚıØ³Ú»Ø§": 5450,
      "ĠÚıØ³ÙĨØ¯Ø¦ÙĪ": 5451,
      "Ø±Ø§ÙĬÙĨ": 5452,
      "ĠÙħØ²Ø§Ø±": 5453,
      "ĠÙ¾ÙĨÙĩÙĨØ¬Ø§": 5454,
      "ĠÙ¾ÙĨÙĩÙĨØ¬ÙĪ": 5455,
      "ĠÙ»Ø§Ø±Ø§Ú»ÙĬ": 5456,
      "ĠÙ»Ø§Ø±ÚĻÙĨ": 5457,
      "ĠØªØ±ÙĤÙĬ": 5458,
      "ĠÙĨÙħØ§Ø²": 5459,
      "ĠÙĨÙħÙĪÙĨÙĪ": 5460,
      "ĠØ³ÙĪÚĨØ§": 5461,
      "ĠØ³ÙĪÚĨÚ»": 5462,
      "ĠØ³ÙĪÚĨØªØ§": 5463,
      "ĠØ³ÙĪÚĨÙĬÙĨØ¯Ø§": 5464,
      "ĠØ¬Ú¾Ø§ÙĦØª": 5465,
      "ĠØ¬ÙħÚ¾ÙĪØ±ÙĬØª": 5466,
      "ĠØ¨ÙĩØªØ±": 5467,
      "ĠÙħØªØ¶Ø§Ø¯": 5468,
      "ĠÙħØªØ¹ÙĦÙĤ": 5469,
      "ÙħÙĪØ³Ùħ": 5470,
      "ĠÙ¾Ø§Ø±Ø§ÙĢ": 5471,
      "ĠÙĦÙĬÙĦØ§": 5472,
      "ĠÙĦÙĬÚĬØ±ÙĨ": 5473,
      "ĠØ±Ú¾ÙĬÙĦ": 5474,
      "Ú¯ÙĬØ±ÙĬ": 5475,
      "Ú¯ÙĬØ±ÙĬØ¡": 5476,
      "ĠÙ»ÙĪÙ¿": 5477,
      "ĠÙ»ÙĪÙ½ÙĪ": 5478,
      "ÛĶÛĶÛĶÛĶ": 5479,
      "ÛĶÛĶÛĶÛĶÛĶ": 5480,
      "ĠÙħØ±ØŃ": 5481,
      "ĠÙħØ±Øº": 5482,
      "ĠÙħØ±Ø´Ø¯": 5483,
      "ĠÙ¾Ù½ÙĬÙĪÙĨ": 5484,
      "ĠÚıÙĬÙĪØ³": 5485,
      "ĠÛĮÛģÛĮ": 5486,
      "Ø§Ú©ÙĬÙĨ": 5487,
      "ĠÚ¾Ù¿ÙĪÚĻÙĬ": 5488,
      "Ø³ÙĨØ¬ÙĬ": 5489,
      "Ø³ÙĨØ¬ÙĪÚ³": 5490,
      "ĠÙĪØ±Ø³ÙĬ": 5491,
      "ĠÙĪØ±Ú¾Ø§Ø¦ÙĬ": 5492,
      "ĠÙĪØ±ÚĮÙĨ": 5493,
      "ĠÙĪÚ»ÙĨ": 5494,
      "ĠÙĪÚ»Ø¬": 5495,
      "Ø¬Ú¾Ø¯": 5496,
      "Ø¬Ú¾ÚĻÙĪ": 5497,
      "Ú¯ÙĪÚĬ": 5498,
      "ĠÚ¯ÙĪØ¦ÛĮ": 5499,
      "ĠÚ¯ÙĪØªÙħ": 5500,
      "ĠÚ¯ÙĪÚıÙĨ": 5501,
      "ĠÚ³ÙĪÙĦÙĬ": 5502,
      "ĠÙģØ±Ø¶": 5503,
      "ĠÙģØ±Ø²ÙĬÙĨ": 5504,
      "ĠØ³ÙħØ¬ÙĩÙĨØ¯Ø§": 5505,
      "ĠØ³ÙħØ¬ÙĩØ§Ø¦ÙĬÙĨØ¯ÙĬ": 5506,
      "ĠÙħØ§Ø±Ø´ÙĦ": 5507,
      "ĠÚªÙĪÙĨÙĩÙĬ": 5508,
      "ĠÙ¾Ú¾ÙĪÙĦ": 5509,
      "ĠÙ¾Ú¾ØªÙĬ": 5510,
      "ĠÙ¾Ú¾ÙĦÙĪ": 5511,
      "ĠÙ¾Ú¾ØªÙĪ": 5512,
      "ĠÙ¾Ú¾Ø±ÙĬØ§ÙĨ": 5513,
      "ĠÙ¾ÙĬØ±Ø§Ú¯Ø±": 5514,
      "ĠØ§ÙĨØ³Ø§ÙĨÙĨ": 5515,
      "ĠØ§ÙĨØ³Ø§ÙĨÛĮ": 5516,
      "ĠØ§ÙĨØ³Ø§ÙĨØ°Ø§Øª": 5517,
      "ĠØ´Ø§Ù½": 5518,
      "ĠØ¬ÙĩÚĻÙĪ": 5519,
      "ĠØ¬ÙĩÙĪÙĨÚ¯Ø§Ø±": 5520,
      "ĠÙħØ´Ø±ÙĪ": 5521,
      "ĠÚªÚįÙĪ": 5522,
      "ĠÚªÚįÙĬÙĨ": 5523,
      "ĠØ§Ø±Ø³Ø·ÙĪ": 5524,
      "ĠØ§Ø¬Ø±Úª": 5525,
      "ĠØ§Ø¬ÙĦØ§Ø³": 5526,
      "ÙĬØŃÛģ": 5527,
      "ĠØ´Ø§Ú¾Ø¯": 5528,
      "ĠØ§ÙħÚĻÙĬÙĪÙĨ": 5529,
      "Ø¨ÙĦÚĬ": 5530,
      "ĠØ¨Ø¯Ø³Øª": 5531,
      "ĠØ¨Ø¯ÙħØ¹": 5532,
      "ĠØ¨Ø¯Ø¨ÙĪØ¯Ø§Ø±": 5533,
      "Ø§Ø±Ø§Úº": 5534,
      "ĠØ±Ø³ÙĪÙĦ": 5535,
      "ĠØ±Ø³Ø§ÙĦÙĨ": 5536,
      "ĠØ±Ø³Ø§ÙĦØ§": 5537,
      "ĠØ±ÙĩÙĬÙĨ": 5538,
      "ĠÚ¯ÙĦØ§Ø³": 5539,
      "ĠÚ¯ÙĦØ²Ø§Ø±": 5540,
      "ĠØ³Ú¯ÙĩÙĬØ§": 5541,
      "ĠØ¸Ø±Ùģ": 5542,
      "ĠØ¸Ø§Ú¾Ø±": 5543,
      "ĠÙ¹ÛĮ": 5544,
      "ĠÙ¹Ú¾ÛĮ": 5545,
      "ĠÙ¹ÙħØ§Ù¹Ø±": 5546,
      "ĠÙ¾ÚĩÙĪÙĨ": 5547,
      "ĠÙ¾ÚĩÙĬØ§Ø¦ÙĬÙĨ": 5548,
      "ĠÙĪÛģÛĮ": 5549,
      "Ø¨Ø§Ø¯Øª": 5550,
      "ĠØ§Ø¹ÙĦÙĬ": 5551,
      "ĠÙ»ÙĨÙĬÙĨ": 5552,
      "ĠÙ»ÙĨÙĩÙĬ": 5553,
      "ĠÚ³ÙĪÙºØ§Ø¦ÙĬ": 5554,
      "Ú¾ÙĦÚ»": 5555,
      "Ú¾ÙĦÙĦÙĦÙĦÙĦ": 5556,
      "ÙħØ¹Ø§Ùģ": 5557,
      "ĠÚıØ§ÙĩØ§": 5558,
      "ĠÚıØ§ÚıÙĬ": 5559,
      "ĠÚıØ§ÙĩÙ¾": 5560,
      "ÚĨØ§ÚĨØ§": 5561,
      "ÚĨØ§ÚĨÙĨ": 5562,
      "ĠÙĩÙĦÚ»": 5563,
      "ĠÙĩÙĦÙĬØ§": 5564,
      "ĠÙĩÙĦØ§Ø¦ÙĬ": 5565,
      "ĠÙĩÙĦÚªÙĬ": 5566,
      "ĠÙĩÙĦÚªØ§": 5567,
      "ĠØ¯ÙĪØ±ÙĨ": 5568,
      "ĠØ¯ÙĪØ±Ø§ÙĨ": 5569,
      "ØºÙĬØ±Øª": 5570,
      "ĠØ§Ø®ØªÙĬØ§Ø±": 5571,
      "ĠÙĨØ¸Ø±Ø§ÙĨØ¯": 5572,
      "ĠØ³Ú¾Ø±ÙĪ": 5573,
      "ĠØ³Ú¾ÙĪÙĦØª": 5574,
      "ĠÙĪØ³Ø±ÙĬ": 5575,
      "ĠÙĪØ³ÚªØ§Ø±ÙĪ": 5576,
      "ĠÙĪØ³ÙĨØ¯Ø¦ÙĬ": 5577,
      "ĠØ¨ÙĦØ±": 5578,
      "ĠØ¨ÙĦÚĬ": 5579,
      "ĠØ¨ÙĦÚªÛģ": 5580,
      "ĠÙĨÚªØªÙĬ": 5581,
      "ĠÙĨÚªØ±ÙĪ": 5582,
      "ĠÚĢØ±Ø¬ÙĬ": 5583,
      "ĠÚĢØ±Ù¾ÙĪØ±": 5584,
      "ĠÚĢØ±Ú³ÚĻÙĬ": 5585,
      "Ø§ÙĨØ¯Ø§Ø²ÙĪ": 5586,
      "ĠØ¬ÙĦØ§ÙĦ": 5587,
      "ĠØ¬ÙĦØ³ÙĬ": 5588,
      "ÚªÙħÙ¾ÙĬÙĪ": 5589,
      "ÚªÙħØ²ÙĪØ±": 5590,
      "ØªÙħØ§Ø¯": 5591,
      "ĠØªØ¨Ø§Ú¾ÙĬ": 5592,
      "ĠØªØ¨Ø§Ûģ": 5593,
      "ĠØªØ¨ØµØ±ÙĪ": 5594,
      "ĠØªØ¹Ø±ÙĬÙģ": 5595,
      "ĠØªØ¹Ø§Ø±Ùģ": 5596,
      "ĠÚ¾Ú»ÙĨ": 5597,
      "ĠÚ¾Ú»Ø§ÙĨ": 5598,
      "ĠÚ¯Ø±Ùħ": 5599,
      "ĠÚ¯Ø±Ø¯ÙĬ": 5600,
      "ĠØ´Ø±ÙĦÙĬ": 5601,
      "ĠØ´Ø±Ø¹ÙĬ": 5602,
      "ĠØ´Ø±Ø§Ø±Øª": 5603,
      "ĠØ´Ø±Ø§Ø±ØªÙĬ": 5604,
      "ĠØ´Ø±ÙĦÙĬÙĪÙĨ": 5605,
      "ĠØ´Ø±ÚªØª": 5606,
      "ĠØ³Ø§Ù¿": 5607,
      "ĠØ³Ø§Úĥ": 5608,
      "ĠÙħÙĬÙĨÚĮØ±ÙĪ": 5609,
      "ĠÙħØ¬ÙĦØ³": 5610,
      "ĠÙħØ¬Ø¨ÙĪØ±": 5611,
      "ĠÙħÙĦÙĬØ±": 5612,
      "ĠØ¢ÙĪØ§Ø²ÙĨ": 5613,
      "ĠÙ¾Ø±ÙĬØ³": 5614,
      "ĠÙ¾Ø±ÙĬØ´Ø±": 5615,
      "ĠÙ¾Ø±ÙĬØ²ÙĬÙĨ": 5616,
      "ĠÙ¾Ø±ÙĬØ´Ø§ÙĨ": 5617,
      "ĠÚ©Ø³ÙĬÙĪ": 5618,
      "ĠÚ©Ø³Ú©Ø³": 5619,
      "Ø´ÙĪØª": 5620,
      "ĠÙģÙĬØµÙĦÙĬ": 5621,
      "ĠÚĦÚ»ÙĬÙĨØ¯ÙĬ": 5622,
      "ĠÙħØ§ÙĦÚªÙĪÙĨ": 5623,
      "ÙħØ§Ø±ÛĴ": 5624,
      "ĠØ¢ÙģØªØ§Ø¨": 5625,
      "ĠØªÚ¾Ø°ÙĬØ¨": 5626,
      "ĠØ¨ÙĨØ¯ÛĴ": 5627,
      "ĠÚĨØ¦Ø¨ÙĬ": 5628,
      "ĠÚıÚ©ÙĨ": 5629,
      "ĠÚıÚ©Ú»": 5630,
      "ĠÚ¯Ø°Ø§Ø±ÙĬ": 5631,
      "ĠÚ³Ø§ÙĦÙĩØ§Ø¦ÙĬÙĨØ¯ÙĪ": 5632,
      "ĠÙĨØ§ÙĦÙĬØ¬": 5633,
      "Ø§ÙĩÚĻÙĬ": 5634,
      "ĠØ¬Ø§ÙĨØªØ§": 5635,
      "ĠÙħÚĻØ¯": 5636,
      "ĠØ§ÙģØ¹Ø§ÙĦÙĨ": 5637,
      "ĠØ¨Ú¾Ø§Ø¦ÛĮ": 5638,
      "ÛĮÙĪØ¨": 5639,
      "ĠÙĦØ§Ú©ÙĬ": 5640,
      "ĠØ§Ø´Ø§Ø±ÙĪ": 5641,
      "ĠØ±ÛģÛĮ": 5642,
      "ĠØ±ÛģÙĨØ§": 5643,
      "ĠØ±Ú¾ÙĨØ¯": 5644,
      "ĠØ±Ú¾ÙĨØ¯ÚĻ": 5645,
      "ĠÚĨÙĬÚĢØ§Ù½": 5646,
      "ĠÙ¾ÚĻÚ¾Ø¬ÙĪ": 5647,
      "ĠÙ¾ÚĻÚ¾ÙĬØ§": 5648,
      "ĠÛ´": 5649,
      "Ø§Ø®Ø¨Ø§Ø±": 5650,
      "ĠÙħØ°ÚªØ±": 5651,
      "ĠÙħØ°Ú¾Ø¨": 5652,
      "ĠÙ¾ÙĬØ´ÙĬ": 5653,
      "ĠÙ¾ÙĬØ´Ø§Ø¨": 5654,
      "ĠÙ¾ÙĬØ´Ø§ÙĨÙĬÙĪÙĨ": 5655,
      "ĠÚĨÚĻÚ¾ÙĬ": 5656,
      "ĠÚªØ±Ø§ÙĬÙĪÙĨ": 5657,
      "ĠØŃØ§ÙĦØªÙĪÙĨ": 5658,
      "ĠÙħÙĪÚªÙĦØ¬ÙĪ": 5659,
      "ĠÙħÙĪÚªÙĦØ§Ø¦Ú»": 5660,
      "ĠÚĪÛĮ": 5661,
      "ĠÚĪÚ¾ÛĮ": 5662,
      "ĠÚĪØ§Ú©Ù¹Ø±": 5663,
      "ĠÙħÙ½ÙĬÙĨ": 5664,
      "ĠÙħÛĮØ±ÛĴ": 5665,
      "ĠÙħÛĮÚĪÛĮØ§": 5666,
      "ĠÙĨØ±ÚĻ": 5667,
      "ĠÙĨØ±Ú¯": 5668,
      "ĠØ§ÙĨØ³Ù½ÙĬÙ½ÙĬÙĪ": 5669,
      "ÚĨÚ¾ÛĴ": 5670,
      "ĠÙ½ÙĬÚªÙĨÙĬÚªÙĦ": 5671,
      "ĠÙģÙĤØ·": 5672,
      "ĠØ³ÙħØ¬Ú¾Ø§Ø¦Ú»": 5673,
      "ĠĠĠ": 5674,
      "ĠØ¬Ú³ÙĩÛģ": 5675,
      "ĠÙ¾Ø³ÙĨØ¯ÙĬ": 5676,
      "ĠÙ¾Ú¾Ø§ÚĻÙĬ": 5677,
      "ĠØ¨ÚĨØ§Ø¦ÙĬ": 5678,
      "ĠÙĩÙĪØ³Ù½": 5679,
      "ĠØ§Ø³ÚªØ§Ø¦ÙĬÙ¾": 5680,
      "ĠÚĢÙĨÚ¯ÙĬ": 5681,
      "ĠÙ¿ÙĬÙĦÚ¾ÙĬ": 5682,
      "ĠØ·Ø¨ÙĤÙĪ": 5683,
      "ĠØ·Ø¨ÛĮØ¹": 5684,
      "ĠØ·Ø¨ÙĤÛĴ": 5685,
      "ĠØ³Ú¯Ú¾ÙĬÙĪ": 5686,
      "ĠØ³Ú¯Ú¾Ø¬ÙĨ": 5687,
      "ĠÚıÙĬÚ©Ø§Ø±": 5688,
      "ĠÚıÙĬÚ©Ø§Ø±ÙĬÙĪ": 5689,
      "ĠÙħØŃØ¨ÙĪØ¨Ûģ": 5690,
      "Ù»ÙĬÙĦÙĬ": 5691,
      "ĠÙħØ®Ø§ÙĦÙģØª": 5692,
      "Ġ21": 5693,
      "ĠØ¬Ø³Ù½ÙĬÙģ": 5694,
      "ĠØ³Ø¦ÙĪÙ½": 5695,
      "ĠÙħØ§Ø¦Ù½ÙĬÙĨ": 5696,
      "ĠÙħØ§ÙħÙĨ": 5697,
      "ĠÙħØ§ÙħØ±ÙĬ": 5698,
      "ĠÙħÚĥÙĬÙĨ": 5699,
      "ĠÚªØ§ÙĪØ´": 5700,
      "ĠØ¢Ø³Ø±ÙĪ": 5701,
      "ĠØ¢Ø¦ÙĬÙĨØ¯ÙĬ": 5702,
      "ĠÙ¾ÛĮÚĨÚ¾ÛĴ": 5703,
      "ĠÙ¾ÙĪØ±ÛĴ": 5704,
      "ĠÙ¾ÙĪØ±ÙĬÙĪÙĨ": 5705,
      "ĠÙ¾ÙĪØ±Ù½ÙĦ": 5706,
      "ĠÙ¾ÙĪØ±Ù½Ø³": 5707,
      "ĠÚ©ÙĨØ¦ÙĬ": 5708,
      "ĠÚ©ÙĨÚĢ": 5709,
      "ĠØ¨ÙĦØ§ÙĪÙĦ": 5710,
      "ĠÚĨØ±Ø®ÙĪ": 5711,
      "Ø´Ø§Ú¾Ø¯": 5712,
      "ĠÙ½Ø±ÙĪÙĦ": 5713,
      "ĠØ¹Ø²ØªÙĪÙĨ": 5714,
      "ĠÙģØ§Ø±ÙħÙĬ": 5715,
      "ĠÙģÙĦØ³ÙģÙĪ": 5716,
      "ĠÚıØ§ÚįØ§": 5717,
      "ĠØ³Ø§Ø¦ÙĬÚĬ": 5718,
      "ĠØ³Ø§Ø¦ÙĬÚªÙĦ": 5719,
      "ĠØ³ÚĦÚ»": 5720,
      "ĠÙħØ§Ø¦ÙĬÚª": 5721,
      "ĠÙ¾Ø¦Ø³Ø§": 5722,
      "ĠÙ¾ÙĬØ³Ù½": 5723,
      "ĠØªÙĤÙĦÙĬØ¯": 5724,
      "ĠØªØŃØ±Úª": 5725,
      "Ø§Ø¦ÙħØ±ÙĬ": 5726,
      "ĠÚ©Ø§Ø±Ø§Ø¦ÙĬ": 5727,
      "ĠÚ¾Ø¬Ø§ÙĨ": 5728,
      "ĠÙĦØºØ§Ø±ÙĬ": 5729,
      "Ú©ÙĪÚĻ": 5730,
      "ÙĨØ¯Ø±Ø³ØªÙĬ": 5731,
      "ĠØ´ÙĪÙĤÙĬÙĨ": 5732,
      "ĠØ´ÙĬÙĨÙĩÙĨ": 5733,
      "ĠØºÙĬØ±Øª": 5734,
      "ĠØ§Ø®ÙĦØ§ÙĤÛĮ": 5735,
      "Ø§ÚĥØ§ÙĨ": 5736,
      "ĠØ¬ÙĨÚ¯ÙĬ": 5737,
      "ĠØ³ØªØ§Ø±": 5738,
      "ĠØ³ØªØ§Ø¨Ø§": 5739,
      "ĠÙħÙĪÙĦØ§Ø¦ÙĬ": 5740,
      "ĠÙħÙĪÙĦØ§ÙĨØ§": 5741,
      "ĠÙħÙĪÙĦÙĪÛĮ": 5742,
      "ÙħØŃØ¨Øª": 5743,
      "ĠÚªØ§ÙĨÚĮ": 5744,
      "ĠÚªØ§ÙĨÙĩÙĬ": 5745,
      "ĠÚªØ§ÙĨÙģØ±ÙĨØ³": 5746,
      "ĠÚªÙĬÙĨÙĬØ§": 5747,
      "ĠØ§ÙĬÚªÙ½ÙĪÙĪ": 5748,
      "ĠØ¨Ø±Ø³": 5749,
      "ĠÙĦÛĮØªØ§": 5750,
      "ĠÚ©ÙĬØ±ÙĪÙĨ": 5751,
      "ĠØ±Ø´ØªØ§": 5752,
      "ĠØ±Ø´ØªÙĨ": 5753,
      "Ú¯ÙĩÙ½": 5754,
      "ĠÚĨØ§ÙĨÙĩÙĨ": 5755,
      "ĠÚĨØ§ÙĨÚĬÙĬ": 5756,
      "ĠØ¹Ø¨Ø§Ø³": 5757,
      "ĠØ¹Ø¨ÙĬØ¯": 5758,
      "ĠØ¹Ø¨Ø¯Ø§ÙĦ": 5759,
      "ĠØ¹Ø¨Ø¯Ø§ÙĦÙħØ§Ø¬Ø¯": 5760,
      "ĠØ°Ø±ÙĬØ¹ÙĪ": 5761,
      "ĠÚĦØ§Ú»ÙĪÙĨ": 5762,
      "ĠÙħØ·ÙĦØ¨Ø§": 5763,
      "Ġ64": 5764,
      "ĠØ³Ø§Ø±ÙĬÙĪÙĨ": 5765,
      "ĠÙħØ§Ø³Ø§Øª": 5766,
      "ĠÙħØ§Ø³ØªØ±": 5767,
      "ĠØªØµØ¯ÛĮ": 5768,
      "ĠØªØµØ¯ÙĬÙĤ": 5769,
      "Ø¬ÛĮÛĴ": 5770,
      "ĠÙĨØµÙĬØŃ": 5771,
      "ĠÙĨØµÙĬØ¨": 5772,
      "ĠÚ¾ÙħÙ¿": 5773,
      "ĠÚ¾ÙħØ±Ø§Ú¾ÙĨ": 5774,
      "ĠÙĦØ§Ú³ÙĪ": 5775,
      "ÚĮÙĨØ§Ø±": 5776,
      "ØµØŃØ§ÙģÙĬÙĨ": 5777,
      "ĠØŃÙĤÙĬÙĤÙĬ": 5778,
      "ĠÚªÙĬÙħØ³Ù½Ø±ÙĬ": 5779,
      "ĠÙ¾ÙĬÙ¾ÙĦÙĨ": 5780,
      "ĠÙºØ§ÙĩÙĬÙĦ": 5781,
      "ĠÚĮÙĪØ¦Ú»": 5782,
      "ĠØ¬Ú¾ÚĻÙĪÚª": 5783,
      "ĠÚĢÙ½Ø§Ø¦ÙĬÙ¾ÙĬÚĬÙĬØ§": 5784,
      "ĠÚįÙĪ": 5785,
      "Ø±Ø±Ø±": 5786,
      "ĠÙħÙĩÙħØ§ÙĨ": 5787,
      "ĠÙħÙĩÙĬÙĨÙĬ": 5788,
      "ĠÙħÚ¾Ø§ÙĨÚ¯ÙĬ": 5789,
      "ĠÙħÚ¾Ø§ÙĨÚ¯ÙĪ": 5790,
      "ĠÙħÚ¾Ø§ÙĨÚ¯Ø§": 5791,
      "ÙħØ³Ø¦": 5792,
      "ĠÚªÚĨÚ¾Ø±ÙĬØ¡": 5793,
      "ĠØ¢Ø±ÙħÙĬ": 5794,
      "ĠÙĪÙģØ§Ø¯": 5795,
      "ĠÙĪÙģØ§ÙĤ": 5796,
      "ĠÙĨÙĤØ§Ø¨": 5797,
      "ĠÙĨÙĤØµØ§ÙĨ": 5798,
      "ĠÚıÙĨÙĬÙĪÙĨ": 5799,
      "ĠÚ¯ÙĩÙĪÙ½ÙĬ": 5800,
      "ĠØ¯ÛĮÚ©Ú¾": 5801,
      "ĠØ¯ÛĮÚ©Ú¾ÙĨ": 5802,
      "ĠØ´Ø¯ÙĬØ¯": 5803,
      "ĠØ§Ø³Ù½ÙĪØ±": 5804,
      "ĠÙģØ±Ø¯ÙĨ": 5805,
      "ĠÚªØ±Ø§ÙĬÙĪØ³": 5806,
      "ĠÙ¾ÙĬØ¦ÙĨØ¯ÚĻ": 5807,
      "ĠØ±ÙĪØŃØ§ÙĨÙĬ": 5808,
      "ĠÚ¦Ø§Ù½ÙĬ": 5809,
      "ĠØ§Ø´ÙĪØ²": 5810,
      "ĠØ³ÚĥØ§Ú»Ø§ÙĨØ³": 5811,
      "ĠÚıÙĬÚ©Ø§Ø±ÙĬÙĦ": 5812,
      "Ù¸Ù¹": 5813,
      "ÙĪØ³Ú»": 5814,
      "ÙĪØ³Ø§Ø±": 5815,
      "Ø§Ø¤Úº": 5816,
      "ĠØ¬Ø±Ùħ": 5817,
      "ĠØ¬Ø±ÙħÙĨÙĬØ¡": 5818,
      "ĠØ¬ÛĮØ³Ø§": 5819,
      "ĠØ³ÙĬÙĪØ§": 5820,
      "ĠØ³ÙĬÙĪÙĪ": 5821,
      "ĠØ³Ø±ÙĪÙĬ": 5822,
      "ĠØ³Ø±ÙĪÙħ": 5823,
      "ÙħØ§Ú»Ú¾ÙĨ": 5824,
      "ÙħØ§Ú»Ú¾ÙĪ": 5825,
      "Ø³ÙĦØ§ÙħØª": 5826,
      "ĠÙ¾ØªÚ¾Ø±": 5827,
      "ĠÙ¾Ø§ÙĦÙĬØ³ÙĬ": 5828,
      "ĠÙ¾Ø§Ù¾ÙĨ": 5829,
      "Ø¨Ø§Ø¨ÙĪ": 5830,
      "ĠØ¨ÙĨØ§ÛĮØ§": 5831,
      "Ú©Ø³ÛĮ": 5832,
      "ĠÚĨÚ¾Ù½ÙĬ": 5833,
      "ĠÚĨØ§ÛģØªÛĴ": 5834,
      "ĠØ´ÚªØ§Ø±Ù¾ÙĪØ±": 5835,
      "ĠÚ³ÙĪÙĦÚ»": 5836,
      "ĠÚ³ÙĪÙĦÙĬÙĪ": 5837,
      "ĠÚ³ÙĪÙĦÚ¾ÙĬ": 5838,
      "ĠÙģØ¶ÙĪÙĦ": 5839,
      "ÚĢÙĬÚ»": 5840,
      "ĠÚªÙħÙĨÙ½Ø³": 5841,
      "ĠÚªÙħÙ¾ÙĬÙĪÙ½Ø±": 5842,
      "Ø³ÙĬØªØ§Ø¦ÙĬÙĨ": 5843,
      "Ø§Ø²Ø´ÙĪÙĨ": 5844,
      "ĠÙºØ§ÙĩÙĬÙĪ": 5845,
      "ĠÙħÙĨØ·ÙĤÙĬ": 5846,
      "ĠØ±ÙĪÙ¾ÛĴ": 5847,
      "ĠÚ¦ÙĦØ§Ú»ÙĪ": 5848,
      "ĠÙ¹ÙĪÛĮÙ¹Ø±": 5849,
      "ĠÙ¹ÙĪÙ¸Ù¹": 5850,
      "Û°Û°Û°": 5851,
      "ĠÙ½ÙĬÚªÙĨØ§ÙĦØ§Ø¬ÙĬØ¡": 5852,
      "Ø§Ø¸Øª": 5853,
      "ĠØ³Ø§Ú»Ø³": 5854,
      "ĠÙħÙĦÙĪØ«": 5855,
      "ĠÙĪÙĨÚĬÙĬØ§": 5856,
      "ĠÙĨØ³ÙĦ": 5857,
      "ĠØ§Ø²ÙĦÙĬ": 5858,
      "ÙģÙĬØ³Ø±": 5859,
      "ĠØ§ÙĨØ¬Ø§Ùħ": 5860,
      "ĠØ¯Ø±ÙĬØ§Ø¡": 5861,
      "ĠØ¯ÙĦÙĬØ±": 5862,
      "ĠØ´ÙħØ§Ø±ÙĪ": 5863,
      "ĠØ´ÙħÚĬÙ¿": 5864,
      "ĠÚĢÙĦØ§Ø¦ÙĬ": 5865,
      "ĠÚĢÙĪÙĨÚªÙĨØ¯ÚĻ": 5866,
      "ĠØŃÙħØ§ÙĬØªÙĬ": 5867,
      "ĠØ³ÙĬØ¨ØªÙĪ": 5868,
      "ĠÙĨØ¸Ø±ÙĬÙĬ": 5869,
      "ĠÙĨØ¸Ø§ÙħØ§Ú»ÙĬ": 5870,
      "ĠÙ¾ÙĨØ¬Ø§Ø¨": 5871,
      "ĠØ§ÙĨØªØ¸Ø§Ø±": 5872,
      "ĠÙħØªØŃØ¯Ûģ": 5873,
      "ĠØ´Ø§Ú¯Ø±Ø¯ÙĨ": 5874,
      "ĠØ²ÙĨØ¯Ú¯ÙĬÙĨ": 5875,
      "ĠØ²ÙĨØ¯Ú¯ÛĮ": 5876,
      "ĠÚ¯Ø°Ø±ÙĬÙĪ": 5877,
      "ĠÛ±Û°Û°": 5878,
      "ĠØªÙĤØ±ÙĬØ¨ÙĨ": 5879,
      "ĠÙħØ¸ÙĦÙĪÙħÙĬØª": 5880,
      "ĠÚ¦Ø§Ù¿Ø§": 5881,
      "ĠØªØ®ÙĦÙĬÙĤ": 5882,
      "ĠØ³ÚĮØ±ÙĬ": 5883,
      "ĠØ³Ø§ÚĻÙĬÙĪ": 5884,
      "ĠÚªÙ¾ÚĻÙĪ": 5885,
      "Ø³Ø²ÙĬØ¨": 5886,
      "ĠÙ¾Ø§Ø³ÙĨ": 5887,
      "ĠÙ¾Ø§Ø³ÙĪ": 5888,
      "ĠØ§ÙĬØ±Úª": 5889,
      "Ø¨Ø¬ÙĦÙĬ": 5890,
      "Ø¨Ø¬ÙĦÙĬØ¡": 5891,
      "ĠØ¨Ø§Ø³Ú»": 5892,
      "ĠØ¨Ø§ÙĤØ§Ø¹": 5893,
      "ĠØ¨ÙĨÚ¯ÙĦØ§": 5894,
      "ĠØ¨Ø§ØºØ§Ø¦ÙĬ": 5895,
      "ĠÙĨØªØ§Ø´Ø§": 5896,
      "ĠÙĨØ¨Ø§ØªØ§ØªÙĬ": 5897,
      "ĠÙĨÙĬØªÙĨ": 5898,
      "ĠÙ¿ÙĪØ±ÚĻÙĬ": 5899,
      "ĠÙĦÚ¾ÙĨØ¯ÚĻ": 5900,
      "ĠÙĦÚ¾Ú»ÙĬÙĨ": 5901,
      "ÙģÙĦØŃØ§ÙĦ": 5902,
      "ÙģØ§ÙĤÛĮ": 5903,
      "Ù¾Ø±ÙĪÙģÙĬØ³Ø±": 5904,
      "ĠØ±Ø¯Ø¹ÙħÙĦ": 5905,
      "ĠØ±ÙĪÙĦØ²": 5906,
      "ĠØ±Ø³ØªÙĪ": 5907,
      "ĠØ§ÙĨÚ¯ÙĪØ±": 5908,
      "ĠØ¯Ø§Ø®ÙĦØ§": 5909,
      "ĠØ´ÙĨØ§Ø³": 5910,
      "ĠØ´Ø§Ø¯ÙĬØ¡": 5911,
      "ÚĬÙĨÙ½": 5912,
      "Ø²Ø²Ø²Ø²": 5913,
      "ĠÚ³ÙĨÚįØ¨ÙĬ": 5914,
      "Ø§Ø³ÙħØ¬Ùĩ": 5915,
      "ÚĢÙ½Ø§Ø¦ÙĬ": 5916,
      "ĠØŃØ±Ø§ÙħÙĬ": 5917,
      "ĠØŃÚªÙħØ±Ø§ÙĨÙĨ": 5918,
      "ĠÙ¾ÙĪÚĻÚ¾Ø§": 5919,
      "ĠÚĬÙĪÙĦÙ¾ÙħÙĬÙĨÙ½": 5920,
      "ĠØ§ÙĬÙħØ§ÙĨØ¯Ø§Ø±ÙĬ": 5921,
      "ĠØ²ÙħØ§ÙĨÙĪ": 5922,
      "ĠØ²ÙħÙĬÙĨÙĪÙĨ": 5923,
      "ĠÙħÙĪØ¨Ø§Ø¦ÙĬÙĦ": 5924,
      "ĠÙħØ¹Ø§Ø´ÙĬ": 5925,
      "ĠÙĪÙĬÚĨØ§Ø±ÙĪ": 5926,
      "ĠÚ¦ÙĪØ´Ø±": 5927,
      "ĠÛģÙĪÚ¯Ø¦ÛĴ": 5928,
      "ĠÙħØ·Ø§ÙĦØ¨ÙĨ": 5929,
      "ĠÙ¾Ú¾ÚĨÙĨØ¯ÚĻ": 5930,
      "ĠÙħØ´ÙĬÙĨÙĨ": 5931,
      "ĠÙĨÙģØ³ÙĬØ§ØªÙĬÙĨ": 5932,
      "ĠØ¹ÙĦØ§Ø¦ÙĤØ§": 5933,
      "ĠØ¹ÙĦØ§Ø¦ÙĤÙĨ": 5934,
      "Ø³Ø³Ø³Ø³Ø³Ø³Ø³Ø³": 5935,
      "ĠØ¬Ø°Ø¨Ø§ØªÙĬØª": 5936,
      "ĠØ¯Ø§ÙĨØ´ÙĪØ±": 5937,
      "ĠØ¯ÙĬÙħØ§ÚªÙĨ": 5938,
      "ĠØ§Ø¦ÚĬ": 5939,
      "ÙĨÙĤØ·Ûģ": 5940,
      "ĠØ¬Ø¬ÙħÙĬÙĨÙ½ÙĦ": 5941,
      "ĠØ³ÙĦÙĬØ¨Ø±": 5942,
      "ĠÙħÙģØ§Ø¯": 5943,
      "ĠÙħØ§ØŃÙĪÙĦ": 5944,
      "ĠÙħØ§ØŃÙĪÙĦÙĬØ§ØªÙĬ": 5945,
      "ĠÙħØºØ²": 5946,
      "ĠÚªØ¦ÙħØ±Ø§": 5947,
      "ĠÚªÙĦÙĬØ¦Ø±": 5948,
      "ÚªØ§ÙĪÚĻ": 5949,
      "ĠÙ¾Ø§ÙĨÚĨØ§": 5950,
      "ĠØªØ´Ø¯Ø¯": 5951,
      "ĠØ§Ú¯ÙĨÙĪØ±": 5952,
      "ĠØ§ÙĦÙĪØ·ÙĨÙĬ": 5953,
      "ĠØ§ÛĮØ³ÛĴ": 5954,
      "ĠÙĪØ¬Ûģ": 5955,
      "ĠÙĪÚĩØ§Ø¦ÙĬ": 5956,
      "ĠØ¨ÙĪØªÙĦ": 5957,
      "ĠØ¨Ø±ÙĬØ§ÙĨÙĬ": 5958,
      "ĠØ¨ÚĨÙĬÙĦ": 5959,
      "ĠÙĨØ°ÙĬØŃÛģ": 5960,
      "ĠÙĨÚªØ±ÙĨØ¯ÚĻ": 5961,
      "ĠÙĨÚ©ÙĦØªØ§": 5962,
      "ĠÙ¿ÚªØ¬ÙĬ": 5963,
      "ĠÙĦÚªØ§Ø¦Ú»": 5964,
      "Ù¾ÙĨØ¬Ø§Ø¨": 5965,
      "ÙĤØ¨ÙĦØ§": 5966,
      "ĠØ±Ù¾ÙĪØ±Ù½": 5967,
      "ĠÚĨÚ¾ÙĪÙ¹ÛĴ": 5968,
      "ĠÚıÙºØ§Ø¦ÙĬÙĨ": 5969,
      "ĠÚ¯Ú¾ÙĪÚĻÙĪ": 5970,
      "ĠÙ»ÚĨÚĻÙĨ": 5971,
      "ÚĨØ§ÙĨÚ¾": 5972,
      "ĠØ¯ÙĬÙĪÙħØ§ÙĦØ§Ø¦ÙĬ": 5973,
      "ĠØ¯ÙģØ§Ø¹": 5974,
      "ĠØ§ÙĪØ·Ø§ÙĤ": 5975,
      "ĠØ§ÙĪØ·Ø§ÙĤÙĬ": 5976,
      "Ø²Ø§Ø¯Ùĩ": 5977,
      "ĠØ¹ÙĤÙĦÙĬ": 5978,
      "ĠÙģÙĪØª": 5979,
      "ĠØŃÙģÙĬØ¸": 5980,
      "ĠØŃÙģØ§Ø¸Øª": 5981,
      "Ø®ÙĬØ±Ù¾ÙĪØ±": 5982,
      "ĠØ³Ø±Ø´ØªÙĪ": 5983,
      "ĠÙħÙĪÙ½Ø±Ø³Ø§Ø¦ÙĬÚªÙĦ": 5984,
      "ĠÙħØ¹ÙĨØ§Ø¦ÙĪÙĨ": 5985,
      "ĠØ§Ù¿Ø§Ø±Ù½ÙĬØ¡": 5986,
      "ĠÙħÚ¾ÙĬÙĨÙĨ": 5987,
      "ĠØ³ÙĬÚ©Ø§Ø±Ú»": 5988,
      "ĠØ³ÙĬÚ©Ø§Ø±ÙĬØ§ÙĨ": 5989,
      "ĠÙĪØ§Ù½ÚªÙĨØ²": 5990,
      "ĠÙħÙĬÙ½Ø±ÚªØ³": 5991,
      "ÚªØ§Ø±Ù¾ÙĪØ±ÙĬÙ½": 5992,
      "ĠÙĤÙĪÙħÙ¾Ø±Ø³Øª": 5993,
      "ĠÙĤÙĪÙħÙ¾Ø±Ø³ØªÙĬ": 5994,
      "ĠÙĬÙĪØ²Ø±": 5995,
      "ĠÙħØ±Ø¶ÙĬØ¡": 5996,
      "ĠÙĩÙĪÙĨØ¯Ø¦ÙĪ": 5997,
      "ĠØ¨Ø¯ÙĨØ§ÙħÙĬ": 5998,
      "ĠÚªØ§ÙħØ±ÙĬÚĬÙĨ": 5999,
      "ÙĢÙĢÙĢÙĢÙĢÙĢÙĢÙĢÙĢÙĢÙĢÙĢÙĢÙĢÙĢÙĢÙĢÙĢÙĢÙĢ": 6000,
      "ĠØŃÚªÙĪÙħØªÙĪÙĨ": 6001,
      "ĠÙĨØ§Ø±Ø§Ø¶Ú¯ÙĬ": 6002,
      "ÙĪÚĮÙĬÚª": 6003,
      "Ø§ÙĨÚ¯Ø±ÙĬØ²ÙĬ": 6004,
      "ĠØ¬Ø§Ø±Ø¬": 6005,
      "ĠØ¬Ú¾ÙĪÙ¹": 6006,
      "ĠØ¬Ø¨Ø±Ø§ÙĨ": 6007,
      "ĠØ³ÚªÙĨØ¯Ø±": 6008,
      "ĠÙħÙĬØ¯Ø§ÙĨ": 6009,
      "ĠÙħÙĬÙĪØ²ÙĬØ¦Ùħ": 6010,
      "ĠÚªÙĪÙĦÙĩÙĬ": 6011,
      "ĠÚªØ´ÙħØ´ÙĬ": 6012,
      "Ø³Ø§Ú³ÙĬÙĪ": 6013,
      "ÚªØªØ§Ø¨ÙĨ": 6014,
      "ĠØ¢Ø³Ø§ÙĨÙĬÙĨ": 6015,
      "ĠØ¢Ø±ÚªØ§Ø¦ÙĬÙĪØ²": 6016,
      "ĠØªÙħÛģÛĮÚº": 6017,
      "ĠØªÛĮØ±Ø§": 6018,
      "ĠØ§ÙĦÙĬÚªØ´ÙĨ": 6019,
      "ĠÙĪÙĨÚ¯Ø±": 6020,
      "ĠÚ©ÙĨÙĬÙĦ": 6021,
      "ĠÚ¾ÙĨØ¯Ø§Ú»ÙĬ": 6022,
      "ĠÙ¿Ø±ÚĬ": 6023,
      "ĠÙĦÚĻÚªÙĬ": 6024,
      "ÙĤÙĪÙħÙĬ": 6025,
      "ĠØ§ÙĨÙĤÙĦØ§Ø¨ÙĬ": 6026,
      "Ú¯Ø°Ø±ÙĬÙĦ": 6027,
      "ĠÚĨØ¦ÙĨÙĦ": 6028,
      "ĠÚĨÛĮÙĨÙĦ": 6029,
      "ĠÚıÙĩØ§ÚĻÙĬ": 6030,
      "ĠÚ¯ÙģØªÙĪ": 6031,
      "ĠØ®Ø§ÙħÙĬÙĨ": 6032,
      "ĠØ¯ÚªØ§ÙĨØ¯Ø§Ø±": 6033,
      "ĠØ´Ø±ÙĬØ¹ØªÙĬ": 6034,
      "ĠØ§ÙĪÙĦØ§Ø¯": 6035,
      "ĠØ§Ø³ÚªÙĬÙ¾": 6036,
      "ĠÙĤØµÛĮØ¯Ûģ": 6037,
      "ĠÙĤØ¨ÙĪÙĦÙĬ": 6038,
      "ĠÙĤÙĬÙħØª": 6039,
      "ĠØ³Ø§ÙĨÚįÚ»": 6040,
      "ĠØ³Ø§ÙĨÚ¯Ø±ÙĬØ¡": 6041,
      "ĠÚĢØ§Ú³ÙĬØ§": 6042,
      "ĠÙģÚ¾ÙħÙĬØ¯": 6043,
      "ĠØ¬Ø§Ú³Ø±ØªØ§": 6044,
      "ĠØµÙĨØ¹Ø§ÙĨ": 6045,
      "ĠØŃÙĪØ§ÙĦÙĬ": 6046,
      "ĠØŃØµÙĬ": 6047,
      "ĠØŃÙħØ²Ùĩ": 6048,
      "ĠÚĬÙĪØ±Ø§ÙĨ": 6049,
      "ĠØ§ÙĬÚĬÙ½": 6050,
      "ĠØ§ÙĬØ¬ÙĨÙ½": 6051,
      "ĠÙĦÚ³ÙĬÙĨÙħ": 6052,
      "ĠØ·Ø§ÙĤØª": 6053,
      "ĠÙºÚ¾Ø±Ø§Ø¦ÙĬ": 6054,
      "ĠØ¬ÙĨØ±ÙĦ": 6055,
      "ĠØ±ÙĪØ§ÙĬØªÙĬ": 6056,
      "ĠÙħØ³ÙĦÙħØ§ÙĨÙĨ": 6057,
      "ĠØ¶ÙĦØ¹": 6058,
      "ĠÙħÙĬÚĬÙĬØ§Ø¦ÙĬ": 6059,
      "ĠÛĮÙĪÙ¹ÛĮÙĪØ¨": 6060,
      "ĠÙģÙĦØ§Ø³Ø§ÙģÙĬ": 6061,
      "ĠØ¨ØŃØ±ÙĬÙĩ": 6062,
      "ĠÙģØ±Ø´ØªØ§": 6063,
      "ĠÙģØ±ÙħØ§ÛĮØ§": 6064,
      "ĠÙ¾ÙĬØ±Ø§ÚĬ": 6065,
      "ĠÙħØ´Ø§Ú¾Ø¯ÙĨ": 6066,
      "ĠØ±Ø³ÙĬØ¯ÙĪÙĨ": 6067,
      "ĠÙĪØ³Ø§Ø±Ø¬ÙĪ": 6068,
      "ĠØ¹ÙĦØ§Ø¦ÙĤÙĬ": 6069,
      "ĠÙħÙĪÙĤØ¹Ø§": 6070,
      "Ú³ÙĪÙºÙĨ": 6071,
      "ĠØ¢Ø¦ÙĬÙĨØ¯Ùĩ": 6072,
      "ĠÙ½Ø±Ø§ÙĨØ³ÙĦÙĬÙ½": 6073,
      "ĠÙģÙĦØ³Ø·ÙĬÙĨ": 6074,
      "Ù¾Ø§Ø±Ù¹ÙħÙĨÙ¹": 6075,
      "ĠÙ¾Ø§ÙĦÙĬØ³ÙĬÙĪÙĨ": 6076,
      "ĠØ´ÙĨØ§Ø®ØªÙĬ": 6077,
      "ÙĨÙģØ³ÙĬØ§ØªÙĬ": 6078,
      "ĠÙĦØ§ÚĻÚªØ§Ú»ÙĪ": 6079,
      "ĠØ²ÙĪÙħØ¨ÛĮØ²": 6080,
      "ÙĨØ§ÙĨÚ¾ÙĨÚ¯": 6081,
      "ÙĪØ§ÙĨØ¯Ø§": 6082,
      "ÙĪØ§ÙĤØ¹ÙĬ": 6083,
      "ĠØ¬Ø¯ÙĪØ¬Ú¾Ø¯": 6084,
      "ĠØ¬ÙħÙĬÙĦØ§": 6085,
      "ĠØ¬ÙħØ§ÙĦÙĬØ¡": 6086,
      "ĠØ³ÙĬØ³Ø±Ø§": 6087,
      "ĠØ³Ø§ÙĪØ§": 6088,
      "ĠØ³ÙĬØ²ÙĨ": 6089,
      "ĠØ³Ø³Ù½Ùħ": 6090,
      "ĠØ³Ù¾ÙĪØ±Ù½": 6091,
      "ĠÙħØ³ÙĬØ¬": 6092,
      "ĠÙħÚ©ÙĬÛģ": 6093,
      "ĠÙħØ§Ø¶ÙĬØ¡": 6094,
      "ĠÙħØ§Ø±ÙĪØ¦ÚĻÙĨ": 6095,
      "ÙħØ·ÙĦØ¨": 6096,
      "ÙħØ¨Ø§Ø±ÚªÙĪÙĨ": 6097,
      "ÙħØ´ØªØ§ÙĤ": 6098,
      "Ø§Ú¾Ú¾Ø§Ø§": 6099,
      "ĠÚªÙĪØ±ÙĪÙĨØ§": 6100,
      "ĠÚªØ§Ø¨Ûģ": 6101,
      "ĠÚªÙĬÙĨÚĬÙĬ": 6102,
      "Ø³Ú©ØªÛĴ": 6103,
      "Ø³ÙĨÚ¯Øª": 6104,
      "ĠØ¢Ù¿Øª": 6105,
      "ĠØ¢ÚĢØ§Ø±ÙĬ": 6106,
      "ĠØ¢Ú±ÙĪÙºÙĪ": 6107,
      "ĠØ¢ÙĤØ§Ú¯ÙĬØ±ÙĬØ¡": 6108,
      "ĠÙ¾Ø®ØªÙĪ": 6109,
      "ĠÙ¾Ø³ÙħÙĨØ¸Ø±": 6110,
      "ĠØªØ¨ÙĦÙĬØº": 6111,
      "ĠØªØ§ÚĥÙĬ": 6112,
      "ĠØ§Ù½ÙĬÙĨØ´ÙĨ": 6113,
      "ĠØ§Ù»ÙĪØ¬ÙĩÛģ": 6114,
      "ĠÙĪÚ©ÙĪÙĨ": 6115,
      "ĠÙĪÙĬÚªØ³ÙĬÙĨ": 6116,
      "ĠÙĪØ§Ø¦ÙĦÚĬ": 6117,
      "ĠÙĪØ§Ø¦Ø±ÙĦ": 6118,
      "ĠÙĪÙĬÙĨÚ¯Ø³": 6119,
      "ĠÙĪÙĨØ¬ÙĩÙĩ": 6120,
      "Ø¬Ø§ÙĪÙĬØ¯": 6121,
      "ĠÚ©ÙħÙ¾ÙĨÛĮ": 6122,
      "Ø¨Ú¾Ø±ØŃØ§ÙĦ": 6123,
      "ĠØ¨Ú¾ÙĪÚ©": 6124,
      "ĠØ¨Ø§ÙĪØ¬ÙĪØ¯": 6125,
      "ĠØ¨ÙĦÚ©Ûģ": 6126,
      "ĠØ¨ÚĨØ§ÙĬÙĪÙĨ": 6127,
      "ĠØ¨Ø·ÙĪØ·Ûģ": 6128,
      "ĠÙĨØ§ÙĤØ§Ø¨ÙĦ": 6129,
      "ĠÙĨØ®Ø±Ø§": 6130,
      "ĠÚ¾Ø§Ø³Ù½ÙĦ": 6131,
      "ĠÚ¾Ø±ÙĪÚĢØ±ÙĪÙĨ": 6132,
      "ĠÙĦÙĤØ§Ø¡": 6133,
      "ĠÙĦØ§Ø¦ÙĬÙģ": 6134,
      "ĠÙĦØŃØ§Ø¸": 6135,
      "ÙģØ·Ø±Øª": 6136,
      "ĠØ±ÙģØªØ§Ø±": 6137,
      "ĠØ±ÙĬØ®ØªØ§": 6138,
      "ĠØ¬ÙĪÚ»ÙĬØ¬ÙĪ": 6139,
      "ĠØ§ÙĨÚĪØ³Ù¹Ø±ÛĮ": 6140,
      "ĠØ§ÙĨÙ½Ø±ÙĪÙĬÙĪ": 6141,
      "ĠÚĨØ§Ù¾ÙĦÙĪØ³ÙĬ": 6142,
      "ĠÚıØ§ÚªØ¯Ø±": 6143,
      "ĠÚ¯Ø§Ø¦ÙĬÚĬ": 6144,
      "ĠÚ¯ÙģØªÚ¯ÙĪ": 6145,
      "ĠØ®ÙĦÙĪØµ": 6146,
      "ĠØ®ØªÙĨÙĪ": 6147,
      "ĠØ®ÛĮØ±Ù¾ÙĪØ±": 6148,
      "ĠØ¯Ú¾ÛĮØ§ÙĨ": 6149,
      "ĠØ¯Ø´ÙħÙĨÙĬ": 6150,
      "ĠØ§Ø³ÚªØ±Ù¾Ù½": 6151,
      "ĠØ¹Ø§ÙĤØ¨Øª": 6152,
      "ĠØ¹Ø§Ø¦Ø´Ûģ": 6153,
      "ĠØ¹Ø¯Ø§ÙĦØª": 6154,
      "ĠØ¬Ø§Ú¯ÙĬØ±Ø§Ú»ÙĬ": 6155,
      "ĠÙ¾ÙĪÙĦÙĬÙ½ÚªØ³": 6156,
      "ĠÚªÙħÙĬÙĪÙ½ÙĬØ´ÙĨÙĦ": 6157,
      "ĠÚĬØ§ÚªÙĬÙĪÙħÙĬÙĨÙ½": 6158,
      "ĠÚĬÙĪÙħÙĬØ³": 6159,
      "ĠÚĬØ§Ø¦ÙĨÙĪØ³Ø§Ø±": 6160,
      "ĠÚĬÚªØ´ÙĨØ±ÙĬ": 6161,
      "Ø³ÙĬØ±ÙĬØ³ÙĦÙĬ": 6162,
      "ĠØ§ÙĬÚĬÙĪØ§ÙĨØ³": 6163,
      "ĠØ³Ø±Ú¯Ø±Ùħ": 6164,
      "ĠØ²ÙĬØ§Ø¯ØªÙĬ": 6165,
      "ĠØ²Ø±Ø§Ø¹Øª": 6166,
      "ĠØºÙģÙĦØª": 6167,
      "ĠÙħØŃÙħÙĪØ¯": 6168,
      "ØªÙĪØ¨Ú¾Ûģ": 6169,
      "ĠØ§Ø¨Ø±Ø§Ú¾ÛĮÙħ": 6170,
      "ĠÙħØ³Ø¹ÙĪØ¯": 6171,
      "ĠØ®ÙĪØ´ÙĨØµÙĬØ¨": 6172,
      "Ø¢ÙħØ±ÙĬÚªÙĬ": 6173,
      "ĠÚ©Ø±Ø§ÚĨÛĮ": 6174,
      "ĠÙħØ§ÚĬØ±ÙĨØ²Ùħ": 6175,
      "ĠÙ¾ÙĬØ±Ø§Ú¯Ø±Ø§Ùģ": 6176,
      "ĠØ¬ÙĩÙĪÙĨÚ¯Ø§Ø±ÙĬÙĨØ¯Ø§": 6177,
      "ĠÙĨØ¸Ø±Ø§ÙĨØ¯Ø§Ø²": 6178,
      "ÚªÙħÙ¾ÙĬÙĪÙ½Ø±": 6179,
      "ĠÙ¾Ø±ÙĬØ²ÙĬÙĨÙ½ÙĬØ´ÙĨ": 6180,
      "ĠÙħØ§ÙĦÚªÙĪÙĨØ³": 6181,
      "ĠØ§ÙĨØ³Ù½ÙĬÙ½ÙĬÙĪÙ½": 6182,
      "ĠØ·Ø¨ÛĮØ¹Øª": 6183,
      "ĠØ¹Ø¨Ø¯Ø§ÙĦÙĦØ·ÙĬÙģ": 6184,
      "ĠØªØµØ¯ÛĮÙĤ": 6185,
      "\".": 6186,
      "\"ØĮ": 6187,
      ".ØŁ": 6188,
      ".ï¸ı": 6189,
      "712": 6190,
      "Ba": 6191,
      "Fa": 6192,
      "Pa": 6193,
      "Po": 6194,
      "Ri": 6195,
      "Ro": 6196,
      "Sc": 6197,
      "Swi": 6198,
      "Un": 6199,
      "Ver": 6200,
      "at": 6201,
      "az": 6202,
      "bl": 6203,
      "ck": 6204,
      "cs": 6205,
      "de": 6206,
      "ed": 6207,
      "en": 6208,
      "es": 6209,
      "et": 6210,
      "gen": 6211,
      "hw": 6212,
      "her": 6213,
      "hwi": 6214,
      "hat": 6215,
      "ics": 6216,
      "kn": 6217,
      "ld": 6218,
      "ngen": 6219,
      "nhw": 6220,
      "ou": 6221,
      "ow": 6222,
      "sed": 6223,
      "tz": 6224,
      "ther": 6225,
      "you": 6226,
      "¤ØªÚĻ": 6227,
      "¥Ù": 6228,
      "«Ø±ÙĬÙĨ": 6229,
      "¶ÙĨ": 6230,
      "·ÙĦ": 6231,
      "·Û³": 6232,
      "Â«": 6233,
      "Âł": 6234,
      "Ùį": 6235,
      "Ùĳ": 6236,
      "ÙŃ": 6237,
      "Ù¶ÙĨ": 6238,
      "Û±": 6239,
      "Ûĥ": 6240,
      "Û·Û³": 6241,
      "ĠI": 6242,
      "ĠM": 6243,
      "Ġh": 6244,
      "ĠâĢ": 6245,
      "ĠÙĬØ§Ø±Ø§": 6246,
      "ĠÙĬØ´": 6247,
      "ĠÙĬØ²": 6248,
      "Ġ22": 6249,
      "Ġ30": 6250,
      "ĠÙĬØ®": 6251,
      "Ġ52": 6252,
      "Ġ48": 6253,
      "ĠØ§Ø¦ÛĮÙĨ": 6254,
      "ĠÛĶÛĶÛĶ": 6255,
      "Ġ50": 6256,
      "Ġ35": 6257,
      "Ġwi": 6258,
      "ĠâĢĻ": 6259,
      "ĠFa": 6260,
      "ĠPa": 6261,
      "ĠRi": 6262,
      "ĠSwi": 6263,
      "ĠUn": 6264,
      "ĠVer": 6265,
      "Ġbl": 6266,
      "Ġther": 6267,
      "ĠÂ«": 6268,
      "Ø§ÙĬÙĨ": 6269,
      "Ø§ÛĮ": 6270,
      "Ø§ÙĪÙĨ": 6271,
      "Ø§ÙĪØ±": 6272,
      "Ø§Ùº": 6273,
      "Ø§ÚªÙĪ": 6274,
      "Ø§ÙĬÚª": 6275,
      "Ø§ÙĬÙĦ": 6276,
      "Ø§ÙĬØ§ÙĨ": 6277,
      "Ø§Ú¯Ø±ÙĬ": 6278,
      "Ø§ÙĬÙĨÚĬ": 6279,
      "Ø§ÛĮØ³": 6280,
      "Ø§ÚĩÙĪ": 6281,
      "Ø§Ù»ÙĬ": 6282,
      "Ø§ÚªÙĬÙ½": 6283,
      "Ø§ÚĳÛĮ": 6284,
      "Ø§Ù»ÙĪ": 6285,
      "Ø§ÙĬØ´ÙĬ": 6286,
      "Ø§Ù»ÙĬÙĨ": 6287,
      "Ø§Ù¶ÙĨ": 6288,
      "ÙĬÙĬÙĨ": 6289,
      "ÙĬÙĩ": 6290,
      "ÙĬÙ¾": 6291,
      "ÙĬØ¦ÙĬ": 6292,
      "ÙĬØ§Ø¦ÙĬ": 6293,
      "ÙĬØ§Øª": 6294,
      "ÙĬÚĦ": 6295,
      "ÙĬÙĦÙĪ": 6296,
      "ÙĬÙģØ§": 6297,
      "ÙĬØ¨ÙĬ": 6298,
      "ÙĬØ¦Ø±": 6299,
      "ĠØĽ": 6300,
      "ÙĨÙĦ": 6301,
      "ÙĨØ§ÙĨ": 6302,
      "ÙĨØ§Ø¦": 6303,
      "ÙĨØ¨": 6304,
      "ÙĨØ§Ø±": 6305,
      "ÙĨÚ©": 6306,
      "ÙĨØ´": 6307,
      "ÙĨØ§Ø¦ÙĬ": 6308,
      "ÙĨØ§Ùħ": 6309,
      "ÙĨØ¬ÙĪ": 6310,
      "ÙĨÚĻÙĬ": 6311,
      "ÙĨØ¸": 6312,
      "ÙĨØ®": 6313,
      "ÙĨÙ¹": 6314,
      "ÙĨØªØ§": 6315,
      "ÙĨØ¨ÙĬ": 6316,
      "ÙĨÙĨÚĬ": 6317,
      "ÙĨØ§ÙĦÙĬ": 6318,
      "ÙĨØªÙĪÙĨ": 6319,
      "ÙĨØ´ÙĬ": 6320,
      "ÙĨØ´ÙĪ": 6321,
      "ÙĨÙ½ÙĨ": 6322,
      "ÙĨÙĬØ´ÙĨÙĦ": 6323,
      "ÙĨØ§ÙħÙĪ": 6324,
      "ÙĨÙħØ¨Ø±": 6325,
      "ÙĨÙĬØ±ÙĨ": 6326,
      "ÙĨÙħØ±ÙĪ": 6327,
      "ÙĨÙĬÙĨÚ¾ÙĨ": 6328,
      "ÙĨÙĪÙĦÙĪ": 6329,
      "ÙĨØ§Ø³Ø¨": 6330,
      "ÙĨØ¬ÙĪÙħÙĬ": 6331,
      "ÙĨÙĬÚªÙĦÙĬ": 6332,
      "ÙĨØ§Ø³ÙħØ¬Ùĩ": 6333,
      "ÙĪØ¯": 6334,
      "ÙĪÙģ": 6335,
      "ÙĪØ¬ÙĬ": 6336,
      "ÙĪÚĨ": 6337,
      "ÙĪØ§Ø¦ÙĬ": 6338,
      "ÙĪØ§Øª": 6339,
      "ÙĪØ¡": 6340,
      "ÙĪÛĮÚº": 6341,
      "ÙĪØ¬Ø§": 6342,
      "ÙĪÙĤØª": 6343,
      "ÙĪÚªØ±ÙĬ": 6344,
      "ÙĪØªØ§": 6345,
      "ÙĪØ³Ø±": 6346,
      "ÙĪÚĦÙĬ": 6347,
      "ÙĪØ§Ù¾": 6348,
      "ÙĪÚĪ": 6349,
      "ÙĪØ§Ø±Ø§": 6350,
      "ÙĪÚĮÙĪ": 6351,
      "ÙĪØ§ÙĨØ¯": 6352,
      "ÙĪØ§Ø¦ÙĬØ¡": 6353,
      "ÙĪÚĮÙĬ": 6354,
      "ÙĪØ§Ùĩ": 6355,
      "ÙĪØ§Ù½": 6356,
      "ÙĪØ§ÙĨØ§": 6357,
      "ÙĪØ·ÙĨ": 6358,
      "ÙĪØ§Ø¦ÙĬØ³": 6359,
      "ÙĪØ·Ø§": 6360,
      "ÙĪÙĬØ³ÙĬ": 6361,
      "ÙĪÙ¹ÛĴ": 6362,
      "ÙĪÙ¾ÛĮ": 6363,
      "ÙĪØ¹ÙĦÙĬÚªÙħ": 6364,
      "ÙĪÚ»ÙĬÙĪ": 6365,
      "ÙĪÚ©Ø§": 6366,
      "ÙĪØ§ØŃØ¯": 6367,
      "ÙĪÚ»ÙĬÙĪÙĨ": 6368,
      "ÙĪÙĪÙĨÙ½": 6369,
      "ÙĪØ§Ø¨ÙĨ": 6370,
      "ÙĪÙģØ§ÙĤÛĮ": 6371,
      "ĠÙł": 6372,
      "ĠÙ¡Ù": 6373,
      "ĠÚ»": 6374,
      "ĠÚ¦ÙĬ": 6375,
      "Ø±Ùħ": 6376,
      "Ø±ÙĬÙĪ": 6377,
      "Ø±Ø§ÙĦ": 6378,
      "Ø±Ø¬ÙĬ": 6379,
      "Ø±Ø²": 6380,
      "Ø±ÚĻÙĬ": 6381,
      "Ø±Ú©ÙĬ": 6382,
      "Ø±Úį": 6383,
      "Ø±Ø§Ø¦Ú»": 6384,
      "Ø±ÙĤÙĬ": 6385,
      "Ø±Ù¾ÙĬ": 6386,
      "Ø±Ø§ÙĨÙĪ": 6387,
      "Ø±Ø§Ú³ÙĬ": 6388,
      "Ø±Ù¾Ø§": 6389,
      "Ø±Ù¾ÙĦØ§Ø¦ÙĬ": 6390,
      "Ø±Ø§ØŃØª": 6391,
      "Ø±Ø´ÙĪØª": 6392,
      "Ú¾Ø§Ø¦": 6393,
      "Ú¾Ø¦": 6394,
      "Ú¾Ø±ÙĬ": 6395,
      "Ú¾ÚĻ": 6396,
      "Ú¾Ú©": 6397,
      "Ú¾Ø§Ú»": 6398,
      "Ú¾ÙĪÙĦ": 6399,
      "Ú¾Ø¯ÙĬ": 6400,
      "Ú¾ÙħÙĬÙĨ": 6401,
      "Ú¾ÚĻØ§": 6402,
      "Ú¾Ú¾Ø§Ú¾Ø§Ú¾Ø§": 6403,
      "Ú¾Ù½ÙĦ": 6404,
      "Ú¾Ø§Ø¦ÛĮ": 6405,
      "Ú¾ÙĦØ§ÙĬÙĪ": 6406,
      "Ú¾Ø§Ú»ÙĬÙĨ": 6407,
      "Ú¾ÚĻÙĬØ¡": 6408,
      "Ú¾Ø²Ø§Ø±": 6409,
      "Ú¾Ø±ÙĪÚĢØ±ÙĪ": 6410,
      "Ú¾Ø§Ø¦ÛĴ": 6411,
      "Ú¾ØªØ§Ø±": 6412,
      "Ú¾Ø§Ú¾Ú¾Ø§Ø§": 6413,
      "ÙĦØª": 6414,
      "ÙĦÙĬÙĪ": 6415,
      "ÙĦØ±ÙĬ": 6416,
      "ÙĦÙĪÙĨ": 6417,
      "ÙĦÚĬ": 6418,
      "ÙĦØŃ": 6419,
      "ÙĦÚªÙĬ": 6420,
      "ÙĦØ¯Ø§": 6421,
      "ÙĦÙĩØ§": 6422,
      "ÙĦØ¨ÙĪ": 6423,
      "ÙĦØ¨ÙĬ": 6424,
      "ÙĦÛĮÚ©": 6425,
      "ÙĦØ§Ø¦ÙĨ": 6426,
      "ÙĦÙĤÙĬ": 6427,
      "ÙĦÚ³ÙĪ": 6428,
      "ÙĦØ§Ø¦ÛĮ": 6429,
      "ÙĦÛĮÙĦ": 6430,
      "ÙĦÛĮÛģ": 6431,
      "ÙĦØ§Ú»ÙĬÙĪÙĨ": 6432,
      "Ø§ÙĨÙĬÙĨ": 6433,
      "Ø§ÙĨÚª": 6434,
      "Ø§ÙĨÙĬÙĪ": 6435,
      "Ø§ÙĨØ¨": 6436,
      "Ø§ÙĨÙĪÙĨ": 6437,
      "Ø§ÙĨØ§ÙĦ": 6438,
      "Ø§ÙĨÚªÙĬ": 6439,
      "Ø§ÙĨÚªØ±ÙĬ": 6440,
      "Ø§ÙĨÚĪ": 6441,
      "Ø§ÙĨÚĮØ§": 6442,
      "Ø§ÙĨØ¬ÙĬÚª": 6443,
      "Ø§ÙĨØ¨ÙĨ": 6444,
      "Ø§ÙĨØªÛģ": 6445,
      "Ø§ÙĨÙģØ±": 6446,
      "Ø§ÙĨØ§ÙħÙĬ": 6447,
      "Ø§ÙĨÚĮÙĨ": 6448,
      "Ø§ÙĨÙĪÙĨÙĬ": 6449,
      "Ø§ÙĨÚĨØ±": 6450,
      "Ø§ÙĨØµØ§Ùģ": 6451,
      "Ø§ÙĨÙĩÙĬÙĨ": 6452,
      "Ø§ÙĨÚªÛģ": 6453,
      "Ø§ÙĨØ¦Ø¬ÙĬ": 6454,
      "ĠØ¬Ø§Ú¾": 6455,
      "ĠØ¬Ú¾ÙĨ": 6456,
      "ĠØ¬Ú©": 6457,
      "ĠØ¬Úı": 6458,
      "ĠØ¬Ø§Ú»": 6459,
      "ĠØ¬Ø¹": 6460,
      "ĠØ¬Ø²": 6461,
      "ĠØ¬Ùº": 6462,
      "ĠØ¬ÙĩÙĪ": 6463,
      "ĠØ¬ÙĩØ§ÙĨ": 6464,
      "ĠØ¬ØªÙĪ": 6465,
      "ĠØ¬Ø¬ÙĨ": 6466,
      "ĠØ¬Ø´ÙĨ": 6467,
      "ĠØ¬ØªÙĨ": 6468,
      "ĠØ¬ÙĦÙĬÙĦ": 6469,
      "ĠØ¬Ø§Ø¯ÙĪ": 6470,
      "ĠØ¬ÚĻÙĬÙĪ": 6471,
      "ĠØ¬Ø§Ø¤": 6472,
      "ĠØ¬Ø¹ÙĦÙĬ": 6473,
      "ĠØ¬Ú¯Ú¾": 6474,
      "ĠØ¬ØªÙĨØ§": 6475,
      "ĠØ¬Ø§ØªÛĮ": 6476,
      "ĠØ³Ø³": 6477,
      "ĠØ³Ú»": 6478,
      "ĠØ³Ø¦ÙĬ": 6479,
      "ĠØ³Ù¿": 6480,
      "ĠØ³Ø§Ø¡": 6481,
      "ĠØ³ÚªÙĦ": 6482,
      "ĠØ³Ø§Ú¾ÙĬ": 6483,
      "ĠØ³Ø·": 6484,
      "ĠØ³Ú¾Ø±": 6485,
      "ĠØ³Ø¦ÙĨ": 6486,
      "ĠØ³ÙĨØ¯ÙĪ": 6487,
      "ĠØ³Ø§Ùģ": 6488,
      "ĠØ³Ø§ÚĦ": 6489,
      "ĠØ³Ù»": 6490,
      "ĠØ³ÙģØ§": 6491,
      "ĠØ³ÙĨÚį": 6492,
      "ĠØ³Ø§Ø´": 6493,
      "ĠØ³Ø§ÚĻÙĬ": 6494,
      "ĠØ³Ø§Ø¦ÙĪ": 6495,
      "ĠØ³Ú¾ÛĮ": 6496,
      "ĠØ³ÙĨØ¯ÙĬ": 6497,
      "ĠØ³ÙĦØ·": 6498,
      "ĠØ³Ø§Ø¯ÙĬ": 6499,
      "ĠØ³Ø§Ø¯Ø§": 6500,
      "ĠØ³ÚªØ§": 6501,
      "ĠØ³ÙĪÙĦØ§": 6502,
      "ĠØ³Ù½ÙĨ": 6503,
      "ĠØ³ÚªÙĦÙĬ": 6504,
      "ĠØ³Ø§Ø¦ÛĮ": 6505,
      "ĠØ³Ø§Ø±ÙĨ": 6506,
      "ĠØ³Ø§Ø²ÙĬ": 6507,
      "ĠØ³ØªØ±Ø§": 6508,
      "ĠØ³ÛĮÙĦ": 6509,
      "ĠØ³Ø¬ÙĩÙĬ": 6510,
      "ĠØ³ÚĻÙĬÙĪ": 6511,
      "ĠØ³ÙģÙĪ": 6512,
      "ĠØ³Ø§Ø¦ÛĮÙĨ": 6513,
      "ĠØ³Ø³Ø¯Ø§": 6514,
      "ĠØ³Ù½ÙĬØ¡": 6515,
      "ĠØ³Ú»ÙĬÙĨ": 6516,
      "ĠØ³Ø¤": 6517,
      "ĠØ³ÚªÙĬÙĨ": 6518,
      "ĠØ³ØŃØ±": 6519,
      "ĠÙħØ¨": 6520,
      "ĠÙħÚ¾ÙĨ": 6521,
      "ĠÙħØ§Ø¦ÙĬÙĨ": 6522,
      "ĠÙħÚ¾ÙĬ": 6523,
      "ĠÙħÚ©": 6524,
      "ĠÙħÚĮ": 6525,
      "ĠÙħØ¦ÙĬ": 6526,
      "ĠÙħÚĨ": 6527,
      "ĠÙħØ§Ø¨": 6528,
      "ĠÙħØ§Øª": 6529,
      "ĠÙħØ§Ú»ÙĬ": 6530,
      "ĠÙħÙĩØ§": 6531,
      "ĠÙħÙĬÚª": 6532,
      "ĠÙħØ¯ÙĪ": 6533,
      "ĠÙħÚ»ÙĬ": 6534,
      "ĠÙħÙĨÚ¯": 6535,
      "ĠÙħÙĨÙĬ": 6536,
      "ĠÙħØ³ÙĪ": 6537,
      "ĠÙħØ±ÙĬÙĨ": 6538,
      "ĠÙħØ³Ùħ": 6539,
      "ĠÙħÙĬØª": 6540,
      "ĠÙħÙĤØª": 6541,
      "ĠÙħÚıÙĬ": 6542,
      "ĠÙħÚ¯Ø±": 6543,
      "ĠÙħØ§Ø¦ÙĪ": 6544,
      "ĠÙħØ¬ÙĨ": 6545,
      "ĠÙħØ§ÙĦÙĬ": 6546,
      "ĠÙħØ§Ø¯ÙĬ": 6547,
      "ĠÙħØ±Ø§": 6548,
      "ĠÙħØ§Ø±Ú»": 6549,
      "ĠÙħÚ³ÙĬ": 6550,
      "ĠÙħÙĤØ±": 6551,
      "ĠÙħØ§Ø®": 6552,
      "ĠÙħÙĬØ±ÙĪ": 6553,
      "ĠÙħÙĩØ±": 6554,
      "ĠÙħÙĦØ§ÙĬÙĪ": 6555,
      "ĠÙħÙ¹ÛĮ": 6556,
      "ĠÙħØ¦ÙĦ": 6557,
      "ĠÙħØ§ØªÙħ": 6558,
      "ĠÙħØ§Ø¶ÙĬ": 6559,
      "ĠÙħÛĮØ§Úº": 6560,
      "ĠÙħÙħØ¨Ø±": 6561,
      "ĠÙħÚ¾ÙĨØ¯ÙĬ": 6562,
      "ĠÙħØ¤": 6563,
      "ĠÙħÚ¾ÙĬØ§": 6564,
      "ĠÙħÚ©Ø§ÙĨ": 6565,
      "ĠÙħÚ±Ú»": 6566,
      "ĠÙħÚ©Ú»": 6567,
      "ĠÙħÙĨØ¯Ø±Ø³ØªÙĬ": 6568,
      "ÙħÚª": 6569,
      "ÙħØ§Ø¦": 6570,
      "ÙħØ¦": 6571,
      "ÙħÚ¾ÙĨ": 6572,
      "ÙħÙ½": 6573,
      "ÙħÛĮ": 6574,
      "ÙħÙģ": 6575,
      "ÙħÙĨÚ¾ÙĨ": 6576,
      "ÙħÙĨÚĮ": 6577,
      "ÙħØ§Ø³": 6578,
      "ÙħØ§Ø±ÙĬ": 6579,
      "ÙħØ¸": 6580,
      "ÙħÙĬØ¯": 6581,
      "ÙħÚ¾Ø§": 6582,
      "ÙħØ§ÙĨÙĬ": 6583,
      "ÙħÚ¾Ø±": 6584,
      "ÙħÙ½ÙĬ": 6585,
      "ÙħÙ¿ÙĬ": 6586,
      "ÙħØªØ±": 6587,
      "ÙħÚ¯Ø±": 6588,
      "ÙħÙ¾ÙĪ": 6589,
      "ÙħØ«": 6590,
      "ÙħÙĪÙħ": 6591,
      "ÙħØ§Ø³ÙĬ": 6592,
      "ÙħÙĬØ´ÙĨ": 6593,
      "ÙħØ§Ø¹": 6594,
      "ÙħØ¬Ú¾": 6595,
      "ÙħØ´ÙĬ": 6596,
      "ÙħÙºÙĬ": 6597,
      "ÙħÙ¾ÙĦ": 6598,
      "ÙħÙģØª": 6599,
      "ÙħÙĬØ§Ø±ÙĬ": 6600,
      "ÙħØ¯ÙĨ": 6601,
      "ÙħØ§Ø¦Ø±": 6602,
      "ÙħÚĻÙĬÙĪ": 6603,
      "ÙħÛĮØ±": 6604,
      "ÙħÚĬÙĦ": 6605,
      "ÙħÙ¿ÙĪ": 6606,
      "ÙħÙħØªØ§Ø²": 6607,
      "ÙħØ³ØªØ±ÙĬ": 6608,
      "ÙħØ¯Ø±Ø¯ÙĬ": 6609,
      "ÙħÙĢÙĢÙĢÙĢÙĢÙĢÙĢÙĢÙĢÙĢÙĢÙĢÙĢÙĢÙĢÙĢÙĢÙĢÙĢÙĢ": 6610,
      "Ø§Ú¾ÙĨ": 6611,
      "Ø§Ú¾Ûģ": 6612,
      "Ø§Ú¾Øª": 6613,
      "Ø§Ú¾Ú»": 6614,
      "Ø§Ú¾ÙĬØ¡": 6615,
      "Ø§Ú¾ÚĻÙĬ": 6616,
      "Ø§Ú¾ÚĻÙĪ": 6617,
      "Ø§Ú¾ÚĻØ§": 6618,
      "Ø§Ú¾Ø±ÙĨ": 6619,
      "Ø§Ú¾ÚĻÙĨ": 6620,
      "ÙĬÙĨØ±": 6621,
      "ÙĬÙĨÚª": 6622,
      "ÙĬÙĨÙ½": 6623,
      "ÙĬÙĨÚį": 6624,
      "ÙĬÙĨÚ¯Ø±": 6625,
      "ÙĬÙĨØ´ÙĨ": 6626,
      "ÙĬÙĨØ±ÙĨ": 6627,
      "ÙĬÙĨØ¸ÙĬØ±": 6628,
      "ÛģÙĦ": 6629,
      "ÛģØ¯": 6630,
      "ÛģÙĪØ±": 6631,
      "ÛģØªØ±": 6632,
      "ÛģÙĨÛĮ": 6633,
      "ÛģØ§ÙĨÛĮ": 6634,
      "ÛģØ¯ÛĮ": 6635,
      "ÛģÙħØ§Ø±ÛĴ": 6636,
      "ĠÚªØ³": 6637,
      "ĠÚªØ§Ø¦": 6638,
      "ĠÚªÚ»": 6639,
      "ĠÚªØ¨": 6640,
      "ĠÚªÛĮ": 6641,
      "ĠÚªØ§Ø¦ÙĬ": 6642,
      "ĠÚªÚªÙĪ": 6643,
      "ĠÚªÚ¾Ø§": 6644,
      "ĠÚªØ¯ÙĪ": 6645,
      "ĠÚªÙ½ÙĬ": 6646,
      "ĠÚªØ§Úª": 6647,
      "ĠÚªØ³ÙĪ": 6648,
      "ĠÚªÙĨØ§": 6649,
      "ĠÚªØ§ØªÙĬ": 6650,
      "ĠÚªÙ¾Ø±": 6651,
      "ĠÚªØ¦ÙĬÙĨ": 6652,
      "ĠÚªØ§Ø¦ÙĨ": 6653,
      "ĠÚªØ§Ø¦ÙĪÙĨ": 6654,
      "ĠÚªØ³Ø±": 6655,
      "ĠÚªÚĨÙĪ": 6656,
      "ĠÚªÚĨØ§": 6657,
      "ĠÚªÙ½ÙĨ": 6658,
      "ĠÚªØ§ÙĨÚ¾ÙĨ": 6659,
      "ĠÚªÚĩÙĪ": 6660,
      "ĠÚªÚ»Ø§": 6661,
      "ĠÚªÙ½ÙĬÙĪ": 6662,
      "ĠÚªØ¨Ø§": 6663,
      "ĠÚªØ¨Ø§Ø¨": 6664,
      "ĠÚªØ§ÙģØ±": 6665,
      "ĠÚªØ§ÙģÙĬÙĨ": 6666,
      "ĠÚªÙ½ÙĬÙĦ": 6667,
      "Ø³Ûģ": 6668,
      "Ø³Ùĩ": 6669,
      "Ø³Ùģ": 6670,
      "Ø³Úı": 6671,
      "Ø³ÛĴ": 6672,
      "Ø³Ù¿": 6673,
      "Ø³Ø§Ø¯": 6674,
      "Ø³ÙĬØ¡": 6675,
      "Ø³ÙĦØ§": 6676,
      "Ø³ÚĦ": 6677,
      "Ø³Úĥ": 6678,
      "Ø³Ø³Øª": 6679,
      "Ø³ÚªÙĪ": 6680,
      "Ø³Ù½Ø±": 6681,
      "Ø³ÙĬØ¯": 6682,
      "Ø³ÚĻÙĪ": 6683,
      "Ø³Ø§ÙĨÙĬ": 6684,
      "Ø³Ú©ÙĬ": 6685,
      "Ø³Ø§Ø¦Ú»": 6686,
      "Ø³Ø±Øª": 6687,
      "Ø³ÚªÙĨ": 6688,
      "Ø³Ø§ÙĦÙħ": 6689,
      "Ø³Ø¨ØŃ": 6690,
      "Ø³Ø§Ø±ÙĬÙĨ": 6691,
      "Ø³ÚªÙĪÙĨ": 6692,
      "Ø³Ú¾Ú»ÙĪ": 6693,
      "Ø³Ø§Ù½": 6694,
      "Ø³Ú¯Ø§": 6695,
      "Ø³Ø§Ú³ÙĬ": 6696,
      "Ø³Ø§ÙĦÙĨ": 6697,
      "Ø³ÙĬØ§Ø±ÙĪ": 6698,
      "Ø³Ù¾ÚĻ": 6699,
      "Ø³Ú¯Ú¾": 6700,
      "Ø³Ø§Ø¦ÛĮÚº": 6701,
      "Ø³ÙĪÙĦØ±": 6702,
      "Ø³Ù¹Ø³": 6703,
      "Ø³Ú¯Ø±ÙĬÙ½": 6704,
      "Ø¯ÙĬÙĪ": 6705,
      "Ø¯Ø±ÙĬ": 6706,
      "Ø¯Ø§Ø³": 6707,
      "Ø¯ÚĻÙĬ": 6708,
      "Ø¯Ø§Ú»ÙĬ": 6709,
      "Ø¯Ø¯ÙĬ": 6710,
      "Ø¯ÙĨÙĬ": 6711,
      "Ø¯ÙĬØ´": 6712,
      "Ø¯Ø§Ø³ÙĬ": 6713,
      "Ø¯ÛĮÙĨ": 6714,
      "Ø¯Ø§Ø¹": 6715,
      "Ø¯Ø¹ÙĪ": 6716,
      "Ø¯Ú¾ÙĦ": 6717,
      "Ø¯ÚĻÙĨ": 6718,
      "Ø¯ÛĮÙĪ": 6719,
      "Ø¯ÙĪØ±ÙĨ": 6720,
      "Ø¯Ø§ÙĨÙĨ": 6721,
      "Ø¯ÙĬØ³ÙĬ": 6722,
      "Ø¯Ú¯ÙĬØ¡": 6723,
      "Ø¯ÙĪÙĦØª": 6724,
      "Ø¯Ø§Ú¾ÙĬØ¡": 6725,
      "ÙĩØ¯": 6726,
      "ÙĩØª": 6727,
      "ÙĩØ¬": 6728,
      "ÙĩÙĬÙĪ": 6729,
      "ÙĩÚĻ": 6730,
      "ÙĩØ§Ú»": 6731,
      "ÙĩØ¬ÙĬ": 6732,
      "ÙĩÙĪØ±": 6733,
      "ÙĩÙĦÙĬ": 6734,
      "ÙĩØ§Ø¡": 6735,
      "ÙĩÚĻÙĬ": 6736,
      "ÙĩÙĦÙĪ": 6737,
      "ÙĩØ¯Ø§": 6738,
      "ÙĩØ¯ÙĬ": 6739,
      "ÙĩØ¬Ø§": 6740,
      "ÙĩØ¨ÙĬ": 6741,
      "ÙĩÙĨØ¯ÙĬ": 6742,
      "ÙĩÙĨØ¯Ø§": 6743,
      "ÙĩÙ¾ÙĬ": 6744,
      "ÙĩØ±ÙĬØ¡": 6745,
      "ÙĩØ´Øª": 6746,
      "ÙĩÙĦÙĦÙĦÙĦ": 6747,
      "ÙĩØ±ÙĪÚĢØ±ÙĪ": 6748,
      "ÙĩØ±ÙĬØ§ÙĨ": 6749,
      "ÚªÙĬØ§": 6750,
      "ÚªÙĪØ±": 6751,
      "ÚªØ§Ø¦ÙĬ": 6752,
      "ÚªÚĬ": 6753,
      "ÚªÙĬØ¡": 6754,
      "ÚªØ§Ú»ÙĬ": 6755,
      "ÚªÚĻÙĪ": 6756,
      "ÚªØ¯ÙĪ": 6757,
      "ÚªÙ½ÙĬ": 6758,
      "ÚªÙĨÙĬ": 6759,
      "ÚªØ¨ÙĪ": 6760,
      "ÚªØªÙĪ": 6761,
      "ÚªÚĻØ§": 6762,
      "ÚªØ§ÙĬÙĪ": 6763,
      "ÚªÙĨØ¯ÙĬ": 6764,
      "ÚªÙħÙĬ": 6765,
      "ÚªØ¨Ø§Ø±": 6766,
      "ÚªÙĦÙĬÙĦ": 6767,
      "ÚªØ´ÙĬ": 6768,
      "ÚªÙºÙĬ": 6769,
      "ÚªÚĨØ§": 6770,
      "ÚªØ§ÙħÙĬ": 6771,
      "ÚªØ´Ø§": 6772,
      "ÚªØ´Ùħ": 6773,
      "ÚªÙħÙĬÙĨÙ½": 6774,
      "ÚªÙĬÙĨÙĬ": 6775,
      "ÚªØ¨ÙĬØ±": 6776,
      "ÚªØ§ÙģØ±": 6777,
      "ÚªØ§Ø¦ÙĬÙĨØ¯ÚĻ": 6778,
      "ÚªÚ¾ÚĻØ§": 6779,
      "ĠØ¢ÙĬÙĨ": 6780,
      "ĠØ¢ÛĮ": 6781,
      "ĠØ¢Ø±ÙĬ": 6782,
      "ĠØ¢ÚĻ": 6783,
      "ĠØ¢Ú©": 6784,
      "ĠØ¢ÙĬÙĪÙĨ": 6785,
      "ĠØ¢ÙĨÚĮ": 6786,
      "ĠØ¢ÙĦÙĪ": 6787,
      "ĠØ¢Ø³Øª": 6788,
      "ĠØ¢ÙĬØ³": 6789,
      "ĠØ¢Ú©ÙĬ": 6790,
      "ĠØ¢Ú»ÙĬ": 6791,
      "ĠØ¢Úį": 6792,
      "ĠØ¢Ø³ÙĪ": 6793,
      "ĠØ¢Ø¬Ø§": 6794,
      "ĠØ¢Øº": 6795,
      "ĠØ¢ÙħÙĬ": 6796,
      "ĠØ¢ÛĮØ§": 6797,
      "ĠØ¢Úĳ": 6798,
      "ĠØ¢Ø¦ÛĮ": 6799,
      "ĠØ¢Ø´ÙĪ": 6800,
      "ĠØ¢Ú¯Ø§": 6801,
      "ĠØ¢ÙĪØ§Ø±": 6802,
      "ĠØ¢Ú»ÙĬÙĪ": 6803,
      "ĠØ¢ÙĪÚ¾": 6804,
      "ĠØ¢Ø«Ø§Ø±": 6805,
      "ĠØ¢ÙħØ¯ÙĨ": 6806,
      "ĠÙ¾Ú¾ÙĨ": 6807,
      "ĠÙ¾Ùģ": 6808,
      "ĠÙ¾Ú¯": 6809,
      "ĠÙ¾Ú³": 6810,
      "ĠÙ¾Ø§Ø¨": 6811,
      "ĠÙ¾ÙĨÚĮ": 6812,
      "ĠÙ¾ÙĪÙĦ": 6813,
      "ĠÙ¾Ø§Øª": 6814,
      "ĠÙ¾ØªÙĬ": 6815,
      "ĠÙ¾ÚªÙĦ": 6816,
      "ĠÙ¾Úĥ": 6817,
      "ĠÙ¾ÚªÙĬ": 6818,
      "ĠÙ¾Ø³Øª": 6819,
      "ĠÙ¾ÙĬØ¯": 6820,
      "ĠÙ¾Ø³ÙĬ": 6821,
      "ĠÙ¾ÚĨÙĬ": 6822,
      "ĠÙ¾Ù½ÙĬ": 6823,
      "ĠÙ¾ÙĢ": 6824,
      "ĠÙ¾Ø§ØªÙĬ": 6825,
      "ĠÙ¾Øº": 6826,
      "ĠÙ¾ØªØ§": 6827,
      "ĠÙ¾ÚĩØ§": 6828,
      "ĠÙ¾ÛĮØ§": 6829,
      "ĠÙ¾Ø¨ÙĦ": 6830,
      "ĠÙ¾ÚĨØ§": 6831,
      "ĠÙ¾ØªÛģ": 6832,
      "ĠÙ¾Ø§Ø¦ÙĦ": 6833,
      "ĠÙ¾Ø§ÙĨØ§": 6834,
      "ĠÙ¾ÙĩØ±": 6835,
      "ĠÙ¾Ú©ÙĪ": 6836,
      "ĠÙ¾Ø§Ø²ÙĬ": 6837,
      "ĠÙ¾Ø§ÙĨÛĮ": 6838,
      "ĠÙ¾Ø¯Ùħ": 6839,
      "ĠÙ¾Ø§Ø¦Ù¾": 6840,
      "ĠÙ¾ÙĨÚĬÙĬ": 6841,
      "ĠÙ¾ÙĬÙĨÚ¯": 6842,
      "ĠÙ¾ÚĳÛĮ": 6843,
      "ĠÙ¾Ø¨Ø¬": 6844,
      "ĠÙ¾Ú©Ú»": 6845,
      "ĠÙ¾ÚĨØ§ÙĨ": 6846,
      "ĠÙ¾ÙĪÙĦÙĪ": 6847,
      "ĠÙ¾ÛĮÙĨØ³": 6848,
      "ĠÙ¾ÚĮØ±ÙĪ": 6849,
      "ĠÙ¾ÙĬØ¯ÙĦ": 6850,
      "ĠÙ¾ÙħØ´ÙĬ": 6851,
      "ĠÙ¾ÙĩØ±ÙĬØ§ÙĨ": 6852,
      "..ØŁ": 6853,
      "ØªØ³": 6854,
      "ØªÙĩ": 6855,
      "ØªÚª": 6856,
      "ØªØ¦": 6857,
      "ØªÙĨÚ¾ÙĨ": 6858,
      "ØªØ¦ÙĬ": 6859,
      "ØªÙĬÙĪÙĨ": 6860,
      "ØªÙĬÙĨØ¯": 6861,
      "ØªØ§Ø¦ÙĬ": 6862,
      "ØªÙĬØ¡": 6863,
      "ØªØµ": 6864,
      "ØªØ§Ø±ÙĬ": 6865,
      "ØªÚªÙĪ": 6866,
      "ØªØ®": 6867,
      "ØªÛĮÚº": 6868,
      "ØªÙĨÚ¯": 6869,
      "ØªØ¬Ø§": 6870,
      "ØªÚıÙĩÙĨ": 6871,
      "ØªÙĦØ§Ùħ": 6872,
      "ØªÚ¾ÛĮ": 6873,
      "ØªØ¦ÙĬÙĨ": 6874,
      "ØªØ¨Ø§Ø±": 6875,
      "ØªÙĨÚ¾ÙĨØ¬Ø§": 6876,
      "ØªØ¨Ûģ": 6877,
      "ØªØŃÙħ": 6878,
      "ØªØ§ÙĦÙĨ": 6879,
      "ØªØ¶ÙĬ": 6880,
      "ØªÚªÚĻÙĬ": 6881,
      "ØªÙĬØ§Ø±ÙĨ": 6882,
      "ØªÙĨØ¯Ø±Ø³ØªÙĬ": 6883,
      "ĠØªØª": 6884,
      "ĠØªÙĨÚ¾ÙĨ": 6885,
      "ĠØªØ¦ÙĬ": 6886,
      "ĠØªÙĨØ¯": 6887,
      "ĠØªÙĪØ±": 6888,
      "ĠØªØ±Ø¨": 6889,
      "ĠØªÚĻÙĬ": 6890,
      "ĠØªÙĦÙĪ": 6891,
      "ĠØªÚ¾ÙĪ": 6892,
      "ĠØªØ§ÙĪ": 6893,
      "ĠØªØ¨Ø±": 6894,
      "ĠØªÚ¾Ø±": 6895,
      "ĠØªØ§Ø²": 6896,
      "ĠØªÚªØ±": 6897,
      "ĠØªØªØ±": 6898,
      "ĠØªÚªØ±ÙĬ": 6899,
      "ĠØªØ§Ø±ÙĪ": 6900,
      "ĠØªØ§ÙĦÙĬ": 6901,
      "ĠØªÙħÙĨ": 6902,
      "ĠØªÙ¾ÙĬ": 6903,
      "ĠØªØªÙĦ": 6904,
      "ĠØªÙĤÙĪ": 6905,
      "ĠØªØ§Ø±Ø§": 6906,
      "ĠØªÚ¾ÙĦ": 6907,
      "ĠØªÚªÙĦÙĬ": 6908,
      "ĠØªÙħØ§Ø´": 6909,
      "ĠØªÙ¾ÙĬÙĪ": 6910,
      "ĠØªØ³Ø§": 6911,
      "ĠØªÛĮÙĦ": 6912,
      "ĠØªÙĬØ²ÙĬ": 6913,
      "ĠØªÚĻÙĬÙĪ": 6914,
      "ĠØªØ§Ø¦ÛĮÙĨ": 6915,
      "ĠØªÙĬÙĪØ±": 6916,
      "ĠØªÙĬØº": 6917,
      "ĠØªØ±ÙĬÙĦ": 6918,
      "ĠØªÚıÙĨ": 6919,
      "ĠØªØªØ±ÙĨ": 6920,
      "ĠØªØ¶Ø§Ø¯": 6921,
      "ĠØªÚªÚĻÙĪ": 6922,
      "Ø§Ø¦Ø¬": 6923,
      "Ø§Ø¦Ù½": 6924,
      "Ø§Ø¦ÚĨ": 6925,
      "Ø§Ø¦ÚĬ": 6926,
      "Ø§Ø¦Ø²": 6927,
      "Ø§Ø¦ØªÙĬ": 6928,
      "Ø§Ø¦Ø¯Ø§": 6929,
      "Ø§Ø¦Ø¨Ø±": 6930,
      "Ø§Ø¦Ø³ÙĬ": 6931,
      "Ø§Ø¦Ú»ÙĬ": 6932,
      "Ø§Ø¦Ù¾ÙĪ": 6933,
      "Ø§Ø¦ÙĨØ¯Ø§": 6934,
      "Ø§Ø¦ÙħÙĬ": 6935,
      "Ø§Ø¦Ø±ÙĨ": 6936,
      "Ø§Ø¦Ú¯ÙĪ": 6937,
      "Ø§Ø¦Ø´ÙĬ": 6938,
      "Ø§Ø¦Ø³ØªÙĬ": 6939,
      "Ø§Ø¦Ø¬Ø§ÙĨ": 6940,
      "Ø§Ø¦ÚĬØ±": 6941,
      "Ø§Ø¦Ú¯ÙĬØ¡": 6942,
      "Ø§Ø¦Ø¯Ú¯ÙĬ": 6943,
      "Ø§Ø¦ÚªÙĬØ¡": 6944,
      "ĠØ§ÙĬØ§": 6945,
      "ĠØ§ÙĦØ§": 6946,
      "ĠØ§ÚĢ": 6947,
      "ĠØ§Ø±ÙĪ": 6948,
      "ĠØ§ÚĻÙĪ": 6949,
      "ĠØ§Ú»ÙĬ": 6950,
      "ĠØ§Úį": 6951,
      "ĠØ§ÙħÙĬÙĨ": 6952,
      "ĠØ§ÙĤØª": 6953,
      "ĠØ§ÛĮÙĨ": 6954,
      "ĠØ§ÙħÙĦ": 6955,
      "ĠØ§Ø±Ø¯": 6956,
      "ĠØ§ÙħÙĨ": 6957,
      "ĠØ§Ø±ÙĨ": 6958,
      "ĠØ§ÙģÙĬ": 6959,
      "ĠØ§ÙĤØ±": 6960,
      "ĠØ§ÛĮÙĦ": 6961,
      "ĠØ§ÛģÙħ": 6962,
      "ĠØ§ÚĬÙĨ": 6963,
      "ĠØ§Ù¾ÙĪØ²": 6964,
      "ĠØ§Ù¾ÙĬÙ¾": 6965,
      "ĠÙĪÛĮ": 6966,
      "ĠÙĪÚ¾ÙĬ": 6967,
      "ĠÙĪÙĤ": 6968,
      "ĠÙĪØ§Ú»": 6969,
      "ĠÙĪÙĪØ±": 6970,
      "ĠÙĪØ¹": 6971,
      "ĠÙĪÚ³": 6972,
      "ĠÙĪÙ¿": 6973,
      "ĠÙĪÚĬ": 6974,
      "ĠÙĪÚ¾Ø§ÙĨ": 6975,
      "ĠÙĪØ¬ÙĪ": 6976,
      "ĠÙĪØ§Ø²": 6977,
      "ĠÙĪÚį": 6978,
      "ĠÙĪØ§Ø¬": 6979,
      "ĠÙĪØ¶": 6980,
      "ĠÙĪÙĬØ´": 6981,
      "ĠÙĪÙĬØ²": 6982,
      "ĠÙĪØ§ÚĦ": 6983,
      "ĠÙĪÙģØ§": 6984,
      "ĠÙĪØ§ÚĻÙĬ": 6985,
      "ĠÙĪÚĩØ§": 6986,
      "ĠÙĪØ§Ø³ÙĬ": 6987,
      "ĠÙĪØ§ÙĦÙĬ": 6988,
      "ĠÙĪÙĨØ¯Ø§": 6989,
      "ĠÙĪØ³ÙĨ": 6990,
      "ĠÙĪØ¬Ú¾": 6991,
      "ĠÙĪØ§ÙĦÙĪ": 6992,
      "ĠÙĪÚ¾ÙĬÙĨ": 6993,
      "ĠÙĪØ§Ø¦ÙĬØ¡": 6994,
      "ĠÙĪØ¹Ø¯": 6995,
      "ĠÙĪÛĮÙĪ": 6996,
      "ĠÙĪÚ³ÙĪ": 6997,
      "ĠÙĪØ§ØµÙĦ": 6998,
      "ĠÙĪÛĮÙĦ": 6999,
      "ĠÙĪÚªÚ»": 7000,
      "ĠÙĪØ¦ÙĦ": 7001,
      "ĠÙĪÚªØ§Ùħ": 7002,
      "ĠÙĪÚªÙĬÙĪÙĨ": 7003,
      "ĠÙĪÙĪÙ½": 7004,
      "ĠÙĪÙĬÙĨØ³": 7005,
      "ĠÙĪÙĪÙĨÙ½": 7006,
      "ĠÙĪÙĬØ±Ø§ÙĨ": 7007,
      "ĠÙĪØŃÙĬØ¯": 7008,
      "ĠÙĪÙĪÚĪ": 7009,
      "ĠÙĪØ¯ÙĬÙĪ": 7010,
      "ĠÙĪÚªØ§ÙħÙĬ": 7011,
      "ĠÙĪØªØ¦ÙĬÙĨ": 7012,
      "Ú»Ø§ÙĨ": 7013,
      "Ú»Ø§Ø¦ÙĬ": 7014,
      "Ú»ÙĬØ¡": 7015,
      "Ú»ÙĨÚ¯": 7016,
      "Ú»Ø§Ùģ": 7017,
      "Ú»Ø§ÙĬÙĪ": 7018,
      "Ø¬Ûģ": 7019,
      "Ø¬Ú¾ÙĬ": 7020,
      "Ø¬Ú³": 7021,
      "Ø¬Ø²": 7022,
      "Ø¬Ú¾Ø§ÙĨ": 7023,
      "Ø¬ÙĩÙĨ": 7024,
      "Ø¬ØªÙĬ": 7025,
      "Ø¬ÛĮÚº": 7026,
      "Ø¬Ú¾Ø§": 7027,
      "Ø¬Ø³Ù½": 7028,
      "Ø¬ÙħÙĬ": 7029,
      "Ø¬Ú¾ÙĪÙĨ": 7030,
      "Ø¬Ø§ØªØ§": 7031,
      "Ø¬Ø¨Ø±Ø¯Ø³Øª": 7032,
      "Ø¬Ø§Ø¯ÙĪ": 7033,
      "Ø¬Ø§ÙĨØ³": 7034,
      "Ø¬Ù¾ÙĪØ±ÙĬ": 7035,
      "Ø¬ÙĩÙĨÚ¯": 7036,
      "Ø¬Ø§Ø±ÙĬÙĪ": 7037,
      "ÙĬÙĪØª": 7038,
      "ÙĬÙĪÙģ": 7039,
      "ÙĬÙĪÙĬØ¡": 7040,
      "ÙĬÙĪÚªØ±": 7041,
      "ÙĬÙĪÙħØ±": 7042,
      "ĠÚ©ÙĬÙĪ": 7043,
      "ĠÚ©Ø±ÙĬ": 7044,
      "ĠÚ©Ú¾ÙĬ": 7045,
      "ĠÚ©Úı": 7046,
      "ĠÚ©Ø§Ú»": 7047,
      "ĠÚ©ÙĪØ±": 7048,
      "ĠÚ©Ø´": 7049,
      "ĠÚ©Ù¿": 7050,
      "ĠÚ©Ø±ÙĪ": 7051,
      "ĠÚ©Ú¾Ø§": 7052,
      "ĠÚ©Ù½ÙĬ": 7053,
      "ĠÚ©Ø§Ø´": 7054,
      "ĠÚ©Ø§Ø¦ÙĪ": 7055,
      "ĠÚ©Ú¾ÛĮ": 7056,
      "ĠÚ©ÙħØ§ÙĦ": 7057,
      "ĠÚ©Ú»ÙĪ": 7058,
      "ĠÚ©ÙĦÙĨ": 7059,
      "ĠÚ©Ø±ÙĬØ§": 7060,
      "ĠÚ©Ø§Ø±Ø§": 7061,
      "ĠÚ©Ø¦ÛĮ": 7062,
      "ĠÚ©ØªÙħ": 7063,
      "ĠÚ©Ø§Ø¯ÙĪ": 7064,
      "ĠÚ©Ø§Ø¦ÙĬÙĨØ¯ÙĬ": 7065,
      "ĠÚ©Ú»Ø§": 7066,
      "ĠÚ©Ø¨Ú¾": 7067,
      "ĠÚ©Ø§Ø¦ÙĬÙĨØ¯Ø§": 7068,
      "ĠÚ©Ø¨Ø§": 7069,
      "ĠÚ©Ù¾Ø§": 7070,
      "ĠÚ©Ù¾ÙĨ": 7071,
      "ĠÚ©Ø±ÙĪÚº": 7072,
      "ĠÚ©ÚĳÛĮ": 7073,
      "ĠÚ©Ø¨Ú¾ÛĮ": 7074,
      "ĠÚ©Ú¾Úĳ": 7075,
      "ĠÚ©Ø§Ø¦Ø¨ÙĪ": 7076,
      "ĠÚ©Ù¿ÙĪØ±ÙĪ": 7077,
      "ĠÚ©ÚĳÛĴ": 7078,
      "ĠÚ©ØªÙĨØ§": 7079,
      "ĠÚ©Ø§Ø¦Ø¬ÙĪ": 7080,
      "ĠÚ©ÙĦØ§ÙĬÙħ": 7081,
      "ĠÚ©Ù¹Ú¾ÛĮ": 7082,
      "Ø¨ÙĬÙĪ": 7083,
      "Ø¨Ø±ÙĬ": 7084,
      "Ø¨Ú©": 7085,
      "Ø¨ÛĴ": 7086,
      "Ø¨ÙĦÙĬ": 7087,
      "Ø¨Ø²": 7088,
      "Ø¨Øµ": 7089,
      "Ø¨ÙĦÙĪ": 7090,
      "Ø¨Ú¾Ø§": 7091,
      "Ø¨ÙĨÚ¯": 7092,
      "Ø¨Ø¯ÙĬ": 7093,
      "Ø¨ÙĨØ§": 7094,
      "Ø¨ÙĬÙħ": 7095,
      "Ø¨Ø¬Ø§": 7096,
      "Ø¨ÙĬØ´ÙĨ": 7097,
      "Ø¨Ø¯Ø§Ø±": 7098,
      "Ø¨ÚĪ": 7099,
      "Ø¨ÙĦÙĬÙ½": 7100,
      "Ø¨Ø§Ù½": 7101,
      "Ø¨Ø§Ø²ÙĬ": 7102,
      "Ø¨Ø¯ÙĨ": 7103,
      "Ø¨ÛĮØ±": 7104,
      "Ø¨Ø°Ø§Øª": 7105,
      "Ø¨ØµÙĪØ±Øª": 7106,
      "Ø¨Ø³ØªØ±": 7107,
      "Ø¨Ø¸Ø§ÛģØ±": 7108,
      "Ø¨ÙĬØ¯ÙĦ": 7109,
      "ĠØ¨Ùħ": 7110,
      "ĠØ¨Ù½": 7111,
      "ĠØ¨Ø´": 7112,
      "ĠØ¨ÙĬØ±": 7113,
      "ĠØ¨Ø²": 7114,
      "ĠØ¨Ø±Ø¨": 7115,
      "ĠØ¨Ø§Ø¡": 7116,
      "ĠØ¨ÙĬØ³": 7117,
      "ĠØ¨ÙĬØ¯": 7118,
      "ĠØ¨Ø§ÙĨÙĬ": 7119,
      "ĠØ¨Ø§Ø¬": 7120,
      "ĠØ¨ÙĢ": 7121,
      "ĠØ¨ÙĬØ´": 7122,
      "ĠØ¨ÙĬÙĦ": 7123,
      "ĠØ¨ÚĻØ§": 7124,
      "ĠØ¨Ø§ÙĬÙĪ": 7125,
      "ĠØ¨ÙĨØ¯ÙĬ": 7126,
      "ĠØ¨ÛĮÚ©": 7127,
      "ĠØ¨Ø±Ø¯": 7128,
      "ĠØ¨Ø§Ø¯ÙĬ": 7129,
      "ĠØ¨ÙĨÙĪ": 7130,
      "ĠØ¨Ø±Ø§Ø¨": 7131,
      "ĠØ¨Ø§Ù¾": 7132,
      "ĠØ¨ÙĬØŃ": 7133,
      "ĠØ¨ÙºÙĬ": 7134,
      "ĠØ¨ÙħØ¹": 7135,
      "ĠØ¨ÙĬØ¹": 7136,
      "ĠØ¨Ù½ÙĨ": 7137,
      "ĠØ¨Ú±": 7138,
      "ĠØ¨Ø§ÙĨÙĪ": 7139,
      "ĠØ¨ÙĬØ±Ø§": 7140,
      "ĠØ¨Ø§Ø²ÙĬ": 7141,
      "ĠØ¨ÙĪØ±ÙĨ": 7142,
      "ĠØ¨Ø´Ùħ": 7143,
      "ĠØ¨ÙĪØ³": 7144,
      "ĠØ¨ÙĬÙĨÚ¯": 7145,
      "ĠØ¨Ú©Ø³": 7146,
      "ĠØ¨ÙĤØ§": 7147,
      "ĠØ¨Ø´ÙĨÙĬ": 7148,
      "ĠØ¨ÙĬØ¯ÙĦ": 7149,
      "ĠØ¨ÚĳÛĴ": 7150,
      "ĠØ¨Ø³ØªØ±ÙĬ": 7151,
      "ĠØ¨Ø§ÙĨØ¨": 7152,
      "ĠØ¨ÙĬÙĨØ¸ÙĬØ±": 7153,
      "ĠØ¨ÙĬÙĪÙģ": 7154,
      "ĠÙĨÙ½": 7155,
      "ĠÙĨÙĪÙĨ": 7156,
      "ĠÙĨÙ¾": 7157,
      "ĠÙĨÙĨÚ¾ÙĨ": 7158,
      "ĠÙĨÚĨ": 7159,
      "ĠÙĨÙĬØ§": 7160,
      "ĠÙĨØ§Ø¦ÙĬ": 7161,
      "ĠÙĨØ§Øª": 7162,
      "ĠÙĨØ±ÙĪ": 7163,
      "ĠÙĨØ·": 7164,
      "ĠÙĨØ§ÙĪ": 7165,
      "ĠÙĨØ§ÙĨÙĬ": 7166,
      "ĠÙĨÙĨÚ¯": 7167,
      "ĠÙĨØ§Ø¬": 7168,
      "ĠÙĨÙĢ": 7169,
      "ĠÙĨØ§ØŃ": 7170,
      "ĠÙĨÙ¾ÙĪ": 7171,
      "ĠÙĨØ§Ø´": 7172,
      "ĠÙĨØ±Øª": 7173,
      "ĠÙĨÙĨÛģ": 7174,
      "ĠÙĨØ§Ø±ÙĪ": 7175,
      "ĠÙĨØ±Ø§": 7176,
      "ĠÙĨØ§ÙĨÙĪ": 7177,
      "ĠÙĨÙĬØ±ÙĪ": 7178,
      "ĠÙĨÙĤÙĦ": 7179,
      "ĠÙĨÙ¾ÙĪØ±ÙĬ": 7180,
      "ĠÙĨÙĬØ±Ø§": 7181,
      "ĠÙĨÙĬÙĪØ²": 7182,
      "ĠÙĨØ§Ø¦ÙĬØ³": 7183,
      "ĠÙĨØ§Ø²ÙĬ": 7184,
      "ĠÙĨØªÛĮ": 7185,
      "ĠÙĨÙĬØ³Ù½": 7186,
      "ĠÙĨÛĮØ²": 7187,
      "ĠÙĨØ§Ø³Ù¾": 7188,
      "ĠÙĨØ§ÙĨØ¡": 7189,
      "ĠÙĨØ¨ÙĪØª": 7190,
      "ĠÙĨÙĬØ²Ø§Ø±": 7191,
      "ĠÙĨØ«Ø§Ø±": 7192,
      "ĠÙĨØ§Ø³ÙħØ¬Ùĩ": 7193,
      "ĠÙĨÙĬÙĨÚ¯Ø±": 7194,
      "ĠÙĨÚ»Ø§ÙĨ": 7195,
      "Ø§Ø±Ø§ÙĨ": 7196,
      "Ø§Ø±Ø¬ÙĬ": 7197,
      "Ø§Ø±ÙĬÙĪÙĨ": 7198,
      "Ø§Ø±ÚĬ": 7199,
      "Ø§Ø±Ø¨ÙĪ": 7200,
      "Ø§Ø±Ø«": 7201,
      "Ø§Ø±ÙħÙĦ": 7202,
      "Ø§Ø±ØªÙĨ": 7203,
      "Ø§Ø±ØªÙĪÙĨ": 7204,
      "Ø§Ø±Ø§Ø¦ÙĬÙĨØ¯ÙĪ": 7205,
      "Ø§Ø±ØªÛĮ": 7206,
      "Ø§Ø±ÙĩÙĬØ§": 7207,
      "Ø§Ø±ÙħÙĬØ´ÙĨ": 7208,
      "ĠØ¬ÙĬÙħ": 7209,
      "ĠØ¬ÙĬØª": 7210,
      "ĠØ¬ÙĬØ¬ÙĬ": 7211,
      "ĠØ¬ÙĬØ¦Ú»": 7212,
      "ĠØ¬ÙĬØ¦ÙĬÙĨ": 7213,
      "ĠØ¬ÙĬØ¦Ø±": 7214,
      "ĠØ¬ÙĬÙĦÙĨ": 7215,
      "ĠØ¬ÙĬØ±Ø§": 7216,
      "ĠØ¬ÙĬØ³ÙĨ": 7217,
      "ĠØ¬ÙĬÚıØ§": 7218,
      "ĠØ¬ÙĬØªØ±ÙĬ": 7219,
      "ĠØ¬ÙĬÚıØ§ÙĨÙĩÙĨ": 7220,
      "ĠØ¬ÙĬØ³ÙĬØªØ§Ø¦ÙĬÙĨ": 7221,
      "ĠÚ¾Øª": 7222,
      "ĠÚ¾Ù½": 7223,
      "ĠÚ¾ÛĮ": 7224,
      "ĠÚ¾Ø±ÙĬ": 7225,
      "ĠÚ¾ÚĻ": 7226,
      "ĠÚ¾ÙĬØ§": 7227,
      "ĠÚ¾ÙĬÙĪÙĨ": 7228,
      "ĠÚ¾ÙĬØ±": 7229,
      "ĠÚ¾ÙĦØ§": 7230,
      "ĠÚ¾Ø§Ø±ÙĬ": 7231,
      "ĠÚ¾ÛĮÚº": 7232,
      "ĠÚ¾Ø³ÙĬ": 7233,
      "ĠÚ¾ÙĨÚ¯": 7234,
      "ĠÚ¾Ø§Úª": 7235,
      "ĠÚ¾ÙĢ": 7236,
      "ĠÚ¾Ø¦Ú»": 7237,
      "ĠÚ¾Ø§Ø±ÙĪ": 7238,
      "ĠÚ¾Ú»ÙĪ": 7239,
      "ĠÚ¾Ø§Ø±Ú»": 7240,
      "ĠÚ¾ÙĬÙĨÚĬ": 7241,
      "ĠÚ¾ÛĮÙĪ": 7242,
      "ĠÚ¾Ø§Ø±ÙĨ": 7243,
      "ĠÚ¾Ø¯ÙĨ": 7244,
      "ĠÚ¾Ø§Ø¨ÙĬ": 7245,
      "ĠÚ¾Ø§Ø±ÙĬØ¡": 7246,
      "ĠÚ¾ÚıÙĨ": 7247,
      "ĠÚ¾Ø±ÙĪÚĢØ±ÙĪ": 7248,
      "ĠÚ¾ÙĢÙĢÙĢÙĢÙĢÙĢÙĢÙĢÙĢÙĢÙĢÙĢÙĢÙĢÙĢÙĢ": 7249,
      "ĠÚ¾Ù½Ú»": 7250,
      "ĠÚ¾ÙģØªÙĬ": 7251,
      "ĠÚ¾Ø§ÚªØ³": 7252,
      "ĠÚ¾Ø¯Ø§ÙĬØª": 7253,
      "ĠÚ¾ÙħØ§Ø±ÛĴ": 7254,
      "Ø¦Ø§Ø¦ÙĬÙĨ": 7255,
      "Ø¦ÙĬÙĪÙĨ": 7256,
      "Ø¦ÚĻÙĬ": 7257,
      "Ø¦Ø¨Ø±": 7258,
      "Ø¦ÙĦÛĴ": 7259,
      "Ø¦Ù¹Ø±": 7260,
      "Ú¾ÙĨØ¯Ø§": 7261,
      "Ú¾ÙĨØ¦ÙĪ": 7262,
      "Ú¾ÙĨØ¯ÚĻ": 7263,
      "Ú¾ÙĨØ¯Ø³": 7264,
      "Ú¾ÙĨØ¯Ø§Ú»ÙĬ": 7265,
      "Ù½Ùģ": 7266,
      "Ù½ÙĬØ§": 7267,
      "Ù½Ø´": 7268,
      "Ù½Ø§Ùħ": 7269,
      "Ù½Ù½Ø±": 7270,
      "Ù½Ø§Ùģ": 7271,
      "Ù½Ú¯Ø±": 7272,
      "Ù½ÙħÙĬ": 7273,
      "Ù½Ø§Ø¦ÙĪÙĨ": 7274,
      "Ù½Ø±ÙĬØ¡": 7275,
      "Ù½ÙĬØ´ÙĨÙĦ": 7276,
      "Ù½ÙĬØ³Ù½": 7277,
      "Ù½ÙĪÙĨÙĬ": 7278,
      "Ù½ÙĨÚĬÙĬ": 7279,
      "Ù½Ø±ÙĬØ¨": 7280,
      "Ù½Ø§ÙĨØ¡": 7281,
      "Ù½Ø±ÙĬÚªÙ½Ø±": 7282,
      "Ù½Ø¦Ù½Ø±": 7283,
      "Ù½Ø§ÙĨÚªÙĬ": 7284,
      "Ù½Ø§Ø¦Ù¾ÙĪ": 7285,
      "Ø§Ú¾Ø§Ú¾Ø§Ú¾Ø§": 7286,
      "ÛĮÙĩ": 7287,
      "ÛĮØ§Ø±": 7288,
      "ÛĮÛĴ": 7289,
      "ÛĮØ´": 7290,
      "ÛĮØ§Ø¨": 7291,
      "ÛĮØ§Ùħ": 7292,
      "ÛĮÚªÙĦ": 7293,
      "ÛĮÚ¾Ø±": 7294,
      "ÛĮØ°": 7295,
      "ÛĮÙ¹": 7296,
      "ÛĮÙĨØ¯ÚĻ": 7297,
      "ÛĮÚĨÙĪ": 7298,
      "ÛĮÙĦÛģ": 7299,
      "ÛĮØ§Ø¦ÛĮ": 7300,
      "ÛĮÙĤÛĮ": 7301,
      "ÛĮØ±ÙĪÚº": 7302,
      "ÛĮØ§Ø´ÛĮ": 7303,
      "Ø§Ø¦ÙĬÙĨÙĬ": 7304,
      "Ø§Ø¦ÙĬÙĨØ¯": 7305,
      "Ø§Ø¦ÙĬÙĨØ¯Ø¦ÙĬ": 7306,
      "ĠÙ¿ÙĨ": 7307,
      "ĠÙ¿Ú¾ÙĬ": 7308,
      "ĠÙ¿Ø§ÙĦ": 7309,
      "ĠÙ¿ÚĮ": 7310,
      "ĠÙ¿Ú³": 7311,
      "ĠÙ¿Ø¨ÙĪ": 7312,
      "ĠÙ¿Ú»ÙĨ": 7313,
      "ĠÙ¿Ù¾Ø§": 7314,
      "ĠÙ¿Ú»ÙĬÙĨ": 7315,
      "ĠÙ¿Ú¾ÙĬÙĦ": 7316,
      "ĠÙ¿Ø§ÙĨÙĪÙĨ": 7317,
      "ĠÙ¿ÛĮÙĨØ¯ÚĻ": 7318,
      "ĠÙĦÛģ": 7319,
      "ĠÙĦØª": 7320,
      "ĠÙĦÙĪÙĨ": 7321,
      "ĠÙĦÚı": 7322,
      "ĠÙĦÙ¿": 7323,
      "ĠÙĦÚĦ": 7324,
      "ĠÙĦÚªÙĦ": 7325,
      "ĠÙĦØ§Ú¾ÙĬ": 7326,
      "ĠÙĦÚªÙĬ": 7327,
      "ĠÙĦØ³Øª": 7328,
      "ĠÙĦÚ¾ÙĪ": 7329,
      "ĠÙĦØ§ÙĪ": 7330,
      "ĠÙĦØ¨Ø±": 7331,
      "ĠÙĦÚ¾Ø±": 7332,
      "ĠÙĦÙĨÚ¯": 7333,
      "ĠÙĦØ¦ÙĨ": 7334,
      "ĠÙĦØ§Ø¬": 7335,
      "ĠÙĦÙ¿ÙĬ": 7336,
      "ĠÙĦÙĬÙħ": 7337,
      "ĠÙĦØ§ÚĻÙĬ": 7338,
      "ĠÙĦÛĮÙĨ": 7339,
      "ĠÙĦØ§ÙĦÙĬ": 7340,
      "ĠÙĦÙĬÙ½": 7341,
      "ĠÙĦØ§Ø¦ÙĪÙĨ": 7342,
      "ĠÙĦØ§ÙĦÙĪ": 7343,
      "ĠÙĦØ§Ú¾ÙĬÙĪ": 7344,
      "ĠÙĦÙĬÙĨÚĬ": 7345,
      "ĠÙĦÙĪÙĦØ§": 7346,
      "ĠÙĦÚ¯Ø§": 7347,
      "ĠÙĦÙħØŃ": 7348,
      "ĠÙĦÙ½Ø§": 7349,
      "ĠÙĦÙĨÚĬÙĬ": 7350,
      "ĠÙĦÙ¸": 7351,
      "ĠÙĦØ§ÙĨÚ¯": 7352,
      "ĠÙĦÚĢÙĬ": 7353,
      "ĠÙĦÚªÙĬÙĪ": 7354,
      "ĠÙĦØ§ÙĨØªÙĬ": 7355,
      "ĠÙĦÚªÙĬØ±": 7356,
      "ĠÙĦÚıÙĨ": 7357,
      "ĠÙĦÙĨÚĬÙĪ": 7358,
      "ĠÙĦØ§Ø¦ÛĴ": 7359,
      "ĠÙĦÙĪÙĨÚĬ": 7360,
      "ĠÙĦÙĪÙĦÙĬØ¡": 7361,
      "ĠÙĦØ¨ÙĬÚª": 7362,
      "ĠÙĦÙĨÚĬÙĬØ¡": 7363,
      "ĠÙĦÙĨÚ©": 7364,
      "ĠÙĦØ§ÙĨÚĨØ±": 7365,
      "ĠÙĦØ³Ø§ÙĨÙĬ": 7366,
      "ĠÙĦØ¯ÙĨÙĬ": 7367,
      "Ø±ÙĬÛģ": 7368,
      "Ø±ÙĬØ²": 7369,
      "Ø±ÙĬØ¦Ø±": 7370,
      "Ø±ÙĬØ¯Ø§Ø±": 7371,
      "Ø±ÙĬÚªØ§": 7372,
      "Ø±ÙĬØ´ÙĬ": 7373,
      "Ø±ÙĬØ¨Ø§ÙĨ": 7374,
      "Ø±ÙĬÚĻÙĪÙĨ": 7375,
      "ÚĻØª": 7376,
      "ÚĻÚ¾ÙĨ": 7377,
      "ÚĻÚ©": 7378,
      "ÚĻÙ¾": 7379,
      "ÚĻÙĬØ§": 7380,
      "ÚĻØ§Ø¦ÙĬ": 7381,
      "ÚĻÚ¾ÙĪ": 7382,
      "ÚĻÙĩØ§": 7383,
      "ÚĻÚ¾Ø§Ø¦ÙĬ": 7384,
      "ÚĻØ§Ø¦Ù¾": 7385,
      "ÚĻÙĩÙĩ": 7386,
      "ÚĻÚ¾ÙĬÙĦ": 7387,
      "ÚĻØ³Ù¾": 7388,
      "ÚĻÙĩÚ»": 7389,
      "Ú¾ÙĬÙĬ": 7390,
      "Ú¾ÙĬÛģ": 7391,
      "Ú¾ÙĬØ±Ú»": 7392,
      "ÙĪÙĨØ¯": 7393,
      "ÙĪÙĨÚ¾Ø§ÙĨ": 7394,
      "ÙĪÙĨØ¯Ø§": 7395,
      "ÙĪÙĨÙħØ§": 7396,
      "ÙĪÙĨÚ¾ÙĬÙĨ": 7397,
      "ÙĪÙĨØ¬Ùĩ": 7398,
      "ÙĪÙĨØ¬ÛĮ": 7399,
      "ÙĪÙĨÚ©Ûģ": 7400,
      "Ø§ÙĦØ±": 7401,
      "Ø§ÙĦÚ»": 7402,
      "Ø§ÙĦÙģ": 7403,
      "Ø§ÙĦÚ³": 7404,
      "Ø§ÙĦÙĬØ¡": 7405,
      "Ø§ÙĦÙĨÚ¯": 7406,
      "Ø§ÙĦØªÛĴ": 7407,
      "Ø§ÙĦØ§Ú»ÙĪ": 7408,
      "Ø§ÙĦÙĦÛģ": 7409,
      "Ø§ÙĦØ§Ø¬ÙĬ": 7410,
      "Ø§ÙĦÙĬØ³ÙĬ": 7411,
      "Ø§ÙĦØ²Ø§Ùħ": 7412,
      "Ø§ÙĦØ·Ø§Ùģ": 7413,
      "Ø§ÙĦÙĩØ¯Ø§": 7414,
      "Ú©ÙĨ": 7415,
      "Ú©ÙĬÙĪ": 7416,
      "Ú©Ù½": 7417,
      "Ú©ÙĬØ§": 7418,
      "Ú©Ú¾ÙĪ": 7419,
      "Ú©Ù¹": 7420,
      "Ú©ÛĮÙĨ": 7421,
      "Ú©ÙĨÚĬ": 7422,
      "Ú©Ø´ÙĨ": 7423,
      "Ú©ÙħØ§ÙĦ": 7424,
      "Ú©ÛĮØ§": 7425,
      "Ú©Úĳ": 7426,
      "Ú©Ø§Ø±Ø§": 7427,
      "Ú©Ø±ÛĮ": 7428,
      "Ú©ÚĻÙĬÙĪÙĨ": 7429,
      "Ú©ÛĮÙĪÚº": 7430,
      "Ú©Ù½ÙĪÙĨ": 7431,
      "Ú©Ø±Ø¨ÙĪ": 7432,
      "Ú©ÙĨÙĪÚº": 7433,
      "Ú©Ø¯ÚĻÙĨ": 7434,
      "ĠØ§Ø¤ØªÚĻ": 7435,
      "ĠØ§Ø·ÙĦ": 7436,
      "ÙģÙĬÙĨ": 7437,
      "ÙģÙģ": 7438,
      "ÙģÙĬØ": 7439,
      "ÙģÛĴ": 7440,
      "ÙģÚ¾Ø§ÙĨ": 7441,
      "ÙģÙĬØ¡": 7442,
      "ÙģÙĬÚª": 7443,
      "ÙģØ¶": 7444,
      "ÙģÙĬØ¹": 7445,
      "ÙģÙĬØ´ÙĨÙĦ": 7446,
      "ÙģÛĮÙĦ": 7447,
      "ÙģØ§Ø¦ÛĮÚº": 7448,
      "ÙģÙĬÙĨØ³": 7449,
      "ÙģØ§Ø³ÙģÙĪØ±Ø³": 7450,
      "ÙģÚ¾ÙħÙĬÙĨ": 7451,
      "ÙģØ§Ø±ÙħÙĬØ´ÙĨ": 7452,
      "Ù¾Ø§ÙĨ": 7453,
      "Ù¾Ú³": 7454,
      "Ù¾Ø§Ø¯": 7455,
      "Ù¾Ø§Ú»ÙĬ": 7456,
      "Ù¾ÙĦØ§": 7457,
      "Ù¾Úĩ": 7458,
      "Ù¾ÙĬØ¯": 7459,
      "Ù¾Ú©ÙĬ": 7460,
      "Ù¾ÙĨÙĬ": 7461,
      "Ù¾Ø±ÙĬÙĨ": 7462,
      "Ù¾Ù¹": 7463,
      "Ù¾Ø§ØªÙĬ": 7464,
      "Ù¾ÛĮÙĨ": 7465,
      "Ù¾ÙĪØ±ÙĪ": 7466,
      "Ù¾Ø´ÙĨ": 7467,
      "Ù¾ÙĨÚ¾ÙĨØ¬ÙĪ": 7468,
      "Ù¾Ø§Ù¾": 7469,
      "Ù¾Ø±ÙĬØ¡": 7470,
      "Ù¾ÙĬÙĨÚĬ": 7471,
      "Ù¾ÛĮÙĪ": 7472,
      "Ù¾Ø§ÙĨØ³": 7473,
      "Ù¾Ù½Ø§": 7474,
      "Ù¾Ù½ÙĬÙĨ": 7475,
      "Ù¾Ø´Ùħ": 7476,
      "Ù¾ÙĦÙĬÚª": 7477,
      "Ù¾Ù¾ÙĨ": 7478,
      "Ù¾Ø§Ø¦ÛĴ": 7479,
      "Ù¾ÙĬÚªÙ½": 7480,
      "Ù¾ÙĩØ±ÙĬÙĨ": 7481,
      "Ù¾Ú©ÙĬÙĨ": 7482,
      "Ù¾ÚªÙĪÚĻØ§": 7483,
      "Ù¾ÚĳÛĴ": 7484,
      "Ù¾ÙħÙ¾ÙĦ": 7485,
      "Ù¾Ú»ÙĬØ¡": 7486,
      "Ù¾Ø§ÙĦÙĬØ³ÙĬ": 7487,
      "ĠÚ©ÙĬØª": 7488,
      "ĠÚ©ÙĬÚı": 7489,
      "ĠÚ©ÙĬØªÙĬ": 7490,
      "ĠÚ©ÙĬØ³ÙĬ": 7491,
      "ĠÚ©ÙĬÚıÙĬ": 7492,
      "ĠÚ©ÙĬØ³ÙĨ": 7493,
      "ÙĤÙģ": 7494,
      "ÙĤÙĨØ¯": 7495,
      "ÙĤØ¹": 7496,
      "ÙĤØ§Ø¨": 7497,
      "ÙĤÙĬØ¡": 7498,
      "ÙĤÙĪÙĦ": 7499,
      "ÙĤØ·": 7500,
      "ÙĤØ³Ùħ": 7501,
      "ÙĤØ§ØªÙĦ": 7502,
      "ÙĤØ§ÙĨÙĪÙĨÙĬ": 7503,
      "ÚıØ±": 7504,
      "ÚıÙĬÙĨ": 7505,
      "ÚıÙĬÙĪ": 7506,
      "ÚıÚ©": 7507,
      "ÚıÙĨÚ¾ÙĨ": 7508,
      "ÚıÙĨØ¯": 7509,
      "ÚıÙĦÙĬ": 7510,
      "ÚıÙĬØ¡": 7511,
      "ÚıØ§Ú¾Ø§": 7512,
      "ÚıÚıÙĪ": 7513,
      "ÚıØ§Ú¾ÙĪ": 7514,
      "ÚıØ§ÚĻ": 7515,
      "ÚıÚ»ÙĨ": 7516,
      "ÚıÙĩÙĬÙĨ": 7517,
      "ÚıÚ©Ú»": 7518,
      "ÚıØ§ÙĨÙĩÙĬÙĨ": 7519,
      "ĠØ±Ø§Ú¾": 7520,
      "ĠØ±ÚĮ": 7521,
      "ĠØ±ÙĨØ¯": 7522,
      "ĠØ±Ù¿": 7523,
      "ĠØ±Ø§Ùħ": 7524,
      "ĠØ±Ø²": 7525,
      "ĠØ±ÙĩÙĨ": 7526,
      "ĠØ±Ø§Ø³": 7527,
      "ĠØ±Ø§Ú¾ÙĬ": 7528,
      "ĠØ±Ø§ÙĪ": 7529,
      "ĠØ±ÙĬÚª": 7530,
      "ĠØ±Ø®": 7531,
      "ĠØ±Ú¾Ø§": 7532,
      "ĠØ±Ø³ÙĬ": 7533,
      "ĠØ±Úį": 7534,
      "ĠØ±Ø³ÙĪ": 7535,
      "ĠØ±Ø¶": 7536,
      "ĠØ±Ù¿ÙĬ": 7537,
      "ĠØ±ÙĬØ²": 7538,
      "ĠØ±Ø§ÚĻÙĬ": 7539,
      "ĠØ±ÙħÙĨ": 7540,
      "ĠØ±Ø¦ÛĮ": 7541,
      "ĠØ±Ø§Ø¦ÙĬØ¡": 7542,
      "ĠØ±Ø§Ûģ": 7543,
      "ĠØ±ÚĮÙĬ": 7544,
      "ĠØ±Ø§Ú»Ø§": 7545,
      "ĠØ±Ù¾ÙĬÙĪ": 7546,
      "ĠØ±ÙĩÙĬÙĦ": 7547,
      "ĠØ±Ø§Ú³ÙĬ": 7548,
      "ĠØ±ÙĤÛĮ": 7549,
      "ĠØ±Ø§ÙĪÙĦ": 7550,
      "ĠØ±Ø§ÙĨÚ¯": 7551,
      "ĠØ±ÙĬØ³ÙĬ": 7552,
      "ĠØ±ÙħØ²": 7553,
      "ĠØ±Ø§ØŃØª": 7554,
      "ĠØ±ÙĦÛĮ": 7555,
      "ĠØ±Ø¶Ø§": 7556,
      "ĠØ±ÙĦØ§Ø¦ÙĬ": 7557,
      "ĠØ±ÙĪÙĨÙĪ": 7558,
      "ĠØ±Ù¾ÙĬÙĨ": 7559,
      "ĠØ±Ú³ÚĻÙĪ": 7560,
      "ĠØ±Ø³ÙĬÙħ": 7561,
      "ĠØ±ÙĦØ§ÙĬÙħ": 7562,
      "ĠØ±Ø´ÙĪØª": 7563,
      "ĠØ±Ø§ÚªÙĬÙ½": 7564,
      "ĠØ±ÚªØ´Ø§": 7565,
      "ĠØ±Ø§Ø¦Ø¬": 7566,
      "ĠØ¬ÙĪØ§": 7567,
      "ĠØ¬ÙĪØ³": 7568,
      "ĠØ¬ÙĪØª": 7569,
      "ĠØ¬ÙĪÚĻ": 7570,
      "ĠØ¬ÙĪÚ³": 7571,
      "ĠØ¬ÙĪØ´": 7572,
      "ĠØ¬ÙĪØ§ÙĨÙĬ": 7573,
      "ĠØ¬ÙĪÚ¾Ø±": 7574,
      "ĠØ¬ÙĪÚ¯Ø±": 7575,
      "ĠØ¬ÙĪØ¦Ø±": 7576,
      "ĠØ¬ÙĪÚĮØ§": 7577,
      "ĠØ¬ÙĪØ§ÙĨÙĬÙĪÙĨ": 7578,
      "ĠØ¬ÙĪÛģØ±": 7579,
      "ĠØ¬ÙĪÚ©ÙĬÙĪ": 7580,
      "ĠØªÛģØ°": 7581,
      "Ø§Ú»Ø§ÙĨ": 7582,
      "Ø§Ú»Ø¬": 7583,
      "Ø§Ú»ÙĬØ¡": 7584,
      "ÚĮÙĦ": 7585,
      "ÚĮØ§ÙĨÙĬ": 7586,
      "ÚĮØ§ÙĬÙĪ": 7587,
      "ÚĮØ§Ø±Ø§": 7588,
      "ÚĮØ±ØªÙĬØ¡": 7589,
      "ĠØ§ÙĨÚ¾ÙĬ": 7590,
      "ĠØ§ÙĨØ¯Ø§": 7591,
      "ĠØ§ÙĨÚ©ÙĬ": 7592,
      "ĠØ§ÙĨØ§Ø¬": 7593,
      "ĠØ§ÙĨÚĬÙĬØ§": 7594,
      "ĠØ§ÙĨØ¨ÙĨ": 7595,
      "ĠØ§ÙĨÙ½ÙĨ": 7596,
      "ĠØ§ÙĨÙģØ±": 7597,
      "ĠØ§ÙĨÚ©ÙĪ": 7598,
      "ĠØ§ÙĨÚ¾ÛĮÚº": 7599,
      "ĠØ§ÙĨØ³ÙĬØª": 7600,
      "ĠØ§ÙĨÚªÙĬÙĪ": 7601,
      "ĠØ§ÙĨÙĩÙĬÙĨ": 7602,
      "ĠØ§ÙĨÙĪÚ©Ø§": 7603,
      "ĠØ§ÙĨÙ½Ø±ÙĬØ¡": 7604,
      "ĠØ§ÙĨÙģØ§Ø±ÙħÙĬØ´ÙĨ": 7605,
      "Ø¬ÙĬØ¡": 7606,
      "Ø¬ÙĬØ±ÙĬØ§": 7607,
      "Ø¬ÙĬØ³ÙĨ": 7608,
      "Ø¬ÙĬØ³ÙĬÙĨ": 7609,
      "Ø¬ÙĬÙĦÙĪÙĨ": 7610,
      "Ø¬ÙĬÚıØ§ÙĨÙĩÙĬÙĨ": 7611,
      "Ú¯ÙĬÙĨ": 7612,
      "Ú¯Ø¯": 7613,
      "Ú¯Ú»": 7614,
      "Ú¯Ø¬": 7615,
      "Ú¯ÛĮ": 7616,
      "Ú¯ÛĴ": 7617,
      "Ú¯Ø²": 7618,
      "Ú¯ÚĻÙĬ": 7619,
      "Ú¯ÙĦØ§": 7620,
      "Ú¯Ø§Ú¾ÙĬ": 7621,
      "Ú¯Ø³Øª": 7622,
      "Ú¯ÙĩØ§": 7623,
      "Ú¯Ù½Ø±": 7624,
      "Ú¯ÙĩÙĪ": 7625,
      "Ú¯Ø±ÙĬÙĨ": 7626,
      "Ú¯Ú¾Ú»": 7627,
      "Ú¯ÙħØ§ÙĦ": 7628,
      "Ú¯ÙĪØ±ÙĨ": 7629,
      "Ú¯ÛĮØ±": 7630,
      "Ú¯Ø§ÙĨÚĮÙĬ": 7631,
      "Ú¯Ø§Ú¾ÙĨ": 7632,
      "ĠÚĨÙĬÙĨ": 7633,
      "ĠÚĨÛģ": 7634,
      "ĠÚĨØ§Ø¦": 7635,
      "ĠÚĨÙĨÚ¾ÙĨ": 7636,
      "ĠÚĨÙĬØ§": 7637,
      "ĠÚĨØ´": 7638,
      "ĠÚĨØ§Ú»ÙĬ": 7639,
      "ĠÚĨÚĢ": 7640,
      "ĠÚĨÙĦÙĪ": 7641,
      "ĠÚĨÚªÙĬ": 7642,
      "ĠÚĨÛĮÚº": 7643,
      "ĠÚĨÙĢÙĢ": 7644,
      "ĠÚĨÙĦÙĩ": 7645,
      "ĠÚĨÙ½ÙĪ": 7646,
      "ĠÚĨÙħØ§": 7647,
      "ĠÚĨÙħÙĨ": 7648,
      "ĠÚĨÙħØª": 7649,
      "ĠÚĨÙ¾ÙĦ": 7650,
      "ĠÚĨÙĨÛĮ": 7651,
      "ĠÚĨØ§Ùĩ": 7652,
      "ĠÚĨÙĦÛĴ": 7653,
      "ĠÚĨØ§Ú»Ø§": 7654,
      "ĠÚĨÙ»ÙĬ": 7655,
      "ĠÚĨØ§ÙĩÙĬ": 7656,
      "ĠÚĨÙ¾ÙĨ": 7657,
      "ĠÚĨØ§Ø¯Ø±": 7658,
      "ĠÚĨÚ©ÛĴ": 7659,
      "ĠÚĨÙ¿Ø±": 7660,
      "ĠÚĨÚ¯ÙĩÛģ": 7661,
      "ĠÚĨÙ»Ø±ÙĪ": 7662,
      "ĠÚĨÙ»ÙĬÙĪÙĨ": 7663,
      "ĠÚĨØ§Ù»ÙĬÙĨ": 7664,
      "ĠÚĨÚ»ÙĨÚ¯": 7665,
      "ÙĬØ°": 7666,
      "ÙİâĢľ": 7667,
      "ĠÚıÚ¾": 7668,
      "ĠÚıØ§ÙĨ": 7669,
      "ĠÚıÚĮ": 7670,
      "ĠÚıÙĪØ±": 7671,
      "ĠÚıÙĩÙĬ": 7672,
      "ĠÚıØ§Øª": 7673,
      "ĠÚıÚ©ÙĬ": 7674,
      "ĠÚıØ§Ú¾Ø§": 7675,
      "ĠÚıØ§Ø¬": 7676,
      "ĠÚıÙĨØ§": 7677,
      "ĠÚıÚªØ±": 7678,
      "ĠÚıØ¬ÙĨ": 7679,
      "ĠÚıØ¨ÙĬ": 7680,
      "ĠÚıÙºØ§": 7681,
      "ĠÚıØ§ÙĨØ¡": 7682,
      "ĠÚıÚªÙĨØ¯Ø§": 7683,
      "ĠÚıÚıØ±": 7684,
      "ĠÚ¯Ø³": 7685,
      "ĠÚ¯Ù¾": 7686,
      "ĠÚ¯Ú¯": 7687,
      "ĠÚ¯ÙĩØ§": 7688,
      "ĠÚ¯Ø¯ÙĪ": 7689,
      "ĠÚ¯ÙĨØ¯ÙĪ": 7690,
      "ĠÚ¯Ø±ÙĬÙĨ": 7691,
      "ĠÚ¯Ú¾Ú»": 7692,
      "ĠÚ¯Ø§Ø¯ÙĬ": 7693,
      "ĠÚ¯ÙħÙĨ": 7694,
      "ĠÚ¯Ø±ÙĨ": 7695,
      "ĠÚ¯Ø±Ø§": 7696,
      "ĠÚ¯ÚĪ": 7697,
      "ĠÚ¯Ø¦ÛĮ": 7698,
      "ĠÚ¯ÛĮØ³": 7699,
      "ĠÚ¯ÙĪÙĨÚ¾ÙĨ": 7700,
      "ĠÚ¯ÙħØ±Ø§Ú¾": 7701,
      "ĠÚ¯ÚĬÙĪ": 7702,
      "ĠÚ¯Ø¯ÙĦ": 7703,
      "ĠÚ¯Ú»ÙĨ": 7704,
      "ĠÚ¯Ø¬Ø¨": 7705,
      "ĠÚ¯ÙģÙ½": 7706,
      "ĠÚ¯Ù¹Ø±ÛĮ": 7707,
      "ĠÚ¯Ø³Úª": 7708,
      "ĠÚ¯Ø¬Ø±": 7709,
      "ĠÚ¯Ø§ÙĦÛĮ": 7710,
      "ĠÚ¯Ø§Ø¨ÙĪ": 7711,
      "ĠÚ¯Ø§Ø±ÙĬÙĦ": 7712,
      "ĠÚ¯ÙĬØ±ÙĬ": 7713,
      "ĠÚ¯Ø§ØªÛĮ": 7714,
      "ĠÚ¯Ø¯Ø§Ú¯Ø±": 7715,
      "ĠÚ¯Ú¾ÙĦÚ»": 7716,
      "ĠÚ¯Ø§Ø¤Úº": 7717,
      "ĠÚ¯ÙĬÙ¾": 7718,
      "ĠÚ¯ÙĬÙĨØ±": 7719,
      "ĠÚ¯Ø§Ø¦ÚªÙĬØ¡": 7720,
      "ĠÚ¯Ø±ÙĬØ¨Ø§ÙĨ": 7721,
      "ĠÙ»ÙĨÚĮ": 7722,
      "ĠÙ»Ø§Ø±ÙĬ": 7723,
      "ĠÙ»Ø§Úª": 7724,
      "ĠÙ»Ø¬ÙĨ": 7725,
      "ĠÙ»ÙĦÙĩ": 7726,
      "ĠÙ»ÙĬÙ½": 7727,
      "ĠÙ»ÚªÙĨ": 7728,
      "ĠÙ»ÙĪØ±ÙĬ": 7729,
      "ĠÙ»Ø§ÚĻ": 7730,
      "ĠÙ»Ú¾ÙĪÙĨ": 7731,
      "ĠÙ»ÛĮÙĪ": 7732,
      "ĠÙ»Ø§ÙĨÚ¾ÙĨ": 7733,
      "ĠÙ»Ù½Ø§": 7734,
      "ĠÙ»Ú¾Ø§Ø±ÙĬ": 7735,
      "ĠÙ»Ú¾Ø§Ø±ÙĪ": 7736,
      "ĠÙ»ÚªØ±ÙĬÙĪÙĨ": 7737,
      "ĠÙ»Ø§Ù¾Ø§": 7738,
      "ĠÙ»Ø¯ÙĤØ§": 7739,
      "ĠÙ»ØªÚªÙĪ": 7740,
      "ĠÙ»ÛĮÚ¾Ø±": 7741,
      "Ø¦ÙĬØ³": 7742,
      "Ø¦ÙĬÙ½ÙĬØ²": 7743,
      "ÚĨÚª": 7744,
      "ÚĨÙĬÙĪ": 7745,
      "ÚĨÙĪÙĨ": 7746,
      "ÚĨÙ¾": 7747,
      "ÚĨÙĨØ¯": 7748,
      "ÚĨÙĪØ±": 7749,
      "ÚĨÛĴ": 7750,
      "ÚĨÙĦÙĪ": 7751,
      "ÚĨÙĬØ³": 7752,
      "ÚĨÙĨÚ¯": 7753,
      "ÚĨÙĨØ§": 7754,
      "ÚĨÙħØ§ÙĦ": 7755,
      "ÚĨÙĬÙĨÙĬ": 7756,
      "ÚĨÙĤÙħ": 7757,
      "ÚĨÙĬÚªÙĦÙĬ": 7758,
      "ÚĨØªØ§Ø¦ÙĬ": 7759,
      "ÚĨÚ©ÙĨ": 7760,
      "ÙĬØ§Ù¾Ø§Ø¦ÙĬ": 7761,
      "ÙĨØ¯ÙĬØ¡": 7762,
      "ÙĨØ¯Ø§Ø³ÙĬ": 7763,
      "ÙĨØ¯Ø±ÙĪÚº": 7764,
      "ÙĪØ±Ú»": 7765,
      "ÙĪØ±Ù½": 7766,
      "ÙĪØ±ÙĩÙĬ": 7767,
      "ÙĪØ±ÚĬ": 7768,
      "ÙĪØ±ØªÙĪ": 7769,
      "ÙĪØ±ÚĻØ§": 7770,
      "ÙĪØ±ØªØ§": 7771,
      "ÙĪØ±Ø§Ø¦ÙĬÙĨØ¯ÙĬ": 7772,
      "ÙĪØ±ÙĤØ§": 7773,
      "Ø¹Øª": 7774,
      "Ø¹ÙĪØ±": 7775,
      "Ø¹ÛĴ": 7776,
      "Ø¹Ø´": 7777,
      "Ø¹ÙĨØ§": 7778,
      "Ø¹Ø±Ùģ": 7779,
      "Ø¹ÙĬØª": 7780,
      "Ø¹ÙĨÛĮ": 7781,
      "Ø¹Ø´ÙĤ": 7782,
      "Ø¹Ø§Ø¦Ø´": 7783,
      "Ø¹Ø§Ø´ÙĤ": 7784,
      "Ø¹Ú©Ø³": 7785,
      "Ø¹Ø¬Ø¨": 7786,
      "Ø¹Ø¨Ø§Ø¯Øª": 7787,
      "ĠÙĩÙ½": 7788,
      "ĠÙĩØ§Ú»": 7789,
      "ĠÙĩÙĨÚĮ": 7790,
      "ĠÙĩÙĪÙĦ": 7791,
      "ĠÙĩØ§Ø¡": 7792,
      "ĠÙĩÙĦØ§": 7793,
      "ĠÙĩÚªÙĦ": 7794,
      "ĠÙĩÙĨÚ¯": 7795,
      "ĠÙĩÙ½ÙĬ": 7796,
      "ĠÙĩÙ¿ÙĬ": 7797,
      "ĠÙĩÙħØ±": 7798,
      "ĠÙĩØ§Ø¦ÙĪ": 7799,
      "ĠÙĩØ¦ÙĬÙĨ": 7800,
      "ĠÙĩÙĬØ§ÙĨ": 7801,
      "ĠÙĩÙĦÙĨ": 7802,
      "ĠÙĩØ§Ú»ÙĪ": 7803,
      "ĠÙĩÙħØ±Ø§Ú¾": 7804,
      "ĠÙĩÙĬØ±Ø§": 7805,
      "ĠÙĩØ¬Ø§ÙĨ": 7806,
      "ĠÙĩØ§Ø±ÙĬÙĪ": 7807,
      "ĠÙĩÙĬÙĨÚ¯": 7808,
      "ĠÙĩØ¦Ùħ": 7809,
      "ĠÙĩØ¬ÙĪÙĨ": 7810,
      "ĠÙĩØ²Ø§Ø±": 7811,
      "ĠÙĩØ³Ù¾": 7812,
      "ĠÙĩÚ»Ú»": 7813,
      "ĠÙĩØ¯Ø§ÙĬØª": 7814,
      "ĠÙĩÙħØ¯Ø±Ø¯ÙĬ": 7815,
      "ĠÙĩØ§Ø¦Ø¨Ø±": 7816,
      "ĠÙĩØ§Ø±Ø¬ÙĬ": 7817,
      "ĠÙĩØ¦Ø§Ø¦ÙĬÙĨ": 7818,
      "ĠÙĩØ±ÙĬÚĻÙĪÙĨ": 7819,
      "ĠÙĩÚıÚıÙĪ": 7820,
      "ĠÙĩÙĨØ¯ÙĬØ¡": 7821,
      "ĠØ®ÙĬ": 7822,
      "ĠØ®Ø¨": 7823,
      "ĠØ®Ø§Ø±": 7824,
      "ĠØ®ÙĬØ§": 7825,
      "ĠØ®ÙĪÙĦ": 7826,
      "ĠØ®Ø³Øª": 7827,
      "ĠØ®Ø§ÙĨÙĬ": 7828,
      "ĠØ®Ø¯ÙĬ": 7829,
      "ĠØ®Ø§Úª": 7830,
      "ĠØ®Ø§Ú©": 7831,
      "ĠØ®Ø±ÛĮ": 7832,
      "ĠØ®ÙģÙĬ": 7833,
      "ĠØ®ÙģØª": 7834,
      "ĠØ®ÙĨØ¬": 7835,
      "ĠØ®ÙĦÙĤ": 7836,
      "ĠØ®ÙĪÙĨÙĬ": 7837,
      "ĠØ®ÚĨØ±": 7838,
      "ĠØ®Ø·Ø§": 7839,
      "ĠØ®Ø±ÙĬØ¯": 7840,
      "ĠØ®Ø±ÙĬØ¯Ø§Ø±": 7841,
      "ØŁ\"": 7842,
      "ØŁ.": 7843,
      "ØŁ..": 7844,
      "ØŁâĢ¦": 7845,
      "ØŁ...": 7846,
      "ĠØ¯ÙĬÙĪÙĨ": 7847,
      "ĠØ¯Ú¾Ø§ÙĨ": 7848,
      "ĠØ¯ÙĬØ§Ø±": 7849,
      "ĠØ¯Ø±Ø¨": 7850,
      "ĠØ¯Ø§Ú»ÙĬ": 7851,
      "ĠØ¯Ø§ÙĪ": 7852,
      "ĠØ¯ÚĻØ§": 7853,
      "ĠØ¯ÛĮÙĨ": 7854,
      "ĠØ¯Ø±ÙĬØ§": 7855,
      "ĠØ¯ÛĮØ§": 7856,
      "ĠØ¯Ø¹ÙĪ": 7857,
      "ĠØ¯Ø§Ø³Øª": 7858,
      "ĠØ¯Ø§Øº": 7859,
      "ĠØ¯Ø§Ø¯ÙĪ": 7860,
      "ĠØ¯Ø§ÙĨÚ¾ÙĨ": 7861,
      "ĠØ¯Ø§Ú»Ø§": 7862,
      "ĠØ¯ÙĬÙĨÙĬ": 7863,
      "ĠØ¯ÙĬØ³ÙĬ": 7864,
      "ĠØ¯Ø¤": 7865,
      "ĠØ¯Ø§Ø±ÙĬØ¡": 7866,
      "ĠØ¯ÙĪÙĦØª": 7867,
      "ĠØ¯Ú©Ú¾": 7868,
      "ĠØ¯ÙĬØ´ÙĬ": 7869,
      "ĠØ¯Ø§ÙħÙĨ": 7870,
      "ĠØ¯Ø§Ø±Ø§Úº": 7871,
      "ĠØ¯Ø§Ù»ÙĪ": 7872,
      "ĠØ¯Ú¾Ú©": 7873,
      "ĠØ¯ÛģØ§ÙĨÛĮ": 7874,
      "ĠØ¯ÙĩØ´Øª": 7875,
      "ĠØ¯Ø§Ø¦ÙħÙĬ": 7876,
      "ĠØ¯ÙĪÙĨÚ¾ÙĬÙĨ": 7877,
      "Ú³Ú»": 7878,
      "Ú³ÚĻ": 7879,
      "Ú³Ø§Ú»ÙĬ": 7880,
      "Ú³Ø¦ÙĪÙĨ": 7881,
      "Ú³Ø¬Ùĩ": 7882,
      "Ú³ÚĻÙĬØ¡": 7883,
      "ĠØ´Ù¾": 7884,
      "ĠØ´Ø§Ø³": 7885,
      "ĠØ´ÚªÙĬ": 7886,
      "ĠØ´Ø·": 7887,
      "ĠØ´ÙĬØ¯": 7888,
      "ĠØ´ÙĬØ´": 7889,
      "ĠØ´ÙĬÙĦ": 7890,
      "ĠØ´ÙĨÚĬ": 7891,
      "ĠØ´Ø§ÙģÙĬ": 7892,
      "ĠØ´Ø§Ù¾": 7893,
      "ĠØ´ÚªØ§": 7894,
      "ĠØ´ÙģÙĬ": 7895,
      "ĠØ´ÙħØ§Ø±": 7896,
      "ĠØ´Ø¨ÙĨ": 7897,
      "ĠØ´Ø¨Ûģ": 7898,
      "ĠØ´Ø¯Ø§Ø²": 7899,
      "ĠØ´ÛģØ±": 7900,
      "ĠØ´ÙģÙ½": 7901,
      "ĠØ´Ø¨ÙĬØ±": 7902,
      "ĠØ´Ø§Ø¦Ø³ØªÙĬ": 7903,
      "ĠØ´ÙģÙĬØ¹": 7904,
      "ĠØªÙĬÙĦÙĬ": 7905,
      "ĠØªÙĬÚıÙĬ": 7906,
      "ĠØªÙĬÚıØ§ÙĨÙĩÙĨ": 7907,
      "ĠØªÙĬØ³ÙĬØªØ§Ø¦ÙĬÙĨ": 7908,
      "ĠÙĨÛģØ±": 7909,
      "...âĢ¦": 7910,
      "...ØŁ": 7911,
      "...ØŁØŁ": 7912,
      "ÙĩÙĬØ±": 7913,
      "ÙĩÙĬØ§Øª": 7914,
      "ÙĩÙĬÙĦÙĪ": 7915,
      "ÙĩÙĬÙĬÙĬ": 7916,
      "ÙĩÙĬØ§ÙĨØ¡": 7917,
      "ÙĩÙĬØ±Ú»": 7918,
      "ÙĬÙĪÙĨØ§ÙĨÙĬ": 7919,
      "Ø´Úª": 7920,
      "Ø´Ù¾": 7921,
      "Ø´Ø§Ú¾ÙĬ": 7922,
      "Ø´Ø§ÙĤ": 7923,
      "Ø´Ú¾Ø±": 7924,
      "Ø´Ø§Ø¹": 7925,
      "Ø´Ø±ÙĪØ¹": 7926,
      "Ø´ÛģØ±": 7927,
      "Ø´Ú©Ø§Ø±": 7928,
      "Ø´Ø§ÙĨØªÙĬ": 7929,
      "Ø´Ú¾ÙĬØ¯": 7930,
      "Ø´ÙĬÙĨÚ¾ÙĨ": 7931,
      "Ø´ÚªØ§Ø±Ù¾ÙĪØ±ÙĬ": 7932,
      "Ø´Ú¾Ø±ÙĬ": 7933,
      "Ø´Ø¹ÙĪØ±": 7934,
      "ĠØ§ÙĪÚ¾": 7935,
      "ĠØ§ÙĪØ²": 7936,
      "ĠØ§ÙĪÚĻÙĬ": 7937,
      "ĠØ§ÙĪÙĩØ§": 7938,
      "ĠØ§ÙĪØ³ÙĬ": 7939,
      "ĠØ§ÙĪÚį": 7940,
      "ĠØ§ÙĪÙ»": 7941,
      "ĠØ§ÙĪÙ¾Ø±": 7942,
      "ĠØ§ÙĪØ¬Ú¾": 7943,
      "ĠØ§ÙĪÚĮÙĪ": 7944,
      "ĠØ§ÙĪØ§Ø¦ÙĦ": 7945,
      "ĠØ§ÙĪÚ»Ø§": 7946,
      "ĠØ§ÙĪØ³ØªØ§Ø¦ÙĬÙĨ": 7947,
      "ĠØ§ÙĪØªØ§Ø±": 7948,
      "ĠØ§ÙĪÚ©Ø§": 7949,
      "ĠØ§ÙĪØ¬Ø§Ú³": 7950,
      "ĠØ§ÙĪÙĤØ§Øª": 7951,
      "ĠØ§ÙĪÚĨØªØ§": 7952,
      "ĠØ§ÙĪØ§Ø±ÚĬ": 7953,
      "ĠØ§ÙĪÚĻÚ¾Ø§Ø¦ÙĬ": 7954,
      "ĠØ§ÙĪÚĮØ§Ø±Ø§": 7955,
      "ĠØ§ÙĪÚ¯Ú»": 7956,
      "ĠØ§ÙĪÚ³Ø§Ú»ÙĬ": 7957,
      "ĠØ§Ú¾ÙĨ": 7958,
      "ĠØ§Ú¾ÚĻÙĨ": 7959,
      "Ø§Ø¨ØªÙĬ": 7960,
      "Ø§Ø¨Ø±ÙĬÙĨ": 7961,
      "Ø§Ø¨Ú¾ÛĮ": 7962,
      "Ø§Ø¨ÙĦÛĴ": 7963,
      "ĠÚĩØ±ÙĬ": 7964,
      "ĠÚĩÙĦÙĬ": 7965,
      "ĠÚĩÙº": 7966,
      "ĠÚĩÚ¾ÙĪ": 7967,
      "ĠÚĩÙĬØ¯": 7968,
      "ĠÚĩÙ¾Ø±": 7969,
      "ĠÚĩØªØ§": 7970,
      "ĠÚĩÚªÙĨ": 7971,
      "ĠÚĩÙĪÙĦØ§": 7972,
      "ĠÚĩÙ»ÙĬ": 7973,
      "ĠÚĩÙ¾ÙĬÙĪ": 7974,
      "ĠÚĩØ³Ø§": 7975,
      "ĠÚĩÙĨØ§ÙĦ": 7976,
      "ĠÚĩÚªÚ»": 7977,
      "ĠÚĩÙ»ÙĪ": 7978,
      "ĠÚĩÙħØ§Ú¾": 7979,
      "ĠÚĩÙĪØ±ÙĬÙĪÙĨ": 7980,
      "ĠÚĩÙĨÙĨ": 7981,
      "ĠÚĩÙ¾Ø§Ø¦ÙĬ": 7982,
      "ĠÚĩÙĨØ§Ø¦ÙĬ": 7983,
      "ĠÚĩÙħÚª": 7984,
      "ĠÚĩÚªØ§Ø¦ÙĬÙĨØ¯ÚĻ": 7985,
      "ĠÚĩÚ»Ø§Ø¦ÙĬ": 7986,
      "ĠØ¨ÛģØ§Ø±Ø§Úº": 7987,
      "ÙĲ...": 7988,
      "ĠØ§Ø³Ø§": 7989,
      "ĠØ§Ø³ÙĬÙĨ": 7990,
      "ĠØ§Ø³ÚªÙĪ": 7991,
      "ĠØ§Ø³Ù½Ø±": 7992,
      "ĠØ§Ø³ÙĬÙħ": 7993,
      "ĠØ§Ø³Ù½ÙĪ": 7994,
      "ĠØ§Ø³ÙħÙĨ": 7995,
      "ĠØ§Ø³Ù½ÙĬÙĪ": 7996,
      "ĠØ§Ø³Ø±Ø§Ø±": 7997,
      "ĠØ§Ø³ÛĮÙħ": 7998,
      "ĠØ§Ø³Ú»Ø§Ùģ": 7999,
      "Ù¿ÙĨ": 8000,
      "Ù¿Ø¦": 8001,
      "Ù¿ÙĬÚª": 8002,
      "Ù¿ÙĪØ±ÙĬ": 8003,
      "Ù¿Ø±Ø§": 8004,
      "Ù¿Ø±ÙĬØ¡": 8005,
      "Ù¿Ø§ÙĨÙĨ": 8006,
      "Ù¿Ø±ÙĬÚĬ": 8007,
      "Ù¿Ø§ÚĻÙĪ": 8008,
      "Ù¿ÙĪØ±ÚĻØ§": 8009,
      "ĠÙħØ§ÙĨØ³": 8010,
      "ĠÙħØ§ÙĨÙĬÙĪÙĨ": 8011,
      "ĠÙħØ§ÙĨÚ©ÙĬ": 8012,
      "ĠÙħØ§ÙĨØ¬ÙĩÙĬ": 8013,
      "ĠÙħØ§ÙĨÙĪØ§Ø±ÙĬ": 8014,
      "ĠÙħØ§ÙĨÙĪØ§Ø±Ø§": 8015,
      "ÙĬÙĨØ¯ÙĬÙĨ": 8016,
      "ÙĬÙĨØ¯ÚĻÙĨ": 8017,
      "Ø§Ø¦ÙĬÛģ": 8018,
      "Ø§Ø¦ÙĬÙ½": 8019,
      "Ø§Ø¦ÙĬÙĦÙĨ": 8020,
      "Ø§Ø¦ÙĬÙ½ÙĬÚĬ": 8021,
      "ÙĦÙĬÙĤ": 8022,
      "ÙĦÙĬÙĦØ§": 8023,
      "ÙĦÙĬÙħÙĬ": 8024,
      "ÙĦÙĬÚĬØ±": 8025,
      "ÚĬØ§": 8026,
      "ÚĬØ³": 8027,
      "ÚĬØ²": 8028,
      "ÚĬÚĢ": 8029,
      "ÚĬÙĬÚª": 8030,
      "ÚĬÙħÙĬ": 8031,
      "ÚĬÙºÙĪ": 8032,
      "ÚĬÙĬØ´ÙĨ": 8033,
      "ÚĬÙĬÙĪØ²": 8034,
      "ÚĬÚªÙ½": 8035,
      "ÚĬÚ¯ÙĩØ§": 8036,
      "ÙĬØ±Ø¬": 8037,
      "ÙĬØ±Ø§Ø¦ÙĬ": 8038,
      "ÙĬØ±Ú¯ÙĩÙĬ": 8039,
      "ÙĬØ±Ø±Ø±Ø±": 8040,
      "ØŃÛģ": 8041,
      "ØŃØª": 8042,
      "ØŃØ¬": 8043,
      "ØŃØ¨": 8044,
      "ØŃØ´": 8045,
      "ØŃØ§Øª": 8046,
      "ØŃØ·": 8047,
      "ØŃØ§ÙĤ": 8048,
      "ØŃÙħÙĬ": 8049,
      "ØŃÙĤÙĬ": 8050,
      "ØŃØ¬Ø§Ø¬": 8051,
      "ØŃØ¯ÙĨ": 8052,
      "ØŃÙĪØ§ÙĦ": 8053,
      "ØŃÙĪØ³": 8054,
      "ØŃØ§ØªÙħ": 8055,
      "ØŃØ¯Ûģ": 8056,
      "ØŃØ¬Ùħ": 8057,
      "ØŃØ¯Ùĩ": 8058,
      "ØŃØ²Ø¨": 8059,
      "ØŃØ±ÙĬÙħ": 8060,
      "ØŃÙĬØ±Øª": 8061,
      "Ø§ÙħØ¯": 8062,
      "Ø§ÙħÙĬØ±": 8063,
      "Ø§ÙħØ§Ú»ÙĬ": 8064,
      "Ø§ÙħÛĮÚº": 8065,
      "Ø§ÙħØ§Ú¾Ø§": 8066,
      "Ø§ÙħÛĮØ¯": 8067,
      "Ø§ÙħØªØŃ": 8068,
      "Ø§ÙħØ®ÙĪ": 8069,
      "Ø§ÙħÙĨÚĬÙĬØ¡": 8070,
      "ÙĨÚĮÙĦÙĬ": 8071,
      "Ø²ÙĨ": 8072,
      "Ø²ÙĪ": 8073,
      "Ø²Ø±": 8074,
      "Ø²ÛĮ": 8075,
      "Ø²ÙĪÙĨ": 8076,
      "Ø²Ø¦ÙĬ": 8077,
      "Ø²ÙĨØ¯": 8078,
      "Ø²ØªÙĬ": 8079,
      "Ø²Ø®": 8080,
      "Ø²Ø§Ø²": 8081,
      "Ø²ÙĦÙĨ": 8082,
      "Ø²ÚĪ": 8083,
      "Ø²ÙĬØ¨": 8084,
      "Ø²Ø¨Ø±Ø¯Ø³Øª": 8085,
      "Ø²Ø§Ø¯ÙĪ": 8086,
      "Ø²Ø§Ø¦ÙĦ": 8087,
      "Ø²ÙĬÙĪØ±": 8088,
      "Ø²Ø¨Ø§ÙĨ": 8089,
      "Ø²ÙĬÙĪÙħ": 8090,
      "Ø²Ø§ÙĦØ§Ú»ÙĪ": 8091,
      "ĠÙ½ÙĨ": 8092,
      "ĠÙ½Ú»": 8093,
      "ĠÙ½ÚĨ": 8094,
      "ĠÙ½ÚªØ±": 8095,
      "ĠÙ½ÙħØ§": 8096,
      "ĠÙ½Ù¾ÙĬ": 8097,
      "ĠÙ½ÙĩÚª": 8098,
      "ĠÙ½Ø±Úª": 8099,
      "ĠÙ½Ø§Ù½": 8100,
      "ĠÙ½ÚªÙĬÙ½": 8101,
      "ĠÙ½Ø§ÙħÙĪ": 8102,
      "ĠÙ½ÚªØ±Ø§": 8103,
      "ĠÙ½Ø§Ø±ÙĬØ¡": 8104,
      "ĠÙ½Ø¦ÙĬÙ½Ø±": 8105,
      "ĠÙ½Ø§ÙĨÚĬÙĪ": 8106,
      "ĠÙ½ÙĬÙĪÙħØ±": 8107,
      "ĠÙ½Ø¨ÙĦÙĬÙ½": 8108,
      "ĠÙ½Ù¾Ú»ÙĬØ¡": 8109,
      "ĠÙ½Ø§ÙħØ§Ú¾Ø§": 8110,
      "ĠÙĤØ±": 8111,
      "ĠÙĤØ§Øª": 8112,
      "ĠÙĤÚ¾Ø±": 8113,
      "ĠÙĤØ¶": 8114,
      "ĠÙĤÙħØ±": 8115,
      "ĠÙĤØ¨ÙĬ": 8116,
      "ĠÙĤØ¨ÙĦ": 8117,
      "ĠÙĤØ·ÙĨ": 8118,
      "ĠÙĤØ§Ø¯Ø±": 8119,
      "ĠÙĤÙĬØ¯ÙĬ": 8120,
      "ĠÙĤÙĪÛĮ": 8121,
      "ĠÙĤÙĬØ§Ø³": 8122,
      "ĠÙĤØ¯ÙĬØ±": 8123,
      "ĠÙĤØªÙĦØ§Ùħ": 8124,
      "ĠÙĤØ§Ø¦Ø¯Ø§": 8125,
      "ĠÙĤÛĮØ§Ùħ": 8126,
      "ĠÙĤØ±ÙĬØ´ÙĬ": 8127,
      "ĠÙĤØŃØ·": 8128,
      "ĠØ³Ø§ÙĨØª": 8129,
      "ĠØ³Ø§ÙĨÙ¾": 8130,
      "ĠØ³Ø§ÙĨØ¦ÙĨ": 8131,
      "ĠØ³Ø§ÙĨØŃØ§": 8132,
      "ĠÚĢÙ¿": 8133,
      "ĠÚĢÙĬØ±": 8134,
      "ĠÚĢØ§Ú»ÙĬ": 8135,
      "ĠÚĢØ±ÙĪ": 8136,
      "ĠÚĢØ§ÙĪ": 8137,
      "ĠÚĢÙĬØ¯": 8138,
      "ĠÚĢØ§ÙĨÙĬ": 8139,
      "ĠÚĢØ§ÚĦ": 8140,
      "ĠÚĢØ§ÚĻÙĬ": 8141,
      "ĠÚĢØªØ§": 8142,
      "ĠÚĢÙĨÚĬ": 8143,
      "ĠÚĢÙĬÙ½": 8144,
      "ĠÚĢØ±ÙĬØ§": 8145,
      "ĠÚĢÙĪØ±ÙĬ": 8146,
      "ĠÚĢØ§Ø¦ÙĬÙĨØ¯ÙĪ": 8147,
      "ĠÚĢÙĬÙĨÚĬ": 8148,
      "ĠÚĢÚ³ÙĪ": 8149,
      "ĠÚĢÚ¯Ùĩ": 8150,
      "ĠÚĢØ§ÙĬØ§": 8151,
      "ĠÚĢÙĨÙĪØ±": 8152,
      "ĠÚĢÙĨÚĢ": 8153,
      "ĠÚĢØ§Ø±ØªÙĬ": 8154,
      "ĠÚĢØ§ØªÙĬÙĨ": 8155,
      "ĠÚĢØ±Ø§ÙĬÙĨ": 8156,
      "ĠÚĢØ§ÙĨÙĬÙĪ": 8157,
      "ĠÚĢÙĬÙĨØ±ÙĨ": 8158,
      "ĠÚĢØ§Ø¦Ø±ÙĨ": 8159,
      "ĠÚĢØ§Ú»Ø¬": 8160,
      "ÙĬØ§Ø±ÙĬÙĨ": 8161,
      "ĠÚ³ÚĨ": 8162,
      "ĠÚ³Ùº": 8163,
      "ĠÚ³ØªÙĬ": 8164,
      "ĠÚ³ÚĢ": 8165,
      "ĠÚ³Ø§ÙĨÙĬ": 8166,
      "ĠÚ³Ú»ÙĬ": 8167,
      "ĠÚ³ÚĨÙĬ": 8168,
      "ĠÚ³Ø§ÚĻÙĬ": 8169,
      "ĠÚ³Ø±ÙĨ": 8170,
      "ĠÚ³Ø¦ÙĪÙĨ": 8171,
      "ĠÚ³Ø¬Ùĩ": 8172,
      "ĠÚ³ÚĢÙĪ": 8173,
      "ĠÚ³ÙĪØ±ÙĬÙĪÙĨ": 8174,
      "ĠÚ³Ú»Ú»": 8175,
      "ĠÚ³ØªÙĬÙĨØ¯": 8176,
      "ĠÚ³Ø§Ø¦Ú»ÙĬ": 8177,
      "ĠÚ³Ø§Ø±Ø§Ø¦ÙĬÙĨØ¯ÙĪ": 8178,
      "ĠÚ³ÚĮÙĦ": 8179,
      "Ø§Ø¯ÛĮ": 8180,
      "Ø§Ø¯ÙĪÙĨ": 8181,
      "Ø§Ø¯Ø±ÙĬÙĨ": 8182,
      "Ø§Ø¯Ú¾Úĳ": 8183,
      "ĠÙ¾Ø±Ú¾": 8184,
      "ĠÙ¾Ø±Ùħ": 8185,
      "ĠÙ¾Ø±Ú©": 8186,
      "ĠÙ¾Ø±Ø§Ú»": 8187,
      "ĠÙ¾Ø±Ø§Ø³": 8188,
      "ĠÙ¾Ø±ÚĢ": 8189,
      "ĠÙ¾Ø±ÙĦÙĪ": 8190,
      "ĠÙ¾Ø±ÙĪÙħ": 8191,
      "ĠÙ¾Ø±Ú¾ÙĬÙĨ": 8192,
      "ĠÙ¾Ø±ÙģØ±": 8193,
      "ĠÙ¾Ø±Ø³Ù¾": 8194,
      "ĠÙ¾Ø±ÚĨÙĬØ§ÙĨ": 8195,
      "ĠÙ¾Ø±ÙĨÙ½": 8196,
      "ĠÙ¾Ø±Ú©Ø¬ÙĬ": 8197,
      "ĠÙ¾Ø±Ø²Ø§": 8198,
      "ĠÙ¾Ø±Ø§Ø¦ÙħØ±ÙĬ": 8199,
      "ĠÙ¾Ø±Ú»Ø§ÙĬÙĪ": 8200,
      "ÙĩÙĨÙĪØ§Ø²": 8201,
      "ĠØ¹ÙĦÙĪ": 8202,
      "ĠØ¹Ø¸": 8203,
      "ĠØ¹Ø¶": 8204,
      "ĠØ¹ÙĨØ§": 8205,
      "ĠØ¹ÛĮÙĨ": 8206,
      "ĠØ¹ÛĮØ¯": 8207,
      "ĠØ¹Ø·ÙĬ": 8208,
      "ĠØ¹Ø¸ÙĬÙħ": 8209,
      "ĠØ¹ÚªØ³": 8210,
      "ĠØ¹Ø¬ÛĮ": 8211,
      "ĠØ¹ÙĬØ§Ø¯": 8212,
      "ĠØ¹Ø¯Ø¯": 8213,
      "ĠØ¹Ú©Ø³": 8214,
      "ĠØ¹ÙģÛĮ": 8215,
      "ĠØ¹ÙĬØ³Ø§": 8216,
      "ĠØ¹Ø¨Ø§Ø¯Øª": 8217,
      "ĠØ¹Ú¾Ø¯ÙĬ": 8218,
      "ĠØ¹ÙħÙĪÙħ": 8219,
      "ĠØ¹ÙĬÙĨÚª": 8220,
      "ĠØ¹ÛģØ¯ÛĮ": 8221,
      "ĠØ¹Ø¯Ø¯ÙĬ": 8222,
      "ĠØ¹ÛĮØ§Ø´ÛĮ": 8223,
      "ĠØ¹ÙĪØ±ØªÙĪ": 8224,
      "ĠØ¹Ø´Ø§ÙĤ": 8225,
      "Ø±Ø¨ÙĬ": 8226,
      "Ø±Ø¨ÙĦ": 8227,
      "ĠÙģØ§": 8228,
      "ĠÙģØ§Ø¦ÙĬ": 8229,
      "ĠÙģØ§Ø¡": 8230,
      "ĠÙģØ§ÙĤ": 8231,
      "ĠÙģØ±ÙĬÙĨ": 8232,
      "ĠÙģÙĨØ§": 8233,
      "ĠÙģÙĬØ¨": 8234,
      "ĠÙģÙĦÙĬÙ½": 8235,
      "ĠÙģÙĬØ³Ù½": 8236,
      "ĠÙģÙĬÙĪØ±": 8237,
      "ĠÙģÙĪÙ¹": 8238,
      "ĠÙģÙĩÙħ": 8239,
      "ĠÙģØ§Ø³ÙģÙĪØ±Ø³": 8240,
      "ĠÙģØ³Ø§Ø¯": 8241,
      "ĠÙģØªØŃÙħ": 8242,
      "ĠÙģØŃØ´": 8243,
      "ÙºÙĬÙĪ": 8244,
      "ÙºÙ¾": 8245,
      "ÙºÙĪÙĦ": 8246,
      "ÙºÚĻÙĬ": 8247,
      "ÙĪÙĦÛĴ": 8248,
      "ÙĪÙĦÙĬØ²": 8249,
      "ÙĪÙĦÙģÙĤ": 8250,
      "ÙĪÙĦØ§Ø¬ÙĬØ¡": 8251,
      "Ø§Ø³Ø±": 8252,
      "Ø§Ø³Ú»": 8253,
      "Ø§Ø³Ø§Ø¦ÙĬ": 8254,
      "Ø§Ø³ØªÙĨ": 8255,
      "Ø§Ø³ØªÙĪÙĨ": 8256,
      "Ø§Ø³Ø¨Øª": 8257,
      "Ø§Ø³Ù½Ø§": 8258,
      "Ø§Ø³Ú©ÛĮ": 8259,
      "Ø§Ø³Ù½Ø§Ùħ": 8260,
      "Ø§Ø³ØŃØ§ÙĤ": 8261,
      "ĠØ¬Ø§ÙĬÙĨ": 8262,
      "ĠØ¬Ø§ÙĬÙĪÙĨ": 8263,
      "ĠØ¬Ø§ÚıÙĬ": 8264,
      "ĠØ¬Ø§Ú³ÙĪ": 8265,
      "ĠØ¬Ø§ÚĻÙĬÙĪ": 8266,
      "ĠØ¬Ø§ÛģÙĦ": 8267,
      "ĠØ¬Ø§ÙĩÙĦÙĬ": 8268,
      "ĠØ³ÙĨÚĮØ¦": 8269,
      "ĠØ³ÙĨÚĮÚĻÙĬ": 8270,
      "ĠØµØ¯ÙĬ": 8271,
      "ĠØµØ¯ÙĬÙĨ": 8272,
      "ĠØµØ¯ÛĮ": 8273,
      "ĠØµÚ¦": 8274,
      "ĠØµØ¯ÙĤØ§": 8275,
      "ĠØµÙĦØŃ": 8276,
      "Ø¬ÙĪØ§ÙĨ": 8277,
      "Ø¬ÙĪØ§Ø¨": 8278,
      "Ø¬ÙĪØªÙĪ": 8279,
      "Ø¬ÙĪÚ³ÙĬ": 8280,
      "Ø¬ÙĪÚĻÙĬØ¡": 8281,
      "Ø¬ÙĪÚªÙĬØ´ÙĨ": 8282,
      "Ø§ØªÙĪ": 8283,
      "Ø§ØªØ±": 8284,
      "Ø§ØªÙĬÙĪÙĨ": 8285,
      "Ø§ØªÙĬØª": 8286,
      "ĠÙ¿ÙĬÚ»ÙĬ": 8287,
      "ĠÙ¿ÙĬÚ»ÙĪ": 8288,
      "ĠÙ¿ÙĬØ§Ø³ÙĬÙĨ": 8289,
      "ÚĻÙĬÙĦ": 8290,
      "ÙıâĢ¦": 8291,
      "ÙıâĢľ.": 8292,
      "ĠÚªØ±ÙĪ": 8293,
      "ĠÚªØ±Øª": 8294,
      "ĠÚªØ±Ø§Ø¦ÙĬÙĨ": 8295,
      "ĠÚªØ±Ú»ÙĬ": 8296,
      "ĠÚªØ±Ù½ÙĬ": 8297,
      "ĠÚªØ±Ù¹": 8298,
      "ĠÚªØ±Ø³ÙĬÙĨ": 8299,
      "ĠÚªØ±ÚªÙĬÙ½": 8300,
      "ĠÚªØ±Ø§Ø¦Ø¬ÙĬ": 8301,
      "ĠÚªØ±ÙĪÙĨØ§": 8302,
      "ĠÚªØ±ÚªÙ½": 8303,
      "ĠÚªØ±Ø§Ø¦Ø¨ÙĪ": 8304,
      "ĠÚªØ±ÙĨØ¯ÙĬÙĨ": 8305,
      "ØªÙĬÙĬ": 8306,
      "ØªÙĬØ§Ø²": 8307,
      "ØªÙĬØ§ØªÙĬ": 8308,
      "Ø§Ú»ÙĬÙĦ": 8309,
      "ĠÚªØ±ÙĬÙħ": 8310,
      "ĠÚªØ±ÙĬÚĬ": 8311,
      "ĠÚªØ±ÙĬØ³ÙĬ": 8312,
      "ĠÚªØ±ÙĬÚªØ±": 8313,
      "ĠÚªØ±ÙĬÙ½ÙĪ": 8314,
      "ÙĦØ§Úª": 8315,
      "ÙĦØ§ÚĻ": 8316,
      "ÙĦØ§ÙĤ": 8317,
      "ÙĦØ§Ú¯": 8318,
      "ÙĦØ§ÚıÙĦÙĬ": 8319,
      "ÚĢØ§Ø±": 8320,
      "ÚĢØ§Ú³": 8321,
      "ÚĢÚĦÙĬ": 8322,
      "ÚĢØ§Ø±Øª": 8323,
      "ÚĢØ§ÙĨØ¦Ø¬ÙĬ": 8324,
      "ÚĢÙĬÙĨÚį": 8325,
      "ÚĦÚª": 8326,
      "ÚĦÙĬÙĪ": 8327,
      "ÚĦØ§Ø¦ÙĪ": 8328,
      "ÚĦÙħÙĪÙĨ": 8329,
      "ÚĦØ§Ú»ÙĪ": 8330,
      "ÚĦÚ»ÙĬÙĨ": 8331,
      "ÚĦØ§Ú»Ø§ÙĨ": 8332,
      "ÚªÙĦÚ¾": 8333,
      "ÚªÙĦÙĩÛģ": 8334,
      "ÚªÙĦÙ½ÙĬ": 8335,
      "ĠÚ©Ø§ÙĨØ³ÙĪ": 8336,
      "ĠÚ©Ø§ÙĨÙ¾ÙĪ": 8337,
      "ĠÚ©Ø§ÙĨÚ¯Ú¾": 8338,
      "ĠÚ©Ø§ÙĨÚĢÙĪ": 8339,
      "ØµØ¨": 8340,
      "ØµØ§ÙĦ": 8341,
      "ØµÙĪØ±": 8342,
      "ØµØ§ØŃØ¨": 8343,
      "ØµØ§Ø¨Ø±ÙĬÙĨ": 8344,
      "ÚĥØ§Ú»ÙĬ": 8345,
      "ĠÚ³Ø§ÙĦÙĩÙĬØ±": 8346,
      "ÙĦÙĪØ³": 8347,
      "ÙĦÙĪÚª": 8348,
      "ÙĦÙĪØ¹": 8349,
      "ÙĦÙĪØ¡": 8350,
      "ÙĦÙĪÚ¯ÙĪ": 8351,
      "ÙĦÙĪÚĨÙĨ": 8352,
      "ÙĦÙĪØ¨Ûģ": 8353,
      "ĠØŃÙĬ": 8354,
      "ĠØŃÙĦ": 8355,
      "ĠØŃØ¨": 8356,
      "ĠØŃÙĬØ§": 8357,
      "ĠØŃØ§Ø¬": 8358,
      "ĠØŃØ§Ø¶": 8359,
      "ĠØŃÙħÙĦ": 8360,
      "ĠØŃØ±ÙĨ": 8361,
      "ĠØŃØ±Úª": 8362,
      "ĠØŃØ±ÙĬÙģ": 8363,
      "ĠØŃØ§ÙħÙĬ": 8364,
      "ĠØŃÙħÙĦØ§": 8365,
      "ĠØŃØ¨ÙĬØ¨": 8366,
      "ĠØŃÙĬØ±Ø§ÙĨ": 8367,
      "ĠØŃÙĬØ±Øª": 8368,
      "ĠØŃØ§ÙħØ¯": 8369,
      "ÚªÙĬØ§ÙĨ": 8370,
      "ÚªÙĬØ¦ÙĨ": 8371,
      "ÚªÙĬØªØ±ÙĨ": 8372,
      "Ø±ÙĪÙĬ": 8373,
      "Ø±ÙĪØ¯": 8374,
      "Ø±ÙĪØ§Ú¾ÙĬ": 8375,
      "Ø±ÙĪØ´ÙĨ": 8376,
      "Ø±ÙĪØ±ÙĬØ¡": 8377,
      "Ø±ÙĪØ§Ø¦ÛĮ": 8378,
      "Ø±ÙĪÙģÙĬØª": 8379,
      "Ø±ÙĪØ¶ÙĬ": 8380,
      "Ø±ÙĪÙ¹ÙĪÚº": 8381,
      "Ø±ÙĪÚ¾ÚĻÙĬØ¡": 8382,
      "ĠÙ¾ÙĪØ¦ÙĬ": 8383,
      "ĠÙ¾ÙĪØ´": 8384,
      "ĠÙ¾ÙĪÙ½Ø±": 8385,
      "ĠÙ¾ÙĪØ¦ÙĨ": 8386,
      "ĠÙ¾ÙĪÚĨÚ¾": 8387,
      "ĠÙ¾ÙĪØ³Ù¹Ø³": 8388,
      "ĠÙ¾ÙĪÚĦÙĬÙĪ": 8389,
      "ĠÛģØ§": 8390,
      "ĠÛģÛĮÙĨ": 8391,
      "ĠÛģÙĪÙĨØ§": 8392,
      "ĠÛģØ²Ø§Ø±": 8393,
      "ĠÛģØ§ÙĦÛĮ": 8394,
      "ĠÛģØªÚ¾ÛĮ": 8395,
      "Ú¾Ø§Ú¾Ø§Ú¾Ø§Ú¾Ø§Ú¾Ø§Ú¾Ø§Ú¾Ø§Ú¾Ø§": 8396,
      "Ø·Ø§Ø±": 8397,
      "Ø·Ø±ÙĬ": 8398,
      "Ø·Ø±ÙĨØ§Úª": 8399,
      "Ø³ØªØ§": 8400,
      "Ø³ØªÚ¯ÙĬØ¡": 8401,
      "Ø¸Ø§ÙĦÙħ": 8402,
      "Ø¸ÙĪØ·Ø§": 8403,
      "ĠØ§Ú¾ÙĪØ¦ÙĬ": 8404,
      "ĠØ§Ú¾ÙĪØµØ±Ùģ": 8405,
      "ĠÙĦÚ©Ø§ÙĨ": 8406,
      "ĠÙĦÚ©ÙĬØ§": 8407,
      "ĠÙĦÚ©Ø¨ÙĬ": 8408,
      "ĠÙĦÚ©ÙĨØ¯ÙĬ": 8409,
      "ĠÙĦÚ©ÙĨØ¯Ø§": 8410,
      "ĠÙĦÚ©ØªÙĨ": 8411,
      "ĠÙĦÚ©Ø±Ø§Ø¦ÙĬ": 8412,
      "ĠÙĦÚ©Ú¾ÙĨØ¦ÙĪ": 8413,
      "ĠÙĬØ§ÚĢ": 8414,
      "ĠÙĬØ§ÙģØª": 8415,
      "ĠØ³ÙħÚª": 8416,
      "ĠØ³ÙħØª": 8417,
      "ĠØ³ÙħØ¬ÙĬ": 8418,
      "ĠØ³ÙħÙĩÙĬ": 8419,
      "ĠØ³ÙħØ¨ÙĪ": 8420,
      "ĠØ³ÙħÙĪØ±ÙĪ": 8421,
      "ĠØ³ÙħÙĪØ±ÙĬ": 8422,
      "ĠØ³ÙħÙ¾ÙĦ": 8423,
[...]
